{
  "version": "1.0",
  "truncation": null,
  "padding": null,
  "added_tokens": [
    {
      "id": 0,
      "content": "<pad>",
      "single_word": false,
      "lstrip": false,
      "rstrip": false,
      "normalized": false,
      "special": true
    },
    {
      "id": 1,
      "content": "<unk>",
      "single_word": false,
      "lstrip": false,
      "rstrip": false,
      "normalized": false,
      "special": true
    },
    {
      "id": 2,
      "content": "<bos>",
      "single_word": false,
      "lstrip": false,
      "rstrip": false,
      "normalized": false,
      "special": true
    },
    {
      "id": 3,
      "content": "<eos>",
      "single_word": false,
      "lstrip": false,
      "rstrip": false,
      "normalized": false,
      "special": true
    }
  ],
  "normalizer": {
    "type": "NFKC"
  },
  "pre_tokenizer": {
    "type": "ByteLevel",
    "add_prefix_space": false,
    "trim_offsets": true,
    "use_regex": true
  },
  "post_processor": null,
  "decoder": {
    "type": "ByteLevel",
    "add_prefix_space": true,
    "trim_offsets": true,
    "use_regex": true
  },
  "model": {
    "type": "BPE",
    "dropout": null,
    "unk_token": "<unk>",
    "continuing_subword_prefix": null,
    "end_of_word_suffix": null,
    "fuse_unk": false,
    "byte_fallback": false,
    "ignore_merges": false,
    "vocab": {
      "<pad>": 0,
      "<unk>": 1,
      "<bos>": 2,
      "<eos>": 3,
      "!": 4,
      "\"": 5,
      "#": 6,
      "$": 7,
      "%": 8,
      "&": 9,
      "'": 10,
      "(": 11,
      ")": 12,
      "*": 13,
      "+": 14,
      ",": 15,
      "-": 16,
      ".": 17,
      "/": 18,
      "0": 19,
      "1": 20,
      "2": 21,
      "3": 22,
      "4": 23,
      "5": 24,
      "6": 25,
      "7": 26,
      "8": 27,
      "9": 28,
      ":": 29,
      ";": 30,
      "<": 31,
      "=": 32,
      ">": 33,
      "?": 34,
      "@": 35,
      "A": 36,
      "B": 37,
      "C": 38,
      "D": 39,
      "E": 40,
      "F": 41,
      "G": 42,
      "H": 43,
      "I": 44,
      "J": 45,
      "K": 46,
      "L": 47,
      "M": 48,
      "N": 49,
      "O": 50,
      "P": 51,
      "Q": 52,
      "R": 53,
      "S": 54,
      "T": 55,
      "U": 56,
      "V": 57,
      "W": 58,
      "X": 59,
      "Y": 60,
      "Z": 61,
      "[": 62,
      "\\": 63,
      "]": 64,
      "^": 65,
      "_": 66,
      "`": 67,
      "a": 68,
      "b": 69,
      "c": 70,
      "d": 71,
      "e": 72,
      "f": 73,
      "g": 74,
      "h": 75,
      "i": 76,
      "j": 77,
      "k": 78,
      "l": 79,
      "m": 80,
      "n": 81,
      "o": 82,
      "p": 83,
      "q": 84,
      "r": 85,
      "s": 86,
      "t": 87,
      "u": 88,
      "v": 89,
      "w": 90,
      "x": 91,
      "y": 92,
      "z": 93,
      "{": 94,
      "|": 95,
      "}": 96,
      "~": 97,
      "¡": 98,
      "¢": 99,
      "£": 100,
      "¤": 101,
      "¥": 102,
      "¦": 103,
      "§": 104,
      "¨": 105,
      "©": 106,
      "ª": 107,
      "«": 108,
      "¬": 109,
      "®": 110,
      "¯": 111,
      "°": 112,
      "±": 113,
      "²": 114,
      "³": 115,
      "´": 116,
      "µ": 117,
      "¶": 118,
      "·": 119,
      "¸": 120,
      "¹": 121,
      "º": 122,
      "»": 123,
      "¼": 124,
      "½": 125,
      "¾": 126,
      "¿": 127,
      "Â": 128,
      "Ã": 129,
      "Ä": 130,
      "Å": 131,
      "Ì": 132,
      "Î": 133,
      "Ï": 134,
      "Ð": 135,
      "Ñ": 136,
      "á": 137,
      "â": 138,
      "ä": 139,
      "å": 140,
      "ç": 141,
      "è": 142,
      "ĉ": 143,
      "Ċ": 144,
      "č": 145,
      "Ġ": 146,
      "Ģ": 147,
      "ģ": 148,
      "Ĥ": 149,
      "ĥ": 150,
      "Ħ": 151,
      "ħ": 152,
      "Ĩ": 153,
      "ĩ": 154,
      "Ī": 155,
      "ī": 156,
      "Ĭ": 157,
      "ĭ": 158,
      "Į": 159,
      "į": 160,
      "İ": 161,
      "ı": 162,
      "Ĳ": 163,
      "ĳ": 164,
      "Ĵ": 165,
      "ĵ": 166,
      "Ķ": 167,
      "ķ": 168,
      "ĸ": 169,
      "Ĺ": 170,
      "ĺ": 171,
      "Ļ": 172,
      "ļ": 173,
      "Ľ": 174,
      "ľ": 175,
      "Ŀ": 176,
      "ŀ": 177,
      "Ł": 178,
      "ł": 179,
      "Ń": 180,
      "ĠĠ": 181,
      "ĠĠĠĠ": 182,
      "čĊ": 183,
      "ĠĠĠ": 184,
      "in": 185,
      "ĠĠĠĠĠĠĠ": 186,
      "re": 187,
      "Ġt": 188,
      "er": 189,
      "st": 190,
      "on": 191,
      "Ġ*": 192,
      "se": 193,
      "at": 194,
      "le": 195,
      "de": 196,
      "ĠĠĠĠĠĠĠĠ": 197,
      "Ġ=": 198,
      "or": 199,
      "al": 200,
      "he": 201,
      "Ġi": 202,
      "ar": 203,
      "Ġc": 204,
      "en": 205,
      "Ġa": 206,
      "ct": 207,
      "Ġf": 208,
      "it": 209,
      "ur": 210,
      "Ġthe": 211,
      "Ġin": 212,
      "Ġre": 213,
      "Ġ0": 214,
      "Ġn": 215,
      "ĠĠĠĠĠĠĠĠĠĠĠ": 216,
      "Py": 217,
      "Ġp": 218,
      "Ġ(": 219,
      ");": 220,
      "Ġs": 221,
      "Ġ{": 222,
      "Ġ\"": 223,
      "me": 224,
      "ion": 225,
      "Ġb": 226,
      "ing": 227,
      "an": 228,
      "Ġo": 229,
      "urn": 230,
      "turn": 231,
      "ed": 232,
      "ro": 233,
      "ic": 234,
      "Ġif": 235,
      "Ġ#": 236,
      "->": 237,
      "Ġe": 238,
      "lf": 239,
      "ce": 240,
      "self": 241,
      "mp": 242,
      "un": 243,
      "lo": 244,
      "ue": 245,
      "Ġ'": 246,
      "Ġw": 247,
      "Ġreturn": 248,
      "ut": 249,
      "ect": 250,
      "ss": 251,
      "Ġm": 252,
      "def": 253,
      "ra": 254,
      "ode": 255,
      "ge": 256,
      "ĠPy": 257,
      "bj": 258,
      "ent": 259,
      "\",": 260,
      "Ġ}": 261,
      "--": 262,
      "ot": 263,
      "__": 264,
      "ate": 265,
      "ĠL": 266,
      "int": 267,
      "bject": 268,
      "00": 269,
      "Ġst": 270,
      "ck": 271,
      "Ġto": 272,
      "di": 273,
      "ĠN": 274,
      "Ġ/": 275,
      "ĠS": 276,
      "Ġl": 277,
      "ul": 278,
      "um": 279,
      "Ġ1": 280,
      "Ġis": 281,
      "**": 282,
      "ad": 283,
      "Ġv": 284,
      "th": 285,
      "te": 286,
      "IN": 287,
      "ĠT": 288,
      "iz": 289,
      "Ġof": 290,
      "ri": 291,
      "pe": 292,
      "LL": 293,
      "ĠC": 294,
      "ĠĠĠĠĠĠĠĠĠĠĠĠĠĠĠ": 295,
      "Ġ*/": 296,
      "il": 297,
      "()": 298,
      "Ġan": 299,
      "Ġself": 300,
      "Object": 301,
      "Ġfor": 302,
      "Ġint": 303,
      "ame": 304,
      "is": 305,
      "alue": 306,
      "la": 307,
      "od": 308,
      "ER": 309,
      ">>": 310,
      "ize": 311,
      "Ġ<": 312,
      "ET": 313,
      "Ġ_": 314,
      "Ġ->": 315,
      "pt": 316,
      "ine": 317,
      "id": 318,
      "ĠĠĠĠĠĠĠĠĠĠĠĠĠĠĠĠ": 319,
      "ist": 320,
      "Ġth": 321,
      "ol": 322,
      "ch": 323,
      "):": 324,
      "len": 325,
      "\"\"": 326,
      "ble": 327,
      "arg": 328,
      "Ġd": 329,
      "xt": 330,
      "ort": 331,
      "ĠA": 332,
      "one": 333,
      "nt": 334,
      "Ġ-": 335,
      "ype": 336,
      "Ġ==": 337,
      "ig": 338,
      "ve": 339,
      "Ġg": 340,
      "Ġ@": 341,
      "as": 342,
      "IT": 343,
      "ap": 344,
      "Ġh": 345,
      "ke": 346,
      "if": 347,
      "Ġcon": 348,
      "Ġ+": 349,
      "ring": 350,
      "get": 351,
      "Ġdef": 352,
      "ile": 353,
      "Ġu": 354,
      "Ġbe": 355,
      "Ġand": 356,
      "ror": 357,
      "all": 358,
      "AT": 359,
      "set": 360,
      "ver": 361,
      "ter": 362,
      "))": 363,
      "am": 364,
      "ation": 365,
      "----": 366,
      "RE": 367,
      "co": 368,
      "ata": 369,
      "ith": 370,
      "ult": 371,
      "ction": 372,
      "Ġex": 373,
      "TER": 374,
      "ment": 375,
      "ULL": 376,
      "Ġch": 377,
      "up": 378,
      "atic": 379,
      "ĠPyObject": 380,
      "cl": 381,
      "ase": 382,
      "Ġco": 383,
      "ĠI": 384,
      "Ġ2": 385,
      "Ġ&": 386,
      "par": 387,
      "MA": 388,
      "Ġne": 389,
      "code": 390,
      "ub": 391,
      "con": 392,
      "Ġnot": 393,
      "ack": 394,
      "Re": 395,
      "(\"": 396,
      "ĠD": 397,
      "able": 398,
      "et": 399,
      "ff": 400,
      "Ġ'\\": 401,
      "Er": 402,
      "ber": 403,
      "ĠNULL": 404,
      "',": 405,
      "AL": 406,
      "end": 407,
      "St": 408,
      "Ġ/*": 409,
      "args": 410,
      "ime": 411,
      "Ġ>>": 412,
      "Ġ\"\"\"": 413,
      "and": 414,
      "ETTER": 415,
      "ĠLETTER": 416,
      "name": 417,
      "el": 418,
      "key": 419,
      "rom": 420,
      "qu": 421,
      "Ġdi": 422,
      "==": 423,
      "Ġor": 424,
      "ray": 425,
      "ON": 426,
      "ĠF": 427,
      "ts": 428,
      "ac": 429,
      "umber": 430,
      "Ġel": 431,
      "LE": 432,
      "loc": 433,
      "Ġ>>>": 434,
      "oid": 435,
      "._": 436,
      "Ġde": 437,
      "Ġ[": 438,
      "ly": 439,
      "Ġvalue": 440,
      "op": 441,
      "Ġr": 442,
      "put": 443,
      "ption": 444,
      "ĠB": 445,
      "ule": 446,
      "Ġchar": 447,
      "****": 448,
      "os": 449,
      "ht": 450,
      "ST": 451,
      "),": 452,
      "us": 453,
      "mport": 454,
      "li": 455,
      "ath": 456,
      "Error": 457,
      "ĠNone": 458,
      "ert": 459,
      "ma": 460,
      "es": 461,
      "odule": 462,
      "ĠP": 463,
      "pre": 464,
      "Ġma": 465,
      "AR": 466,
      "lass": 467,
      "Ġ//": 468,
      "static": 469,
      "inal": 470,
      "ĠM": 471,
      "ĠE": 472,
      "Ġelse": 473,
      "param": 474,
      "AP": 475,
      "oc": 476,
      "ind": 477,
      "/*": 478,
      "ĠW": 479,
      "value": 480,
      "ext": 481,
      "lic": 482,
      "size": 483,
      "em": 484,
      "Ġse": 485,
      "DE": 486,
      "ree": 487,
      "unction": 488,
      "rent": 489,
      "ex": 490,
      "Ġme": 491,
      "mple": 492,
      "Ġ|": 493,
      "ATIN": 494,
      "ong": 495,
      "ĠLATIN": 496,
      "art": 497,
      "read": 498,
      "Ġ!": 499,
      "array": 500,
      "Ġby": 501,
      "ĠĠĠĠĠĠĠĠĠĠĠĠĠĠĠĠĠĠĠ": 502,
      "Ġthis": 503,
      "..": 504,
      "##": 505,
      "Ġwith": 506,
      "fi": 507,
      "define": 508,
      "Ġsize": 509,
      "str": 510,
      "Ġ3": 511,
      "dex": 512,
      "OR": 513,
      "ĠThe": 514,
      "ull": 515,
      "bu": 516,
      "Ġun": 517,
      "ds": 518,
      "age": 519,
      "ow": 520,
      "Ġres": 521,
      "ry": 522,
      "red": 523,
      "res": 524,
      "Ġnew": 525,
      "ĉĉ": 526,
      "ip": 527,
      "In": 528,
      "ive": 529,
      "Ġas": 530,
      "im": 531,
      "row": 532,
      "ise": 533,
      "alloc": 534,
      "rue": 535,
      "Ġpro": 536,
      "Ġstr": 537,
      "return": 538,
      "Ġ{@": 539,
      "ĠO": 540,
      "ign": 541,
      "rint": 542,
      "type": 543,
      "ers": 544,
      "uct": 545,
      "MALL": 546,
      "Ġnumber": 547,
      "om": 548,
      "Ġwh": 549,
      "sed": 550,
      "ance": 551,
      "cur": 552,
      "der": 553,
      "\")": 554,
      "Ex": 555,
      "Ġj": 556,
      "heck": 557,
      "ir": 558,
      "Ġ\\": 559,
      "mat": 560,
      "act": 561,
      "Ġon": 562,
      "IG": 563,
      "state": 564,
      "Ġlist": 565,
      "IC": 566,
      "Ġthat": 567,
      "Ġ__": 568,
      "],": 569,
      "low": 570,
      "Ġdo": 571,
      "unt": 572,
      "--------": 573,
      "error": 574,
      "for": 575,
      "ĠU": 576,
      "ĠH": 577,
      "RA": 578,
      "pro": 579,
      "rit": 580,
      "Ġ>": 581,
      "Ġlen": 582,
      "ublic": 583,
      "ception": 584,
      "clu": 585,
      "to": 586,
      "data": 587,
      "Ġare": 588,
      "lock": 589,
      "est": 590,
      "ĠĠĠĠĠ": 591,
      "\");": 592,
      "ft": 593,
      "Ġso": 594,
      "Ġ!=": 595,
      "ache": 596,
      "line": 597,
      "ĠG": 598,
      "alse": 599,
      "Ġfrom": 600,
      "64": 601,
      "ink": 602,
      "ĠV": 603,
      "dd": 604,
      "clude": 605,
      "ast": 606,
      "//": 607,
      "Ġal": 608,
      "ated": 609,
      "val": 610,
      "oo": 611,
      "py": 612,
      "ĠSt": 613,
      "ĠSMALL": 614,
      "gth": 615,
      "ta": 616,
      "Ġ/**": 617,
      "Ġra": 618,
      "Ġx": 619,
      "void": 620,
      "thod": 621,
      "Ar": 622,
      "text": 623,
      "Ġle": 624,
      "tsd": 625,
      "ĠR": 626,
      "lement": 627,
      "Ġen": 628,
      "ser": 629,
      "('": 630,
      "ING": 631,
      "ange": 632,
      "Ġkey": 633,
      "mo": 634,
      "pa": 635,
      "Ġ%": 636,
      "Ġit": 637,
      "oint": 638,
      "EN": 639,
      "Ġy": 640,
      "PyObject": 641,
      "cess": 642,
      "Ġhe": 643,
      "Ġconst": 644,
      "====": 645,
      "app": 646,
      "32": 647,
      "und": 648,
      "out": 649,
      "add": 650,
      "])": 651,
      "dif": 652,
      "ĠCAP": 653,
      "ial": 654,
      "ITAL": 655,
      "rig": 656,
      "ĠCAPITAL": 657,
      "ua": 658,
      "Type": 659,
      "per": 660,
      "Ġ&&": 661,
      "list": 662,
      "ition": 663,
      "ys": 664,
      "Ġcode": 665,
      "Ġpublic": 666,
      "Ġprint": 667,
      "Ġwe": 668,
      "ssert": 669,
      "fo": 670,
      "Ġnode": 671,
      "Ġname": 672,
      "Ġnull": 673,
      "Ġfinal": 674,
      "ne": 675,
      "module": 676,
      "sh": 677,
      "Ġfile": 678,
      "right": 679,
      "ab": 680,
      "ity": 681,
      "Ġobject": 682,
      "ary": 683,
      "SI": 684,
      "ĠRe": 685,
      "ument": 686,
      "Ġstring": 687,
      "ED": 688,
      "];": 689,
      "rap": 690,
      "ill": 691,
      "Ġget": 692,
      "Ġarray": 693,
      "ust": 694,
      "mm": 695,
      "ure": 696,
      "Ġbu": 697,
      "Ġvoid": 698,
      "Ġresult": 699,
      "Ġset": 700,
      "')": 701,
      "++": 702,
      "ash": 703,
      "ak": 704,
      "endif": 705,
      "ator": 706,
      "tes": 707,
      "},": 708,
      "iv": 709,
      "cod": 710,
      "import": 711,
      "UN": 712,
      "String": 713,
      "ĠĠĠĠĠĠ": 714,
      "********": 715,
      "Ġpri": 716,
      "ETH": 717,
      "vent": 718,
      "Ġ:": 719,
      "stance": 720,
      "ener": 721,
      "pec": 722,
      "Ġsh": 723,
      "ty": 724,
      "Ġinput": 725,
      "Ġ4": 726,
      "Ġfunction": 727,
      "Ġcur": 728,
      "Ġk": 729,
      "que": 730,
      "OD": 731,
      "Ġstatic": 732,
      "io": 733,
      "uple": 734,
      "Ġraise": 735,
      "Ġtype": 736,
      "Ġpre": 737,
      "ms": 738,
      "include": 739,
      "back": 740,
      "Ġat": 741,
      "file": 742,
      "so": 743,
      "ĠTh": 744,
      "Ġimport": 745,
      "();": 746,
      "class": 747,
      ").": 748,
      "\"\"\"": 749,
      "ĠWIT": 750,
      "its": 751,
      "of": 752,
      "Ġwhe": 753,
      "Ġdata": 754,
      "tp": 755,
      "tr": 756,
      "ffer": 757,
      "ĠWITH": 758,
      "25": 759,
      "ault": 760,
      "None": 761,
      "Ġ(!": 762,
      "ger": 763,
      "are": 764,
      "char": 765,
      "path": 766,
      "[]": 767,
      "RO": 768,
      "Ġcall": 769,
      "Ġtime": 770,
      "ther": 771,
      "Ġadd": 772,
      "Ġcan": 773,
      "Ġlo": 774,
      "Ġstart": 775,
      "Ġ5": 776,
      "ard": 777,
      "Ġcase": 778,
      "Ġgot": 779,
      "ined": 780,
      "init": 781,
      "Con": 782,
      "Ġend": 783,
      "urce": 784,
      "ou": 785,
      "sc": 786,
      "OC": 787,
      "Ġfi": 788,
      "sp": 789,
      "root": 790,
      "node": 791,
      "ĠString": 792,
      "doc": 793,
      "Arg": 794,
      "Ġcomp": 795,
      "));": 796,
      "link": 797,
      "Ġelement": 798,
      "ec": 799,
      "Ġgoto": 800,
      "Ġout": 801,
      "lag": 802,
      "Ġpa": 803,
      "ĠĠĠĠĠĠĠĠĠĠĠĠĠĠĠĠĠĠĠĠĠĠĠĠĠĠĠĠĠĠĠĠ": 804,
      "sign": 805,
      "eld": 806,
      "ses": 807,
      "...": 808,
      "ore": 809,
      "HA": 810,
      "Ġline": 811,
      "unc": 812,
      "cept": 813,
      "Exception": 814,
      "time": 815,
      "Ġmat": 816,
      "IS": 817,
      "mpl": 818,
      "01": 819,
      "ord": 820,
      "av": 821,
      "ern": 822,
      "Ġclass": 823,
      "AD": 824,
      "Ġmax": 825,
      "Ġuint": 826,
      "ild": 827,
      "ory": 828,
      "Ġwhile": 829,
      "Ġ.": 830,
      "ream": 831,
      "ide": 832,
      "ĠIn": 833,
      "CO": 834,
      "Ġarg": 835,
      "Ġ||": 836,
      "Ġpos": 837,
      "mpd": 838,
      "from": 839,
      "Ġerror": 840,
      "ĠThis": 841,
      "STR": 842,
      "Ġlong": 843,
      "ool": 844,
      "ep": 845,
      "mpty": 846,
      "test": 847,
      "Ġpar": 848,
      "vate": 849,
      "ail": 850,
      "Set": 851,
      "lean": 852,
      "by": 853,
      "Ġ{\"": 854,
      "impl": 855,
      "Ġcurrent": 856,
      "De": 857,
      "Ġstruct": 858,
      "pp": 859,
      "loat": 860,
      "fe": 861,
      "reak": 862,
      "IL": 863,
      "Ġindex": 864,
      "buf": 865,
      "State": 866,
      "UT": 867,
      "Ġmethod": 868,
      "Ġ+=": 869,
      "string": 870,
      "ND": 871,
      "Un": 872,
      "ound": 873,
      "AC": 874,
      "Ġall": 875,
      "cre": 876,
      "Ġlua": 877,
      "obj": 878,
      "ĠK": 879,
      "12": 880,
      "ĠĠĠĠĠĠĠĠĠĠĠĠĠĠĠĠĠĠĠĠĠĠĠ": 881,
      "base": 882,
      "Ġcol": 883,
      "coding": 884,
      "List": 885,
      "Ġprivate": 886,
      "ctx": 887,
      "####": 888,
      "':": 889,
      "err": 890,
      "length": 891,
      "sion": 892,
      "rite": 893,
      "ssize": 894,
      "ins": 895,
      "thon": 896,
      "Ġrange": 897,
      "Ġz": 898,
      "raph": 899,
      "SE": 900,
      "__(": 901,
      "ren": 902,
      "lename": 903,
      "irst": 904,
      "kip": 905,
      "Ġwill": 906,
      "fix": 907,
      "item": 908,
      "tsdn": 909,
      "OT": 910,
      "index": 911,
      "Ġmust": 912,
      "quen": 913,
      "ĠTrue": 914,
      "append": 915,
      "ssage": 916,
      "DEF": 917,
      "struct": 918,
      "comp": 919,
      "ken": 920,
      "arch": 921,
      "rib": 922,
      "sing": 923,
      "((": 924,
      "tern": 925,
      "ader": 926,
      "alueError": 927,
      "pos": 928,
      "FF": 929,
      "\":": 930,
      "lit": 931,
      "0000": 932,
      "ich": 933,
      "Err": 934,
      "main": 935,
      "signed": 936,
      "not": 937,
      "][": 938,
      "edata": 939,
      "Ġassert": 940,
      "mplement": 941,
      "ant": 942,
      "ave": 943,
      "10": 944,
      "lags": 945,
      "ĠIf": 946,
      "uint": 947,
      "ations": 948,
      "uld": 949,
      "Node": 950,
      "kw": 951,
      "Ġbreak": 952,
      "gor": 953,
      "rix": 954,
      "ask": 955,
      "iven": 956,
      "Ġsub": 957,
      "fig": 958,
      "Ġspec": 959,
      "(&": 960,
      "final": 961,
      "Ġpoint": 962,
      "race": 963,
      "BU": 964,
      "Ġlast": 965,
      "ZE": 966,
      "gorith": 967,
      "teger": 968,
      "API": 969,
      "icen": 970,
      "Long": 971,
      "new": 972,
      "Ġother": 973,
      "Ġ...": 974,
      "attern": 975,
      "LI": 976,
      "Ġgener": 977,
      "(_": 978,
      "port": 979,
      "++)": 980,
      "ang": 981,
      "*/": 982,
      "oolean": 983,
      "cache": 984,
      "yn": 985,
      "UM": 986,
      "BLE": 987,
      "Ġuse": 988,
      "num": 989,
      "ded": 990,
      "04": 991,
      "map": 992,
      "Ġtrue": 993,
      "ribut": 994,
      "METH": 995,
      "'s": 996,
      "Co": 997,
      "Ġtest": 998,
      "Ġcharact": 999,
      "([": 1000,
      "Ġ*)": 1001,
      "RI": 1002,
      "nd": 1003,
      "ans": 1004,
      "Ġ<=": 1005,
      "Ġext": 1006,
      "ight": 1007,
      "Int": 1008,
      "Function": 1009,
      "VE": 1010,
      "CT": 1011,
      "const": 1012,
      "bin": 1013,
      "util": 1014,
      "Ġused": 1015,
      "no": 1016,
      "ION": 1017,
      "Ġexit": 1018,
      "Ġ)": 1019,
      "Ġtry": 1020,
      "Ġpath": 1021,
      "://": 1022,
      "ĠValueError": 1023,
      "Ġfirst": 1024,
      "iter": 1025,
      "CA": 1026,
      ".__": 1027,
      "quence": 1028,
      "lib": 1029,
      "next": 1030,
      "left": 1031,
      "ay": 1032,
      "cket": 1033,
      "000": 1034,
      "lace": 1035,
      "US": 1036,
      "----------------": 1037,
      "Ġgiven": 1038,
      "ĠReturn": 1039,
      "ning": 1040,
      "========": 1041,
      "form": 1042,
      "ook": 1043,
      "Ġcheck": 1044,
      "pack": 1045,
      "ll": 1046,
      "rep": 1047,
      "Ġcont": 1048,
      "Ġargs": 1049,
      "Ġnum": 1050,
      "icode": 1051,
      "())": 1052,
      "Ġhas": 1053,
      "REF": 1054,
      "Ġwhich": 1055,
      "date": 1056,
      "rame": 1057,
      "OW": 1058,
      "ould": 1059,
      "Ġ8": 1060,
      "number": 1061,
      "Ġ>=": 1062,
      "ally": 1063,
      "Ġac": 1064,
      "Ġmpd": 1065,
      "ava": 1066,
      "Ġright": 1067,
      "ptr": 1068,
      "Ġexcept": 1069,
      "IGN": 1070,
      "HE": 1071,
      "UP": 1072,
      "Ġmin": 1073,
      "Ġexp": 1074,
      "VAR": 1075,
      "col": 1076,
      "HT": 1077,
      "ative": 1078,
      "Ġdefault": 1079,
      "count": 1080,
      "rows": 1081,
      "ES": 1082,
      "ix": 1083,
      "rect": 1084,
      "reate": 1085,
      "ĠFalse": 1086,
      "rc": 1087,
      "Ġno": 1088,
      "ifi": 1089,
      "LA": 1090,
      "ĠĠĠĠĠĠĠĠĠ": 1091,
      "Ġfalse": 1092,
      "Module": 1093,
      "MAX": 1094,
      "Bu": 1095,
      "tps": 1096,
      "\"\\": 1097,
      "ords": 1098,
      "info": 1099,
      "dis": 1100,
      "result": 1101,
      "ress": 1102,
      "lose": 1103,
      "ĠPyErr": 1104,
      "Ġstate": 1105,
      "Ġleft": 1106,
      "ach": 1107,
      "Ġ((": 1108,
      "Ġsup": 1109,
      "Ġmay": 1110,
      "itial": 1111,
      "led": 1112,
      "til": 1113,
      "Ġone": 1114,
      "call": 1115,
      "KE": 1116,
      "cs": 1117,
      "</": 1118,
      "METHOD": 1119,
      "Ġval": 1120,
      "inic": 1121,
      "sent": 1122,
      "'t": 1123,
      "SIZE": 1124,
      "Ġup": 1125,
      "we": 1126,
      "IO": 1127,
      "vel": 1128,
      "start": 1129,
      "Ġab": 1130,
      "Ġcal": 1131,
      "Ġwhen": 1132,
      "ob": 1133,
      "Ġite": 1134,
      "max": 1135,
      "03": 1136,
      "uble": 1137,
      "Ġ6": 1138,
      "Get": 1139,
      "move": 1140,
      "clinic": 1141,
      "Ġdouble": 1142,
      "cent": 1143,
      "dict": 1144,
      "ey": 1145,
      "DEC": 1146,
      "Ġtext": 1147,
      "Ġbase": 1148,
      "Ġvalues": 1149,
      "andom": 1150,
      "Ġ10": 1151,
      "Ġsu": 1152,
      "ME": 1153,
      "ari": 1154,
      "igh": 1155,
      "ifdef": 1156,
      "sub": 1157,
      "ĠX": 1158,
      "Time": 1159,
      "andl": 1160,
      "ample": 1161,
      "ution": 1162,
      "Ġos": 1163,
      "PE": 1164,
      "QU": 1165,
      "11": 1166,
      "icense": 1167,
      "Ġnext": 1168,
      "nect": 1169,
      "atch": 1170,
      "IGHT": 1171,
      "lect": 1172,
      "ĠCon": 1173,
      "Ġdefined": 1174,
      "har": 1175,
      "db": 1176,
      "OU": 1177,
      "dir": 1178,
      "Ġbytes": 1179,
      "Ġper": 1180,
      "mod": 1181,
      "Ġfloat": 1182,
      "****************": 1183,
      "};": 1184,
      "INT": 1185,
      "METHODDEF": 1186,
      "ONT": 1187,
      "FUN": 1188,
      "stat": 1189,
      "own": 1190,
      "ID": 1191,
      "/**": 1192,
      "Ġlength": 1193,
      "stem": 1194,
      "Ġusing": 1195,
      "Th": 1196,
      "func": 1197,
      "Ġbin": 1198,
      "GET": 1199,
      "ib": 1200,
      "pace": 1201,
      "qui": 1202,
      "ENT": 1203,
      "Ġonly": 1204,
      "vert": 1205,
      "ystem": 1206,
      "EX": 1207,
      "arr": 1208,
      "Ġjava": 1209,
      "Ġoutput": 1210,
      "ĠRE": 1211,
      "ost": 1212,
      "wo": 1213,
      "ew": 1214,
      "object": 1215,
      "ĠMETH": 1216,
      "queue": 1217,
      "als": 1218,
      "OP": 1219,
      "Ġelif": 1220,
      "Ġ`": 1221,
      "INGS": 1222,
      "fd": 1223,
      "Ġop": 1224,
      "ĠĠĠĠĠĠĠĠĠĠ": 1225,
      "gist": 1226,
      "au": 1227,
      "Ġcount": 1228,
      "the": 1229,
      "imal": 1230,
      "assert": 1231,
      "Ġmodule": 1232,
      "roup": 1233,
      "ĠBO": 1234,
      "Ġ7": 1235,
      "Ġroot": 1236,
      "exp": 1237,
      "Ġargument": 1238,
      "Ġ**": 1239,
      "Ġsort": 1240,
      "}.": 1241,
      "her": 1242,
      "FUNC": 1243,
      "ush": 1244,
      "PyC": 1245,
      "wa": 1246,
      "SC": 1247,
      "raceback": 1248,
      "Ġsys": 1249,
      "Ġmem": 1250,
      "ale": 1251,
      "Ġimplement": 1252,
      "wi": 1253,
      "lection": 1254,
      "Ġread": 1255,
      "RAW": 1256,
      "().": 1257,
      "Doc": 1258,
      "MP": 1259,
      "ies": 1260,
      "ĠJ": 1261,
      "lua": 1262,
      "Ġsc": 1263,
      "ORD": 1264,
      "tree": 1265,
      "Ġhave": 1266,
      "crement": 1267,
      "input": 1268,
      "Ġany": 1269,
      "ĠSe": 1270,
      "REE": 1271,
      "min": 1272,
      "ĠSIGN": 1273,
      "cond": 1274,
      "ible": 1275,
      "99": 1276,
      "ork": 1277,
      "02": 1278,
      "FT": 1279,
      "org": 1280,
      "Ġoper": 1281,
      "otal": 1282,
      "Se": 1283,
      "mt": 1284,
      "ĠDRAW": 1285,
      "ĠBOX": 1286,
      "ĠDRAWINGS": 1287,
      "comm": 1288,
      "rence": 1289,
      "edge": 1290,
      "Ġ</": 1291,
      "From": 1292,
      "Ġht": 1293,
      "sum": 1294,
      "__,": 1295,
      "Ġser": 1296,
      "valid": 1297,
      "Ġmessage": 1298,
      "Ġshould": 1299,
      "Ġinter": 1300,
      "Ġempty": 1301,
      "Name": 1302,
      "leg": 1303,
      ")\\": 1304,
      "Ġqu": 1305,
      "16": 1306,
      "].": 1307,
      "ptional": 1308,
      "ML": 1309,
      "andle": 1310,
      "log": 1311,
      "TY": 1312,
      "ernal": 1313,
      "DECREF": 1314,
      "UL": 1315,
      "buffer": 1316,
      "olution": 1317,
      "Tuple": 1318,
      "Array": 1319,
      "Ġdefine": 1320,
      "Ġdict": 1321,
      "write": 1322,
      "Check": 1323,
      "Ġstack": 1324,
      "Value": 1325,
      "check": 1326,
      "GE": 1327,
      "ĠAND": 1328,
      "Ġcom": 1329,
      "format": 1330,
      "TR": 1331,
      "Ġinstance": 1332,
      "prof": 1333,
      "Ġconta": 1334,
      "To": 1335,
      "ified": 1336,
      "Argument": 1337,
      "fter": 1338,
      "As": 1339,
      "filename": 1340,
      "]);": 1341,
      "gorithm": 1342,
      "Ġformat": 1343,
      "inter": 1344,
      "dent": 1345,
      "Pro": 1346,
      "KEY": 1347,
      "OUBLE": 1348,
      "Ġthan": 1349,
      "malloc": 1350,
      "Ġiter": 1351,
      "ERR": 1352,
      "BUIL": 1353,
      "Ġte": 1354,
      "Ġnargs": 1355,
      "entry": 1356,
      "version": 1357,
      "ient": 1358,
      "words": 1359,
      "GS": 1360,
      "PyAPI": 1361,
      "andler": 1362,
      "Util": 1363,
      "Lo": 1364,
      "bo": 1365,
      "PyArg": 1366,
      "imum": 1367,
      "='": 1368,
      "na": 1369,
      "Ġbut": 1370,
      "():": 1371,
      "cul": 1372,
      "Ġevent": 1373,
      "ultip": 1374,
      "current": 1375,
      "Key": 1376,
      "Ġfind": 1377,
      "Ġsource": 1378,
      "Ġunsigned": 1379,
      "ls": 1380,
      "ince": 1381,
      "Ġboolean": 1382,
      "Ġthread": 1383,
      "names": 1384,
      "Ġgenerated": 1385,
      "ync": 1386,
      "Ġtr": 1387,
      "Ġnon": 1388,
      "bytes": 1389,
      "mem": 1390,
      "Ġexception": 1391,
      "YRI": 1392,
      "print": 1393,
      "LLIC": 1394,
      "CORE": 1395,
      "YRILLIC": 1396,
      "ĠCYRILLIC": 1397,
      "Ġsum": 1398,
      "Ġinto": 1399,
      "ĠEx": 1400,
      "ĠCo": 1401,
      "flags": 1402,
      "ero": 1403,
      "Ġapp": 1404,
      "riter": 1405,
      "AN": 1406,
      "ref": 1407,
      "Ġ?": 1408,
      "Utils": 1409,
      "Ġtwo": 1410,
      "lob": 1411,
      "indow": 1412,
      "ilder": 1413,
      "hook": 1414,
      "ors": 1415,
      "ĠAr": 1416,
      "BUILD": 1417,
      "Return": 1418,
      "ouble": 1419,
      "sort": 1420,
      "pl": 1421,
      "Ġcomm": 1422,
      "gra": 1423,
      "Ġprintf": 1424,
      "ia": 1425,
      "Ġbool": 1426,
      "ĠLicense": 1427,
      "PyDoc": 1428,
      "STRVAR": 1429,
      "ĠNode": 1430,
      "Ġunder": 1431,
      "ply": 1432,
      "Ġdec": 1433,
      "Ġitem": 1434,
      "event": 1435,
      "method": 1436,
      "Ġblock": 1437,
      "mplex": 1438,
      "Ġ[]": 1439,
      "Ġad": 1440,
      "gest": 1441,
      "coder": 1442,
      "Ġro": 1443,
      "instance": 1444,
      "Ġinitial": 1445,
      "Ġbuffer": 1446,
      "ĠDOUBLE": 1447,
      "HAR": 1448,
      "ick": 1449,
      "INE": 1450,
      "cont": 1451,
      "present": 1452,
      "ĠĠĠĠĠĠĠĠĠĠĠĠ": 1453,
      "22": 1454,
      "ĠReturns": 1455,
      "Code": 1456,
      "fa": 1457,
      "cy": 1458,
      "Ġcharacter": 1459,
      "By": 1460,
      "most": 1461,
      "ci": 1462,
      "legal": 1463,
      "WORD": 1464,
      "oin": 1465,
      "hash": 1466,
      "tuple": 1467,
      "Ġloc": 1468,
      "sha": 1469,
      "idth": 1470,
      "attr": 1471,
      "ersion": 1472,
      "Ġmatch": 1473,
      "FA": 1474,
      "llegal": 1475,
      "table": 1476,
      "Ġeach": 1477,
      "mit": 1478,
      "Ġelements": 1479,
      "Ġnp": 1480,
      "Unicode": 1481,
      "ices": 1482,
      "=\"": 1483,
      "che": 1484,
      "lear": 1485,
      "exit": 1486,
      "Ġdoct": 1487,
      "ield": 1488,
      "ters": 1489,
      "OCK": 1490,
      "TH": 1491,
      "tex": 1492,
      "pri": 1493,
      "head": 1494,
      "ĠIllegal": 1495,
      "Ġpattern": 1496,
      "Par": 1497,
      "Ġtree": 1498,
      "arget": 1499,
      "Ġposition": 1500,
      "ific": 1501,
      "SET": 1502,
      "Ġover": 1503,
      "ailable": 1504,
      "13": 1505,
      "He": 1506,
      "ns": 1507,
      "PyCFunction": 1508,
      "Ġhash": 1509,
      "ript": 1510,
      "DIS": 1511,
      "Ġbit": 1512,
      "thread": 1513,
      "throws": 1514,
      "tra": 1515,
      "ok": 1516,
      "ute": 1517,
      "Ġspecified": 1518,
      "curs": 1519,
      "Ġdoctest": 1520,
      "--\\": 1521,
      "ffe": 1522,
      "Ġdist": 1523,
      "dec": 1524,
      "gits": 1525,
      "config": 1526,
      "off": 1527,
      "ain": 1528,
      "++;": 1529,
      "Ġthrow": 1530,
      "ĉĉĉĉ": 1531,
      "Def": 1532,
      "verse": 1533,
      "ote": 1534,
      "TO": 1535,
      "]*/": 1536,
      "ĠĠĠĠĠĠĠĠĠĠĠĠĠ": 1537,
      "/*[": 1538,
      "Ġparent": 1539,
      "MOD": 1540,
      "sg": 1541,
      "ĠMA": 1542,
      "mb": 1543,
      "ump": 1544,
      "LO": 1545,
      "old": 1546,
      "TI": 1547,
      "mut": 1548,
      "Ġ\"__": 1549,
      "INIT": 1550,
      "Ġsizeof": 1551,
      "ĠPython": 1552,
      "Ġmore": 1553,
      "Hash": 1554,
      "default": 1555,
      "ector": 1556,
      "SS": 1557,
      "ates": 1558,
      "ĠY": 1559,
      "The": 1560,
      ".\");": 1561,
      "########": 1562,
      "Ġtemp": 1563,
      "For": 1564,
      "]:": 1565,
      "Ġbinary": 1566,
      "Ġgraph": 1567,
      "Ent": 1568,
      "source": 1569,
      "bit": 1570,
      "arning": 1571,
      "ized": 1572,
      "Index": 1573,
      "block": 1574,
      "Ġrepresent": 1575,
      "Ġorder": 1576,
      "lay": 1577,
      "point": 1578,
      "Ġ9": 1579,
      "Ġmode": 1580,
      "package": 1581,
      "Ġreturns": 1582,
      "ariable": 1583,
      "NO": 1584,
      "VER": 1585,
      "UR": 1586,
      "Ġpass": 1587,
      "ef": 1588,
      "ccess": 1589,
      ".\"\"\"": 1590,
      "Stream": 1591,
      "IGIT": 1592,
      "Ġmo": 1593,
      "wise": 1594,
      "Ġequ": 1595,
      "Ġmatrix": 1596,
      "ph": 1597,
      "UA": 1598,
      "split": 1599,
      "Ġisinstance": 1600,
      "md": 1601,
      "Ġwas": 1602,
      "ĠĠĠĠĠĠĠĠĠĠĠĠĠĠĠĠĠĠĠĠĠĠĠĠĠĠĠ": 1603,
      "Size": 1604,
      "Ġrun": 1605,
      "rol": 1606,
      "argv": 1607,
      "Ġlog": 1608,
      "free": 1609,
      "Ġtra": 1610,
      "context": 1611,
      "inen": 1612,
      "gative": 1613,
      "spec": 1614,
      "ĠAC": 1615,
      "close": 1616,
      "with": 1617,
      ".\\": 1618,
      "onent": 1619,
      "com": 1620,
      "see": 1621,
      "Ġbuf": 1622,
      "stack": 1623,
      "($": 1624,
      "Ġ<<": 1625,
      "vide": 1626,
      "unk": 1627,
      "\"--\\": 1628,
      "Ġrecent": 1629,
      "MALLOC": 1630,
      "IR": 1631,
      "ected": 1632,
      "addr": 1633,
      "Ġver": 1634,
      "Ġoff": 1635,
      "long": 1636,
      "ww": 1637,
      "stri": 1638,
      "ndef": 1639,
      "press": 1640,
      "Ġsign": 1641,
      "Ġfilename": 1642,
      "Ġvalid": 1643,
      "55": 1644,
      "fore": 1645,
      "ld": 1646,
      "ccur": 1647,
      "ĠUn": 1648,
      "Exc": 1649,
      "TYPE": 1650,
      "ATE": 1651,
      "Ġdoes": 1652,
      "ONE": 1653,
      "ArgumentException": 1654,
      "gment": 1655,
      "Ġinline": 1656,
      "ference": 1657,
      "ĠIllegalArgumentException": 1658,
      "AS": 1659,
      "tribut": 1660,
      "join": 1661,
      "sys": 1662,
      "Ġhttps": 1663,
      "encode": 1664,
      "ineno": 1665,
      "Ġinteger": 1666,
      "__},": 1667,
      "omic": 1668,
      "quest": 1669,
      "word": 1670,
      "ifndef": 1671,
      "iss": 1672,
      "ark": 1673,
      "Ġtoken": 1674,
      "ify": 1675,
      "Ġprocess": 1676,
      "su": 1677,
      "Ġfound": 1678,
      "ĠTraceback": 1679,
      "open": 1680,
      "be": 1681,
      "Reply": 1682,
      "Ġmain": 1683,
      "byte": 1684,
      "Pos": 1685,
      "Ġalloc": 1686,
      "typedef": 1687,
      "edia": 1688,
      "lease": 1689,
      "Of": 1690,
      "Ġcontin": 1691,
      "inked": 1692,
      "graph": 1693,
      "ĠObject": 1694,
      "Ġserver": 1695,
      "File": 1696,
      "ATION": 1697,
      "Ġnumbers": 1698,
      "parent": 1699,
      "encoding": 1700,
      "Ġencoding": 1701,
      "WORDS": 1702,
      "offset": 1703,
      "Ġafter": 1704,
      "ITE": 1705,
      "\".": 1706,
      "Ġstream": 1707,
      "ons": 1708,
      "uture": 1709,
      "Ġrow": 1710,
      "bug": 1711,
      "nection": 1712,
      "True": 1713,
      "SIS": 1714,
      "ual": 1715,
      "Ġalgorithm": 1716,
      "06": 1717,
      "ĠFor": 1718,
      "Ġwhere": 1719,
      "insert": 1720,
      "sses": 1721,
      "msg": 1722,
      "AB": 1723,
      "kipedia": 1724,
      "Me": 1725,
      "Ġ/)\\": 1726,
      "Ġtotal": 1727,
      "Ġthere": 1728,
      "defined": 1729,
      "Ġrandom": 1730,
      "cremental": 1731,
      "__\":": 1732,
      "14": 1733,
      "Number": 1734,
      "ose": 1735,
      "sert": 1736,
      "READ": 1737,
      "KEYWORDS": 1738,
      "ĠĠĠĠĠĠĠĠĠĠĠĠĠĠ": 1739,
      "IND": 1740,
      "Ġtp": 1741,
      "Ġsame": 1742,
      "Ġ*,": 1743,
      "Ġpart": 1744,
      "ict": 1745,
      "public": 1746,
      "isit": 1747,
      "Thread": 1748,
      "Ġcontext": 1749,
      "Ġfield": 1750,
      "gister": 1751,
      "Ġrep": 1752,
      "Ġprefix": 1753,
      "ps": 1754,
      "Ġdirect": 1755,
      "ĠREDIS": 1756,
      "Ġthen": 1757,
      "Ġbet": 1758,
      "Ġbyte": 1759,
      "15": 1760,
      "False": 1761,
      "level": 1762,
      "Ġass": 1763,
      "''": 1764,
      "ĠčĊ": 1765,
      "Ġcreate": 1766,
      "ends": 1767,
      "Ġerr": 1768,
      "prefix": 1769,
      "oss": 1770,
      "umn": 1771,
      "else": 1772,
      "Ġback": 1773,
      "ecut": 1774,
      "ĠLE": 1775,
      "Ġcharacters": 1776,
      "ween": 1777,
      "win": 1778,
      "Ġq": 1779,
      "Ġits": 1780,
      "Ġsearch": 1781,
      "Ġrequi": 1782,
      "004": 1783,
      "parser": 1784,
      "TUP": 1785,
      "GC": 1786,
      "OF": 1787,
      "Ġlim": 1788,
      "Ġhead": 1789,
      "NULL": 1790,
      "Ġredis": 1791,
      "ĠDE": 1792,
      "(),": 1793,
      "alen": 1794,
      "ved": 1795,
      "ĠKW": 1796,
      "gh": 1797,
      "Over": 1798,
      "Ġskip": 1799,
      "round": 1800,
      "frame": 1801,
      "decode": 1802,
      "TypeObject": 1803,
      "Ġ--": 1804,
      "256": 1805,
      "Ġtuple": 1806,
      "uth": 1807,
      "Inter": 1808,
      "field": 1809,
      "ted": 1810,
      "std": 1811,
      "TUPLE": 1812,
      "Mem": 1813,
      "Ġsolution": 1814,
      "ĠList": 1815,
      "007": 1816,
      "Ġsupport": 1817,
      "']": 1818,
      "token": 1819,
      "Ġarr": 1820,
      "ract": 1821,
      "SHA": 1822,
      "ating": 1823,
      "Ġcopy": 1824,
      "Ġchild": 1825,
      "ake": 1826,
      "ĠDIGIT": 1827,
      "ĠArray": 1828,
      "ice": 1829,
      "core": 1830,
      "CALL": 1831,
      "Ġcache": 1832,
      "85": 1833,
      "Ġinclude": 1834,
      "Ġsorted": 1835,
      "xa": 1836,
      "hooks": 1837,
      "Ġmsg": 1838,
      "https": 1839,
      "Ġlow": 1840,
      "CE": 1841,
      "En": 1842,
      "var": 1843,
      "child": 1844,
      "Ġyou": 1845,
      "33": 1846,
      "ause": 1847,
      "Ġneed": 1848,
      "lete": 1849,
      "Ġcor": 1850,
      "(*": 1851,
      "function": 1852,
      "replace": 1853,
      "IZ": 1854,
      "mage": 1855,
      "TP": 1856,
      "ride": 1857,
      "UTE": 1858,
      "order": 1859,
      "Ġflags": 1860,
      "','": 1861,
      "gorithms": 1862,
      "New": 1863,
      "ape": 1864,
      "PyExc": 1865,
      "lab": 1866,
      "REEK": 1867,
      "cd": 1868,
      "izer": 1869,
      "ĠGREEK": 1870,
      "Ġopen": 1871,
      "18": 1872,
      "Ġstat": 1873,
      "INTER": 1874,
      "lient": 1875,
      "untime": 1876,
      "================": 1877,
      "mal": 1878,
      "ĠWe": 1879,
      "Ġcalled": 1880,
      "Ġcontinue": 1881,
      "ious": 1882,
      "ĠLEFT": 1883,
      "mutex": 1884,
      "Ġtable": 1885,
      "ĠRIGHT": 1886,
      "OM": 1887,
      "cursive": 1888,
      "OS": 1889,
      "Ġsrc": 1890,
      "Ġwork": 1891,
      "ĠKWTUPLE": 1892,
      "Char": 1893,
      "20": 1894,
      "ULE": 1895,
      "Ġid": 1896,
      "ki": 1897,
      "ml": 1898,
      "wit": 1899,
      "ater": 1900,
      "Ġret": 1901,
      "parse": 1902,
      "ERT": 1903,
      "24": 1904,
      "git": 1905,
      "pol": 1906,
      "Ġtrans": 1907,
      "LOCK": 1908,
      "unsigned": 1909,
      "since": 1910,
      "Ġencode": 1911,
      "OL": 1912,
      "ĉĠĠĠ": 1913,
      "23": 1914,
      "CK": 1915,
      "Ġprev": 1916,
      "preter": 1917,
      "VAL": 1918,
      "Ġlimit": 1919,
      "Point": 1920,
      "mode": 1921,
      "iler": 1922,
      "toc": 1923,
      "EMALLOC": 1924,
      "ĠAP": 1925,
      "Ġedata": 1926,
      "Ġact": 1927,
      "Ġoffset": 1928,
      "tocol": 1929,
      "ulti": 1930,
      "element": 1931,
      "Ġvariable": 1932,
      "matrix": 1933,
      "NA": 1934,
      "USED": 1935,
      "Ġpy": 1936,
      ")(": 1937,
      "Ġword": 1938,
      "range": 1939,
      "Ġbetween": 1940,
      "Ġman": 1941,
      "stats": 1942,
      "ĠSee": 1943,
      "At": 1944,
      "ag": 1945,
      "case": 1946,
      "pon": 1947,
      "ollow": 1948,
      "Ġdistribut": 1949,
      "Ġedge": 1950,
      "006": 1951,
      "ilt": 1952,
      "ready": 1953,
      "Ġexist": 1954,
      "ax": 1955,
      "acl": 1956,
      ")))": 1957,
      "Ġqueue": 1958,
      "cls": 1959,
      "Comp": 1960,
      "Ġcontain": 1961,
      "rst": 1962,
      "008": 1963,
      "ĠPro": 1964,
      "ARGS": 1965,
      "MODULE": 1966,
      "005": 1967,
      "edis": 1968,
      "Ġsequence": 1969,
      "19": 1970,
      "Ġhi": 1971,
      "Integer": 1972,
      "match": 1973,
      "af": 1974,
      "ĠZ": 1975,
      "ptions": 1976,
      "Ġreturned": 1977,
      "ures": 1978,
      "Ġag": 1979,
      "ĠChar": 1980,
      "Len": 1981,
      "flow": 1982,
      "load": 1983,
      "abc": 1984,
      "formation": 1985,
      "ccurred": 1986,
      "do": 1987,
      "fs": 1988,
      "over": 1989,
      "Ġobj": 1990,
      "Ġmemory": 1991,
      "ĠCONT": 1992,
      "['": 1993,
      "pth": 1994,
      "ingle": 1995,
      ")->": 1996,
      "optional": 1997,
      "itional": 1998,
      "extern": 1999,
      "Ġsome": 2000,
      "Ġheader": 2001,
      "ILE": 2002,
      "RK": 2003,
      "RAN": 2004,
      "ĠIt": 2005,
      "heap": 2006,
      "first": 2007,
      "Ġimplementation": 2008,
      "face": 2009,
      "Bytes": 2010,
      "PY": 2011,
      "ĠGet": 2012,
      "Ġcommand": 2013,
      "Ġbits": 2014,
      "ending": 2015,
      "ROL": 2016,
      "wait": 2017,
      "apping": 2018,
      "keywords": 2019,
      "BIC": 2020,
      "Context": 2021,
      "Ġfree": 2022,
      "find": 2023,
      "05": 2024,
      "Call": 2025,
      "ĠARA": 2026,
      "ORT": 2027,
      "ĠARABIC": 2028,
      "ĠSE": 2029,
      "copy": 2030,
      "errors": 2031,
      "opt": 2032,
      "seq": 2033,
      "ABLE": 2034,
      "___": 2035,
      "Ġversion": 2036,
      "wiki": 2037,
      "ank": 2038,
      "shard": 2039,
      "Ġinst": 2040,
      "Ġzero": 2041,
      "itive": 2042,
      "Ġconvert": 2043,
      "Ġ&_": 2044,
      "process": 2045,
      "ven": 2046,
      "ource": 2047,
      "plus": 2048,
      "LINE": 2049,
      "[:": 2050,
      "imple": 2051,
      "009": 2052,
      "top": 2053,
      "FLA": 2054,
      "apache": 2055,
      "Dict": 2056,
      "SH": 2057,
      "da": 2058,
      "ift": 2059,
      "wikipedia": 2060,
      "Ġopt": 2061,
      "Ġap": 2062,
      "ĠCONTROL": 2063,
      "remove": 2064,
      "Ġsecond": 2065,
      "rypt": 2066,
      "algorithms": 2067,
      "Builder": 2068,
      "Add": 2069,
      "last": 2070,
      "45": 2071,
      "Ġfollow": 2072,
      "Ġtarget": 2073,
      "ension": 2074,
      "Ġprof": 2075,
      "END": 2076,
      "unter": 2077,
      "003": 2078,
      "CAST": 2079,
      "HEAD": 2080,
      "ĠComp": 2081,
      "cap": 2082,
      "Ġallow": 2083,
      "ower": 2084,
      "LIB": 2085,
      "*)": 2086,
      "'):": 2087,
      "Ġlevel": 2088,
      "redis": 2089,
      "lable": 2090,
      "Base": 2091,
      "xB": 2092,
      "Ġinsert": 2093,
      "ither": 2094,
      "xb": 2095,
      "ĠType": 2096,
      "xD": 2097,
      "Ġ12": 2098,
      "rapper": 2099,
      "pop": 2100,
      "MIN": 2101,
      "afe": 2102,
      "Ġwa": 2103,
      "lat": 2104,
      "lines": 2105,
      "CON": 2106,
      "Tree": 2107,
      "Ġfunctions": 2108,
      "conds": 2109,
      "ical": 2110,
      "ĠOF": 2111,
      "Ġcodecs": 2112,
      "Format": 2113,
      "actor": 2114,
      "xy": 2115,
      "Ġmake": 2116,
      "ICAL": 2117,
      "ek": 2118,
      "Ġsingle": 2119,
      "Ġmultip": 2120,
      "rid": 2121,
      "internal": 2122,
      "Ġotherwise": 2123,
      "repr": 2124,
      "67": 2125,
      "ization": 2126,
      "part": 2127,
      "TE": 2128,
      "ATA": 2129,
      "ALL": 2130,
      "group": 2131,
      "]]": 2132,
      "thealgorithms": 2133,
      "Ġob": 2134,
      "Ġdecode": 2135,
      "exc": 2136,
      "Ġwrit": 2137,
      "ffix": 2138,
      "Sequence": 2139,
      "Occurred": 2140,
      "culate": 2141,
      "ored": 2142,
      "float": 2143,
      "ĠDI": 2144,
      "Al": 2145,
      "double": 2146,
      "den": 2147,
      "undef": 2148,
      "Ġyield": 2149,
      "ite": 2150,
      "Ġsy": 2151,
      "Ġmod": 2152,
      "Ġprime": 2153,
      "CS": 2154,
      "xF": 2155,
      "Ġheap": 2156,
      "side": 2157,
      "only": 2158,
      "values": 2159,
      "xE": 2160,
      "ĠAn": 2161,
      "gram": 2162,
      "run": 2163,
      "lots": 2164,
      "update": 2165,
      "Ġ##": 2166,
      "ĠXML": 2167,
      "cii": 2168,
      "Ġ^": 2169,
      "Codec": 2170,
      "search": 2171,
      "ĠVERT": 2172,
      "ĠVERTICAL": 2173,
      "nown": 2174,
      "Ġsp": 2175,
      "keys": 2176,
      "17": 2177,
      "Ġbefore": 2178,
      "Ġdistributed": 2179,
      "oth": 2180,
      "Ġparame": 2181,
      "tribute": 2182,
      "ike": 2183,
      "pen": 2184,
      "Ġprovide": 2185,
      "Ġframe": 2186,
      "Ġobjects": 2187,
      "ĠPY": 2188,
      "Ġpoints": 2189,
      "bits": 2190,
      "prec": 2191,
      "rt": 2192,
      "Ġalready": 2193,
      "pert": 2194,
      "Ġent": 2195,
      "loop": 2196,
      "II": 2197,
      "ĠPyLong": 2198,
      "Ġ};": 2199,
      "ĠLUA": 2200,
      "Ġconfig": 2201,
      "Ġloop": 2202,
      "UE": 2203,
      "Event": 2204,
      "ced": 2205,
      "ton": 2206,
      "els": 2207,
      "lang": 2208,
      "sq": 2209,
      "vi": 2210,
      "ĠNUM": 2211,
      "fp": 2212,
      "math": 2213,
      "OWN": 2214,
      "PRO": 2215,
      "du": 2216,
      "used": 2217,
      "ware": 2218,
      "ĠACUTE": 2219,
      "Ġter": 2220,
      "Ġuser": 2221,
      "ĠIS": 2222,
      "Ġnames": 2223,
      "Ġposs": 2224,
      "elds": 2225,
      "xC": 2226,
      "mall": 2227,
      "indows": 2228,
      "Ġar": 2229,
      "MAP": 2230,
      "ĠHA": 2231,
      "tail": 2232,
      "////": 2233,
      "Iter": 2234,
      "ann": 2235,
      "icate": 2236,
      "255": 2237,
      "ULT": 2238,
      "Ġenum": 2239,
      "NOT": 2240,
      "27": 2241,
      "dio": 2242,
      "ĠSet": 2243,
      "Ġgroup": 2244,
      "son": 2245,
      "OK": 2246,
      "aw": 2247,
      "emalloc": 2248,
      "80": 2249,
      "BIT": 2250,
      "Ġvisit": 2251,
      "url": 2252,
      "ĠCheck": 2253,
      "Ġexpress": 2254,
      "ĠUN": 2255,
      "<>": 2256,
      "push": 2257,
      "Ġ16": 2258,
      "Ġhandle": 2259,
      "Ġkw": 2260,
      "items": 2261,
      "Ġentry": 2262,
      ")]": 2263,
      "Ġfail": 2264,
      "Ġind": 2265,
      "Init": 2266,
      "Ġalso": 2267,
      "Buffer": 2268,
      "erator": 2269,
      "Ġsystem": 2270,
      "other": 2271,
      "Ġdiffe": 2272,
      "Ġfunc": 2273,
      "IX": 2274,
      "Ġparser": 2275,
      "ĠMARK": 2276,
      "width": 2277,
      "ches": 2278,
      "aa": 2279,
      "ORIZ": 2280,
      "SCII": 2281,
      "Element": 2282,
      "python": 2283,
      "SION": 2284,
      "ONTAL": 2285,
      "ORIZONTAL": 2286,
      "ground": 2287,
      "Ġ{}": 2288,
      "abs": 2289,
      "PAC": 2290,
      "bool": 2291,
      "Ġdest": 2292,
      "ĠHORIZONTAL": 2293,
      "66": 2294,
      "77": 2295,
      "ARE": 2296,
      "Writer": 2297,
      "Ġ('": 2298,
      "Ġmid": 2299,
      "EXT": 2300,
      "pattern": 2301,
      "Ġwrite": 2302,
      "Parser": 2303,
      "Ġclient": 2304,
      "raw": 2305,
      "--------------------------------": 2306,
      "Que": 2307,
      "script": 2308,
      "BJ": 2309,
      "ting": 2310,
      "ĠPyUnicode": 2311,
      "FAST": 2312,
      "Ġwhether": 2313,
      "PO": 2314,
      "ten": 2315,
      "xf": 2316,
      "Map": 2317,
      "ĠQU": 2318,
      "Is": 2319,
      "SA": 2320,
      "empty": 2321,
      "jemalloc": 2322,
      "Ġdigits": 2323,
      "Class": 2324,
      "ions": 2325,
      "our": 2326,
      "this": 2327,
      "Ġresults": 2328,
      "128": 2329,
      "kwargs": 2330,
      "arnings": 2331,
      "ages": 2332,
      "ont": 2333,
      "message": 2334,
      "With": 2335,
      "xA": 2336,
      "blem": 2337,
      "INGLE": 2338,
      "84": 2339,
      "hed": 2340,
      "Ġold": 2341,
      "Ġ15": 2342,
      "ORM": 2343,
      "lite": 2344,
      "Ġ(*": 2345,
      "Ref": 2346,
      "omm": 2347,
      "********************************": 2348,
      "Ġclose": 2349,
      "Ġinte": 2350,
      "ĠNot": 2351,
      "Override": 2352,
      "(-": 2353,
      "env": 2354,
      "temp": 2355,
      "INF": 2356,
      "Ġnodes": 2357,
      "control": 2358,
      "ĠPyTuple": 2359,
      "Ġorig": 2360,
      "strip": 2361,
      "src": 2362,
      "Ġeither": 2363,
      "Ġsocket": 2364,
      "Ġinformation": 2365,
      ",'": 2366,
      "Id": 2367,
      "del": 2368,
      "Ġ'.": 2369,
      "ĠSINGLE": 2370,
      "SetString": 2371,
      "FFFF": 2372,
      "LY": 2373,
      "wh": 2374,
      "ansp": 2375,
      "limit": 2376,
      "CHAR": 2377,
      "\\\\": 2378,
      "sds": 2379,
      "Ġtop": 2380,
      "types": 2381,
      "Count": 2382,
      "atomic": 2383,
      "commons": 2384,
      "uthor": 2385,
      "Ġfd": 2386,
      "Ġcannot": 2387,
      "Ġav": 2388,
      "sizeof": 2389,
      "Ġreference": 2390,
      "clear": 2391,
      "Ġsds": 2392,
      "Ġmap": 2393,
      "argument": 2394,
      "ftware": 2395,
      "Ġcollection": 2396,
      "Ġdistance": 2397,
      "register": 2398,
      "hen": 2399,
      "Ġ['": 2400,
      "Ġstep": 2401,
      ".\"": 2402,
      "uration": 2403,
      "Queue": 2404,
      "Ġkeys": 2405,
      "losed": 2406,
      "ĠUP": 2407,
      "cal": 2408,
      "Ġmethods": 2409,
      "mbol": 2410,
      "Interpreter": 2411,
      "Ġsuper": 2412,
      "Test": 2413,
      "002": 2414,
      "Ġreg": 2415,
      "Ġtimeout": 2416,
      "ature": 2417,
      "ĠRedis": 2418,
      "Ġmaximum": 2419,
      "ways": 2420,
      "xc": 2421,
      "Ġfin": 2422,
      "server": 2423,
      "gn": 2424,
      "xe": 2425,
      "lake": 2426,
      "ONG": 2427,
      "Ġerrors": 2428,
      "Ġlike": 2429,
      "idx": 2430,
      "use": 2431,
      "Ġbeen": 2432,
      "arena": 2433,
      "arts": 2434,
      "ĠDe": 2435,
      "Incremental": 2436,
      "ency": 2437,
      "Str": 2438,
      "iron": 2439,
      "ear": 2440,
      "ĠSTR": 2441,
      "ERE": 2442,
      "Ġbo": 2443,
      "task": 2444,
      "CH": 2445,
      "ipher": 2446,
      "86": 2447,
      "yle": 2448,
      "ascii": 2449,
      "Ġarena": 2450,
      "This": 2451,
      "ERROR": 2452,
      "can": 2453,
      "ery": 2454,
      "rag": 2455,
      "ĠLIGHT": 2456,
      "ĠST": 2457,
      "ell": 2458,
      "kwnames": 2459,
      "]))": 2460,
      "exception": 2461,
      "sock": 2462,
      "perty": 2463,
      "Ġpossible": 2464,
      "ĠCHAR": 2465,
      "kwtuple": 2466,
      "Ġpointer": 2467,
      "Ġarguments": 2468,
      "And": 2469,
      "rary": 2470,
      "Ġdst": 2471,
      "ĠCal": 2472,
      "Ġdecimal": 2473,
      "ĠTo": 2474,
      "Ġ-=": 2475,
      "ĉĉĉ": 2476,
      "prime": 2477,
      "handler": 2478,
      "kind": 2479,
      "codecs": 2480,
      "Entry": 2481,
      "ret": 2482,
      "Reader": 2483,
      "LEN": 2484,
      "cle": 2485,
      "PyLong": 2486,
      "callback": 2487,
      "(__": 2488,
      "Lock": 2489,
      "lp": 2490,
      "Ġnegative": 2491,
      "active": 2492,
      "Ġhere": 2493,
      "term": 2494,
      "INTERN": 2495,
      "PT": 2496,
      "Ġcre": 2497,
      "Method": 2498,
      "Col": 2499,
      "miss": 2500,
      "ĠSo": 2501,
      "Ġgre": 2502,
      "Ġexc": 2503,
      "Ġ100": 2504,
      "client": 2505,
      "'.": 2506,
      "less": 2507,
      "ĠAN": 2508,
      "atcher": 2509,
      "Ġfiles": 2510,
      "UNUSED": 2511,
      "cause": 2512,
      "Ġtri": 2513,
      "esc": 2514,
      "BY": 2515,
      "____": 2516,
      "Data": 2517,
      "pdata": 2518,
      "LEX": 2519,
      "create": 2520,
      "structor": 2521,
      "URN": 2522,
      "pli": 2523,
      "wn": 2524,
      "digits": 2525,
      "clus": 2526,
      "ICE": 2527,
      "OUT": 2528,
      "Var": 2529,
      "DATA": 2530,
      "Ġexample": 2531,
      "prev": 2532,
      "ancel": 2533,
      "dbm": 2534,
      "INTERNAL": 2535,
      "xd": 2536,
      "ĠNOT": 2537,
      "quare": 2538,
      "Ġselect": 2539,
      "Info": 2540,
      "Ġcolumn": 2541,
      "Ġcontains": 2542,
      "Ġrequest": 2543,
      "\",\"": 2544,
      "Ġvertex": 2545,
      "Empty": 2546,
      "Ġequal": 2547,
      "ful": 2548,
      "(\"\\": 2549,
      "acro": 2550,
      "NAME": 2551,
      "34": 2552,
      "MIT": 2553,
      "STRING": 2554,
      "ĠYou": 2555,
      "upport": 2556,
      "pped": 2557,
      "cmd": 2558,
      "Ġremove": 2559,
      "ETURN": 2560,
      "ments": 2561,
      "ĠTypeError": 2562,
      "ormal": 2563,
      "status": 2564,
      "Ġrequired": 2565,
      "ĠDIA": 2566,
      "reg": 2567,
      "ĠĠĠĠĠĠĠĠĠĠĠĠĠĠĠĠĠĠĠĠ": 2568,
      "ove": 2569,
      "ffic": 2570,
      "sumer": 2571,
      "Ġinteg": 2572,
      "tk": 2573,
      "[-": 2574,
      "step": 2575,
      "member": 2576,
      "Ġstatus": 2577,
      "Free": 2578,
      "ĠBT": 2579,
      ")}": 2580,
      "tx": 2581,
      "stract": 2582,
      "Ġglob": 2583,
      "Ġwithout": 2584,
      "Ġlines": 2585,
      "ERESIS": 2586,
      "ĠDIAERESIS": 2587,
      "ority": 2588,
      "ĠĠĠĠĠĠĠĠĠĠĠĠĠĠĠĠĠ": 2589,
      "ĠIN": 2590,
      "interp": 2591,
      "87": 2592,
      "Date": 2593,
      "user": 2594,
      "iled": 2595,
      "07": 2596,
      "Ġparse": 2597,
      "Ġspecific": 2598,
      "Implement": 2599,
      "Le": 2600,
      "PyUnicode": 2601,
      "());": 2602,
      "Ġextends": 2603,
      "NT": 2604,
      "Ġspace": 2605,
      "ĠFailable": 2606,
      "ness": 2607,
      "clusive": 2608,
      "ding": 2609,
      "Ġtask": 2610,
      "Ġlineno": 2611,
      "IF": 2612,
      "eded": 2613,
      "Ġoperation": 2614,
      "www": 2615,
      "cmp": 2616,
      "ugh": 2617,
      "Ġcls": 2618,
      "slots": 2619,
      "Ġ*);": 2620,
      "decimal": 2621,
      "CUM": 2622,
      "Sub": 2623,
      "ared": 2624,
      "tstate": 2625,
      "mon": 2626,
      "pi": 2627,
      "Ġwidth": 2628,
      "Ġpositive": 2629,
      "FASTCALL": 2630,
      "sequence": 2631,
      "Ġref": 2632,
      "Ġchange": 2633,
      "Ġdel": 2634,
      "ACTER": 2635,
      "35": 2636,
      "assed": 2637,
      "(\"%": 2638,
      "SD": 2639,
      "CODE": 2640,
      "ĠCIR": 2641,
      "Ġ20": 2642,
      "Ġ32": 2643,
      "Ġstrings": 2644,
      "ĠJEMALLOC": 2645,
      "ched": 2646,
      "\";": 2647,
      "If": 2648,
      "work": 2649,
      "Ġlock": 2650,
      "debug": 2651,
      "raction": 2652,
      "Ġlinked": 2653,
      "Ġtypes": 2654,
      "92": 2655,
      "sec": 2656,
      "PyTime": 2657,
      "Ġbecause": 2658,
      "Ġupdate": 2659,
      "quire": 2660,
      "FLEX": 2661,
      "Ġ(_": 2662,
      "ATOR": 2663,
      "very": 2664,
      "pycore": 2665,
      "CUMFLEX": 2666,
      "IAL": 2667,
      "zz": 2668,
      "Ġlet": 2669,
      "sep": 2670,
      "ĠCIRCUMFLEX": 2671,
      "lineno": 2672,
      "ĠSystem": 2673,
      "lasses": 2674,
      "redicate": 2675,
      "Length": 2676,
      "Null": 2677,
      "skip": 2678,
      "rough": 2679,
      "ular": 2680,
      "Ġwait": 2681,
      "ommand": 2682,
      "met": 2683,
      "Ġsuccess": 2684,
      "ĠCHARACTER": 2685,
      "jac": 2686,
      "Ġ11": 2687,
      "Ġorg": 2688,
      "FILE": 2689,
      "No": 2690,
      "ces": 2691,
      "001": 2692,
      "ilter": 2693,
      "ĠAp": 2694,
      "Read": 2695,
      "SSL": 2696,
      "uff": 2697,
      "Ġfre": 2698,
      "cp": 2699,
      "tcache": 2700,
      "ish": 2701,
      "Heap": 2702,
      "Ġcontaining": 2703,
      "MS": 2704,
      "YS": 2705,
      "glob": 2706,
      "multip": 2707,
      "erge": 2708,
      "vertex": 2709,
      "witch": 2710,
      "og": 2711,
      "sd": 2712,
      "ĠNote": 2713,
      "ĠBoolean": 2714,
      "Ġaccess": 2715,
      "Write": 2716,
      "Ġpol": 2717,
      "tain": 2718,
      "Ġlar": 2719,
      "\"{": 2720,
      "AGE": 2721,
      "Ġpack": 2722,
      "Ġsz": 2723,
      "Ġdir": 2724,
      "respon": 2725,
      "Ġdoc": 2726,
      "ead": 2727,
      "fast": 2728,
      "ĠOS": 2729,
      "PACE": 2730,
      "fficient": 2731,
      ".</": 2732,
      "null": 2733,
      "difi": 2734,
      "Ġlab": 2735,
      "Ġdate": 2736,
      "ECT": 2737,
      "mark": 2738,
      "inary": 2739,
      "ĠĠĠĠĠĠĠĠĠĠĠĠĠĠĠĠĠĠĠĠĠĠĠĠĠĠĠĠĠĠĠĠĠĠĠĠĠĠĠĠĠ": 2740,
      "FLAGS": 2741,
      "Ġlook": 2742,
      "################": 2743,
      "ous": 2744,
      "AG": 2745,
      "Ġrel": 2746,
      "PyTuple": 2747,
      "Ġvar": 2748,
      "timeout": 2749,
      "Ġ},": 2750,
      "ESS": 2751,
      "Ite": 2752,
      "ped": 2753,
      "ĠPyMem": 2754,
      "Ġlib": 2755,
      "ĠExample": 2756,
      "Path": 2757,
      "dr": 2758,
      "lush": 2759,
      "Ġpassed": 2760,
      "lot": 2761,
      "ateg": 2762,
      "Ġconn": 2763,
      "ertices": 2764,
      "np": 2765,
      "store": 2766,
      "Ġgo": 2767,
      "Ġinterface": 2768,
      "writ": 2769,
      "derr": 2770,
      "Ġjust": 2771,
      "09": 2772,
      "med": 2773,
      "ents": 2774,
      "Ġaccept": 2775,
      "08": 2776,
      "Ġdon": 2777,
      "Ġitems": 2778,
      "Ġexecut": 2779,
      "splay": 2780,
      "ĠApache": 2781,
      "gener": 2782,
      "ward": 2783,
      "Python": 2784,
      "ĠPyModule": 2785,
      "Ġfix": 2786,
      "';": 2787,
      "39": 2788,
      "PAR": 2789,
      "sure": 2790,
      "vis": 2791,
      "epi": 2792,
      "Ġfollowing": 2793,
      "Ġcap": 2794,
      "###": 2795,
      "Ġ(!_": 2796,
      "precated": 2797,
      "Or": 2798,
      "ĠSHA": 2799,
      "vers": 2800,
      "mtx": 2801,
      ",\"": 2802,
      "ner": 2803,
      "ody": 2804,
      "Ġhigh": 2805,
      "44": 2806,
      "Ġthey": 2807,
      "ĠHacl": 2808,
      "Ġweight": 2809,
      "compile": 2810,
      "enc": 2811,
      "Ġlocale": 2812,
      "NUM": 2813,
      "ĠAl": 2814,
      "conn": 2815,
      "SK": 2816,
      "gc": 2817,
      "Ġinfo": 2818,
      "Ġdigit": 2819,
      "Ġoriginal": 2820,
      "Implemented": 2821,
      "Command": 2822,
      "bri": 2823,
      "ĠCreate": 2824,
      "initial": 2825,
      "ACK": 2826,
      "printf": 2827,
      "Ġprevious": 2828,
      "37": 2829,
      "56": 2830,
      "Handler": 2831,
      "sy": 2832,
      "Ġfast": 2833,
      "Ġptr": 2834,
      "ĠTree": 2835,
      "olve": 2836,
      "Ġaddress": 2837,
      "ager": 2838,
      "dar": 2839,
      "true": 2840,
      "decl": 2841,
      "Ġsmall": 2842,
      "WR": 2843,
      "Ġimp": 2844,
      "36": 2845,
      "man": 2846,
      "anel": 2847,
      "utable": 2848,
      "brief": 2849,
      "Text": 2850,
      "real": 2851,
      "HAVE": 2852,
      "handle": 2853,
      "stream": 2854,
      "Cont": 2855,
      "ĠAPI": 2856,
      "mask": 2857,
      "ssl": 2858,
      "Ġavailable": 2859,
      "Ġmath": 2860,
      "methods": 2861,
      "SL": 2862,
      "ging": 2863,
      "RACK": 2864,
      "Ġenv": 2865,
      "Ġminimum": 2866,
      "89": 2867,
      "wd": 2868,
      "mul": 2869,
      "andard": 2870,
      "Ġsock": 2871,
      "ultibyte": 2872,
      "Parse": 2873,
      "ĠOR": 2874,
      "ility": 2875,
      "EG": 2876,
      "lower": 2877,
      "LIMIT": 2878,
      "__)": 2879,
      "Ġcallback": 2880,
      "Ġport": 2881,
      "ĠDOWN": 2882,
      "acter": 2883,
      "cnt": 2884,
      "Ġthem": 2885,
      "local": 2886,
      "Decoder": 2887,
      "cat": 2888,
      "DB": 2889,
      "Ġ13": 2890,
      "Ġthrough": 2891,
      "Ġdis": 2892,
      "emit": 2893,
      "ĠInteger": 2894,
      "Ġappend": 2895,
      "ĠPyTypeObject": 2896,
      "ĠĠĠĠĠĠĠĠĠĠĠĠĠĠĠĠĠĠĠĠĠĠĠĠĠĠĠĠĠĠĠ": 2897,
      "writer": 2898,
      "dest": 2899,
      "Ġstore": 2900,
      "Ġconnection": 2901,
      "mag": 2902,
      "Ġsuffix": 2903,
      "THREAD": 2904,
      "async": 2905,
      "Ġalways": 2906,
      "NONE": 2907,
      "Ġ);": 2908,
      "output": 2909,
      "Ġload": 2910,
      "CTION": 2911,
      "ities": 2912,
      "ĠAt": 2913,
      "Create": 2914,
      "ĠQ": 2915,
      "Ġbound": 2916,
      "dump": 2917,
      "ignored": 2918,
      "Ġbuild": 2919,
      "\"]": 2920,
      "equ": 2921,
      "ily": 2922,
      "Ġshort": 2923,
      "ĠaddReply": 2924,
      "testmod": 2925,
      "Ġdifferent": 2926,
      "Ġ64": 2927,
      "ĠĠĠĠĠĠĠĠĠĠĠĠĠĠĠĠĠĠ": 2928,
      "ĠĠĠĠĠĠĠĠĠĠĠĠĠĠĠĠĠĠĠĠĠĠĠĠĠ": 2929,
      "acity": 2930,
      "NOARGS": 2931,
      "urge": 2932,
      "ĠNumber": 2933,
      "Ġus": 2934,
      "make": 2935,
      "Ġpair": 2936,
      "ĠNotImplemented": 2937,
      "Ġtake": 2938,
      "lapped": 2939,
      "ptargs": 2940,
      "HI": 2941,
      "Ġimage": 2942,
      "CLA": 2943,
      "Ġboth": 2944,
      "mplete": 2945,
      "resh": 2946,
      "Ġalph": 2947,
      "memory": 2948,
      "ĠArrayList": 2949,
      "cesses": 2950,
      "UND": 2951,
      "gin": 2952,
      "Ġcodec": 2953,
      "leanup": 2954,
      "Ġsuch": 2955,
      "<>();": 2956,
      "PyTypeObject": 2957,
      "ĠTest": 2958,
      "BITS": 2959,
      "war": 2960,
      "Ġkind": 2961,
      "iltin": 2962,
      "Sh": 2963,
      "amp": 2964,
      "apt": 2965,
      "cb": 2966,
      "Ġflag": 2967,
      "Ġsepar": 2968,
      "Sort": 2969,
      "XX": 2970,
      "ĠGRA": 2971,
      "Ġke": 2972,
      "ĠTime": 2973,
      "ĠBu": 2974,
      "Ġreplace": 2975,
      "Ġparameter": 2976,
      "cord": 2977,
      "Ġvector": 2978,
      "INLINE": 2979,
      "LIST": 2980,
      "ĠRedisModule": 2981,
      "Ġinit": 2982,
      "complex": 2983,
      "ĠPar": 2984,
      "Ġtmp": 2985,
      "Ġown": 2986,
      "dian": 2987,
      "Stack": 2988,
      "BO": 2989,
      "Tr": 2990,
      "ume": 2991,
      "direct": 2992,
      "address": 2993,
      "negative": 2994,
      "gistry": 2995,
      "29": 2996,
      "ĠFind": 2997,
      "Ġuntil": 2998,
      "trans": 2999,
      "Head": 3000,
      "PORT": 3001,
      "ie": 3002,
      "ries": 3003,
      "Ġdp": 3004,
      "Ġdone": 3005,
      "ĠluaL": 3006,
      "00000000": 3007,
      "ffered": 3008,
      "ĠHAVE": 3009,
      "74": 3010,
      "PER": 3011,
      "sz": 3012,
      "ordin": 3013,
      "compare": 3014,
      "MD": 3015,
      "MIC": 3016,
      "trace": 3017,
      "zero": 3018,
      "ĠOn": 3019,
      "duct": 3020,
      "Ġ'''": 3021,
      "Ġappro": 3022,
      "InterpreterState": 3023,
      "ĠGRAVE": 3024,
      "has": 3025,
      "Ġinvalid": 3026,
      "Ġ(\"": 3027,
      "ansport": 3028,
      "future": 3029,
      "alendar": 3030,
      "vector": 3031,
      "Ġapplic": 3032,
      "100": 3033,
      "CR": 3034,
      "hex": 3035,
      "Ġavoid": 3036,
      "Pointer": 3037,
      "ASE": 3038,
      "Ġcl": 3039,
      "Ġesc": 3040,
      "26": 3041,
      "total": 3042,
      "zone": 3043,
      "utf": 3044,
      "tains": 3045,
      "21": 3046,
      "Ġexec": 3047,
      "Ġgreater": 3048,
      "Ġoption": 3049,
      "locale": 3050,
      "author": 3051,
      "Ġwant": 3052,
      "sorted": 3053,
      "Item": 3054,
      "Non": 3055,
      "sult": 3056,
      "ĠĠĠĠĠĠĠĠĠĠĠĠĠĠĠĠĠĠĠĠĠĠ": 3057,
      "ĠFORM": 3058,
      "cursion": 3059,
      "Ġnums": 3060,
      "ifier": 3061,
      "DD": 3062,
      "emitter": 3063,
      "Double": 3064,
      "Ġmalloc": 3065,
      "Ġmark": 3066,
      "ĠSC": 3067,
      "like": 3068,
      "Ġswitch": 3069,
      "ThreadState": 3070,
      "Gener": 3071,
      "Ġmon": 3072,
      "oci": 3073,
      "Ġexpression": 3074,
      "Ġintegers": 3075,
      "wap": 3076,
      "Ġthese": 3077,
      "asic": 3078,
      "Ġfields": 3079,
      "ĠStrings": 3080,
      "LUA": 3081,
      "header": 3082,
      "arable": 3083,
      "ĠCON": 3084,
      "fork": 3085,
      "Ġeven": 3086,
      "Ġchunk": 3087,
      "mplexity": 3088,
      "LONG": 3089,
      "starts": 3090,
      "ights": 3091,
      "WA": 3092,
      "now": 3093,
      "ĠASCII": 3094,
      "Encoder": 3095,
      "Ġvisited": 3096,
      "Ġtheir": 3097,
      "Ġ'-": 3098,
      "ĠSO": 3099,
      "ctionary": 3100,
      "random": 3101,
      "atrix": 3102,
      "ĠMath": 3103,
      "angle": 3104,
      "dition": 3105,
      "Ġoptions": 3106,
      "Ġmost": 3107,
      "children": 3108,
      "Ġ1000": 3109,
      "ignment": 3110,
      "QL": 3111,
      "Run": 3112,
      "Ser": 3113,
      "erate": 3114,
      "ĠTH": 3115,
      "Ġdepth": 3116,
      "Ġextra": 3117,
      "Ġinstead": 3118,
      "ĠQUOT": 3119,
      "RETURN": 3120,
      "dge": 3121,
      "gs": 3122,
      "})": 3123,
      "Ġwould": 3124,
      "Ġbeing": 3125,
      "ckets": 3126,
      "let": 3127,
      "ended": 3128,
      "Ġpop": 3129,
      "',),": 3130,
      "inkedList": 3131,
      "ILL": 3132,
      "Zone": 3133,
      "\\'": 3134,
      "hi": 3135,
      "ln": 3136,
      "target": 3137,
      "ROUP": 3138,
      "Sup": 3139,
      "Ġraw": 3140,
      "compress": 3141,
      ")):": 3142,
      "cpy": 3143,
      "Ġ[[": 3144,
      "Ġ///": 3145,
      "ĠStream": 3146,
      "Enter": 3147,
      "Ġterm": 3148,
      "\"))": 3149,
      "Ġprotocol": 3150,
      ")[": 3151,
      "<<": 3152,
      "Sum": 3153,
      "hpdata": 3154,
      "Ġfull": 3155,
      "Ġadditional": 3156,
      "ighb": 3157,
      "Bad": 3158,
      "place": 3159,
      "Ġpower": 3160,
      "lim": 3161,
      "Config": 3162,
      "ĠQUOTATION": 3163,
      "Pre": 3164,
      "Ġident": 3165,
      "maining": 3166,
      "plier": 3167,
      "54": 3168,
      "Ġevery": 3169,
      "ĠHe": 3170,
      "Ġenc": 3171,
      "[][]": 3172,
      "color": 3173,
      "88": 3174,
      "dst": 3175,
      "Ġuses": 3176,
      ",-": 3177,
      "AULT": 3178,
      "CLE": 3179,
      "stime": 3180,
      "ragment": 3181,
      "ision": 3182,
      "ĠĠĠĠĠĠĠĠĠĠĠĠĠĠĠĠĠĠĠĠĠ": 3183,
      "label": 3184,
      "ants": 3185,
      "roy": 3186,
      "ĠCode": 3187,
      "ĠHE": 3188,
      "ivalen": 3189,
      "position": 3190,
      "Ġmultiple": 3191,
      "All": 3192,
      "Ġvertices": 3193,
      "akref": 3194,
      "ĠKey": 3195,
      "idget": 3196,
      "exec": 3197,
      "Ġ14": 3198,
      "ools": 3199,
      "fg": 3200,
      "Ch": 3201,
      "ĠFunction": 3202,
      "ĠThrow": 3203,
      "DEFAULT": 3204,
      "angu": 3205,
      "Async": 3206,
      "\"},": 3207,
      "LS": 3208,
      "Pa": 3209,
      "tle": 3210,
      "IP": 3211,
      "ron": 3212,
      "connection": 3213,
      "operator": 3214,
      "Ġsection": 3215,
      "returns": 3216,
      "Ġfinally": 3217,
      "ĠInt": 3218,
      "vars": 3219,
      "ĠGets": 3220,
      "EST": 3221,
      "down": 3222,
      "xx": 3223,
      "Ġ'%": 3224,
      "Ġneeded": 3225,
      "ĠUse": 3226,
      "ENC": 3227,
      "Ġfa": 3228,
      "cc": 3229,
      "ug": 3230,
      "Ġscript": 3231,
      "TPFLAGS": 3232,
      "\"),": 3233,
      "Val": 3234,
      "digit": 3235,
      "ĠMS": 3236,
      "Ġ|=": 3237,
      "Ġdoesn": 3238,
      "ABC": 3239,
      "Ġdirectory": 3240,
      "Ġassoci": 3241,
      "gnore": 3242,
      "uid": 3243,
      "ĠNull": 3244,
      "([[": 3245,
      "binary": 3246,
      "Ġexpected": 3247,
      "collection": 3248,
      "Ġabs": 3249,
      "view": 3250,
      "40": 3251,
      "gen": 3252,
      "Ġctx": 3253,
      "Ġfe": 3254,
      "digest": 3255,
      "ĠĠĠĠĠĠĠĠĠĠĠĠĠĠĠĠĠĠĠĠĠĠĠĠ": 3256,
      "ivalent": 3257,
      "Lib": 3258,
      "Ġ]": 3259,
      "ctype": 3260,
      "ĠDef": 3261,
      "Ġadded": 3262,
      "Ġrot": 3263,
      "\">": 3264,
      "OBJ": 3265,
      "pending": 3266,
      "Ġcmd": 3267,
      "image": 3268,
      "Ġim": 3269,
      "uring": 3270,
      "MASK": 3271,
      "ĉĉĠĠĠ": 3272,
      "Input": 3273,
      "LUS": 3274,
      "seconds": 3275,
      "strict": 3276,
      "Ġencoded": 3277,
      "Ġsplit": 3278,
      "Ġcreated": 3279,
      "Ġva": 3280,
      "omial": 3281,
      "Ġlabel": 3282,
      "UB": 3283,
      "select": 3284,
      "Ġlink": 3285,
      "Frame": 3286,
      "Loc": 3287,
      "distance": 3288,
      "stop": 3289,
      "section": 3290,
      "short": 3291,
      "Ġstarting": 3292,
      "Import": 3293,
      "ination": 3294,
      "stderr": 3295,
      "itle": 3296,
      "Ġplat": 3297,
      "abled": 3298,
      "curses": 3299,
      "capi": 3300,
      "Ġsymbol": 3301,
      "PR": 3302,
      "ject": 3303,
      "Ġurl": 3304,
      "Ġmask": 3305,
      "ĠEX": 3306,
      "imer": 3307,
      "Ġcommon": 3308,
      "Ġtsd": 3309,
      "Ġrecursive": 3310,
      "Ġblake": 3311,
      "Ġexists": 3312,
      "sqlite": 3313,
      "upported": 3314,
      "30": 3315,
      "cplus": 3316,
      "Ġ\",": 3317,
      "extent": 3318,
      "anguage": 3319,
      "cplusplus": 3320,
      "MENT": 3321,
      "SF": 3322,
      "depth": 3323,
      "edit": 3324,
      "--;": 3325,
      "Ġhow": 3326,
      "contains": 3327,
      "params": 3328,
      "anged": 3329,
      "Ġbased": 3330,
      "Ġlower": 3331,
      "We": 3332,
      "Ġtail": 3333,
      "Ġsince": 3334,
      "Ġoptional": 3335,
      "49": 3336,
      "50": 3337,
      "send": 3338,
      "Stat": 3339,
      "ORE": 3340,
      "desc": 3341,
      "opy": 3342,
      "Ġless": 3343,
      "Ġleast": 3344,
      "Ġcalculate": 3345,
      "ĠException": 3346,
      "Ġside": 3347,
      "lice": 3348,
      "ITEM": 3349,
      "BYTE": 3350,
      "VENT": 3351,
      "fb": 3352,
      "Ġaction": 3353,
      "Ġhdr": 3354,
      "Ġcalls": 3355,
      "Ġidx": 3356,
      "ĠOSError": 3357,
      "yp": 3358,
      "ĠMAX": 3359,
      "rection": 3360,
      "Ġcent": 3361,
      "Ġour": 3362,
      "ithub": 3363,
      "Ġchars": 3364,
      "Ġwriting": 3365,
      "48": 3366,
      "any": 3367,
      "Ġwords": 3368,
      "thing": 3369,
      "NC": 3370,
      "]])": 3371,
      "Ġ\"%": 3372,
      "Ġstop": 3373,
      "ĠtoString": 3374,
      "ĠEND": 3375,
      "Ġunit": 3376,
      "ĠHash": 3377,
      "Ġheight": 3378,
      "Ġgenerate": 3379,
      "cv": 3380,
      "Ġresource": 3381,
      "RACKET": 3382,
      "api": 3383,
      "Ġresp": 3384,
      "Initial": 3385,
      "65": 3386,
      "?:": 3387,
      "MT": 3388,
      "expr": 3389,
      "NewRef": 3390,
      "gine": 3391,
      "hist": 3392,
      "Ġfp": 3393,
      "ATH": 3394,
      "ĠWhen": 3395,
      "Ġevents": 3396,
      "tctx": 3397,
      "Ġstandard": 3398,
      "ĠNo": 3399,
      "charAt": 3400,
      "nodes": 3401,
      "Ġsignal": 3402,
      "vc": 3403,
      "ycle": 3404,
      "ze": 3405,
      "Ġ\");": 3406,
      "Ġans": 3407,
      "ĠĠĠĠĠĠĠĠĠĠĠĠĠĠĠĠĠĠĠĠĠĠĠĠĠĠĠĠĠ": 3408,
      "codec": 3409,
      "Ġsee": 3410,
      "Ġlocal": 3411,
      "cor": 3412,
      "ian": 3413,
      "rand": 3414,
      "PyErr": 3415,
      "Ġ\"\"": 3416,
      "JEMALLOC": 3417,
      "LIC": 3418,
      "Ġ\"_": 3419,
      "ĠClass": 3420,
      "socket": 3421,
      "CENT": 3422,
      "LOC": 3423,
      "So": 3424,
      "github": 3425,
      "hs": 3426,
      "ux": 3427,
      "VALUE": 3428,
      "Ġassociated": 3429,
      "WIND": 3430,
      "tdata": 3431,
      "Ġsq": 3432,
      "isEmpty": 3433,
      "Ġpresent": 3434,
      "mail": 3435,
      "Ġperform": 3436,
      "VERSION": 3437,
      ":]": 3438,
      "UC": 3439,
      "ique": 3440,
      "Ġremo": 3441,
      "raise": 3442,
      "decay": 3443,
      "ĠPyModuleDef": 3444,
      "Access": 3445,
      "Ġpl": 3446,
      "lied": 3447,
      "chars": 3448,
      "Not": 3449,
      "inte": 3450,
      "Ġdisplay": 3451,
      "actory": 3452,
      "Ġhelp": 3453,
      "EL": 3454,
      "[\"": 3455,
      "ehooks": 3456,
      "Ġdesc": 3457,
      "sole": 3458,
      "Ġcolor": 3459,
      "Ġoperand": 3460,
      "events": 3461,
      "day": 3462,
      "property": 3463,
      "toString": 3464,
      "Ġextent": 3465,
      "Ġprovided": 3466,
      "Ġplace": 3467,
      "ĠSSL": 3468,
      "ived": 3469,
      "poll": 3470,
      "dle": 3471,
      "po": 3472,
      "Ġinv": 3473,
      "ĠLO": 3474,
      "Ġbelow": 3475,
      "ĠUnicode": 3476,
      "Message": 3477,
      "startswith": 3478,
      "WINDOW": 3479,
      "tom": 3480,
      "uar": 3481,
      "xff": 3482,
      "ence": 3483,
      "COMP": 3484,
      ".)": 3485,
      "28": 3486,
      "PRE": 3487,
      "flush": 3488,
      "my": 3489,
      "pac": 3490,
      "uzz": 3491,
      "ĠPyType": 3492,
      "Result": 3493,
      "ivot": 3494,
      "Ġcurr": 3495,
      "RIPT": 3496,
      "gramm": 3497,
      "issing": 3498,
      "Ġkeep": 3499,
      "Ġ''": 3500,
      "Ġhref": 3501,
      "ĠMe": 3502,
      "Ġabcd": 3503,
      "Up": 3504,
      "Ġstd": 3505,
      "Ġdebug": 3506,
      "ĠBRACKET": 3507,
      "Process": 3508,
      "Loop": 3509,
      "Ġpython": 3510,
      "ĠSTRING": 3511,
      "Ġnow": 3512,
      "Ġdelete": 3513,
      "Ġpackage": 3514,
      "mid": 3515,
      "Ġcipher": 3516,
      "Ġpi": 3517,
      "div": 3518,
      "ĠStr": 3519,
      "members": 3520,
      "47": 3521,
      "ongest": 3522,
      "files": 3523,
      "Ġrepresentation": 3524,
      "////////": 3525,
      "jacency": 3526,
      "60": 3527,
      "BER": 3528,
      "bound": 3529,
      "Ġwrap": 3530,
      "column": 3531,
      "Ġscan": 3532,
      "Keywords": 3533,
      "Ġagain": 3534,
      "ValueError": 3535,
      "gate": 3536,
      "Ġio": 3537,
      "Ġexact": 3538,
      "HAN": 3539,
      "ĠTreeNode": 3540,
      "93": 3541,
      "Hacl": 3542,
      "tb": 3543,
      "Ġwithin": 3544,
      "Ġabove": 3545,
      "TIME": 3546,
      "================================": 3547,
      "Ġedges": 3548,
      "PointerException": 3549,
      "ĠNullPointerException": 3550,
      "97": 3551,
      "full": 3552,
      "licit": 3553,
      "build": 3554,
      "ndarray": 3555,
      "Ġcorrespon": 3556,
      "bind": 3557,
      "Exp": 3558,
      "Ġatomic": 3559,
      "BUF": 3560,
      "Ġrepresenting": 3561,
      ".\")": 3562,
      "Cur": 3563,
      "aise": 3564,
      "upt": 3565,
      "Ġ~": 3566,
      "Ġutil": 3567,
      "Ġsquare": 3568,
      "Ġ30": 3569,
      "Ġoverflow": 3570,
      "Positional": 3571,
      "versal": 3572,
      "Ġtcache": 3573,
      "Ġwindow": 3574,
      "ĠIter": 3575,
      "Start": 3576,
      "Ġsoftware": 3577,
      "ynam": 3578,
      "panel": 3579,
      "``": 3580,
      "tmp": 3581,
      "Ġincrement": 3582,
      "201": 3583,
      "ĠApp": 3584,
      "Ġrespon": 3585,
      "ĠStringBuilder": 3586,
      "quency": 3587,
      "expected": 3588,
      "traverse": 3589,
      "Ġvariables": 3590,
      "alf": 3591,
      "ĠCol": 3592,
      "Ġform": 3593,
      "ĠBLOCK": 3594,
      "ART": 3595,
      "ynamic": 3596,
      "break": 3597,
      "post": 3598,
      "tri": 3599,
      "Ġlanguage": 3600,
      "chunk": 3601,
      "ĠID": 3602,
      "Ġdecl": 3603,
      "ough": 3604,
      "Ġsupported": 3605,
      "ire": 3606,
      "net": 3607,
      "vice": 3608,
      "Ġstri": 3609,
      "uler": 3610,
      "argc": 3611,
      "Ġsep": 3612,
      "Ġmeans": 3613,
      "reader": 3614,
      "Iterator": 3615,
      "ĠNotImplementedError": 3616,
      "uction": 3617,
      "ually": 3618,
      "lem": 3619,
      "Ġway": 3620,
      "Ġcost": 3621,
      "inder": 3622,
      "readline": 3623,
      "CheckPositional": 3624,
      "Ġerrno": 3625,
      "1000": 3626,
      "pc": 3627,
      "orig": 3628,
      "Ġwarnings": 3629,
      "ĠPyGC": 3630,
      "dist": 3631,
      "Ġ++": 3632,
      "------": 3633,
      "Consumer": 3634,
      "notations": 3635,
      "An": 3636,
      "fin": 3637,
      "purge": 3638,
      "ross": 3639,
      "ĠLoc": 3640,
      "Ġseq": 3641,
      "Ġround": 3642,
      "BRE": 3643,
      "Field": 3644,
      "reed": 3645,
      "recent": 3646,
      "Ġ-->": 3647,
      "Ġdictionary": 3648,
      "omin": 3649,
      "Ġobtain": 3650,
      "escape": 3651,
      "Ġglobal": 3652,
      "ĠSTRINGLIB": 3653,
      "'))": 3654,
      "'),": 3655,
      "GROUP": 3656,
      "imag": 3657,
      "delete": 3658,
      "Ġsafe": 3659,
      "medi": 3660,
      "html": 3661,
      "Ġcallable": 3662,
      "FC": 3663,
      "Ġaut": 3664,
      "ĠSort": 3665,
      "iling": 3666,
      "Ġoperations": 3667,
      "INITIAL": 3668,
      "98": 3669,
      "gle": 3670,
      "json": 3671,
      "tect": 3672,
      "PyModule": 3673,
      "ottom": 3674,
      "Ġ[\"": 3675,
      "Invalid": 3676,
      "Ġabout": 3677,
      "TOB": 3678,
      "Ġtrack": 3679,
      "Ġescape": 3680,
      "wrapper": 3681,
      "dius": 3682,
      "Ġarea": 3683,
      "uintptr": 3684,
      "stdlib": 3685,
      "57": 3686,
      "ĠAdd": 3687,
      "struction": 3688,
      "OUR": 3689,
      "Ġimplements": 3690,
      "Ġcorrect": 3691,
      "ĠCodec": 3692,
      "Ġ'_": 3693,
      "shift": 3694,
      "Ġshift": 3695,
      "charmap": 3696,
      "structs": 3697,
      ".,": 3698,
      "ODE": 3699,
      "bab": 3700,
      "stdio": 3701,
      "unlock": 3702,
      "QLITE": 3703,
      "mary": 3704,
      "safe": 3705,
      "Ġfill": 3706,
      "Ġremaining": 3707,
      "Ġstyle": 3708,
      "ffect": 3709,
      "ĠWAR": 3710,
      "abet": 3711,
      "Ġpermiss": 3712,
      "host": 3713,
      "Ġ,": 3714,
      "Ġ'__": 3715,
      "iso": 3716,
      "Ġcharset": 3717,
      "emap": 3718,
      "noptargs": 3719,
      "VARARGS": 3720,
      "Ġmove": 3721,
      "Ġmany": 3722,
      "reshold": 3723,
      "31": 3724,
      "si": 3725,
      "Ġreverse": 3726,
      "icy": 3727,
      "STATE": 3728,
      "THON": 3729,
      "bar": 3730,
      "cr": 3731,
      "here": 3732,
      "gex": 3733,
      "istic": 3734,
      "LIMITED": 3735,
      "Next": 3736,
      "cancel": 3737,
      "dified": 3738,
      "eric": 3739,
      "Ġwin": 3740,
      "ription": 3741,
      "verter": 3742,
      "curity": 3743,
      "RAY": 3744,
      "Status": 3745,
      "ster": 3746,
      "second": 3747,
      "ites": 3748,
      "geo": 3749,
      "ĠMap": 3750,
      "Ġtimes": 3751,
      "signal": 3752,
      "ĠInitial": 3753,
      "erred": 3754,
      "Ġfactor": 3755,
      "Ġdown": 3756,
      "Ġcould": 3757,
      "elm": 3758,
      "tag": 3759,
      "errno": 3760,
      "90": 3761,
      "after": 3762,
      "ctal": 3763,
      "PyInterpreterState": 3764,
      "ines": 3765,
      "etch": 3766,
      "qual": 3767,
      "ĠXXX": 3768,
      "command": 3769,
      "Ġlg": 3770,
      "ators": 3771,
      "Ġextension": 3772,
      "ategy": 3773,
      "Edge": 3774,
      "options": 3775,
      "leaf": 3776,
      "Ġpla": 3777,
      "ĠADD": 3778,
      "ILDE": 3779,
      "ĠKIND": 3780,
      "Ġupper": 3781,
      "Ġcalcul": 3782,
      "ĠCharSequence": 3783,
      "AM": 3784,
      "Matcher": 3785,
      "Out": 3786,
      "orm": 3787,
      "Ġredu": 3788,
      "Ġ\"&": 3789,
      "unicode": 3790,
      "ĠTILDE": 3791,
      "ATED": 3792,
      "ĠIndex": 3793,
      "board": 3794,
      "witness": 3795,
      "Block": 3796,
      "XDECREF": 3797,
      "uch": 3798,
      "Ġemit": 3799,
      "adata": 3800,
      "IOBase": 3801,
      "Ġ``": 3802,
      "69": 3803,
      "known": 3804,
      "ving": 3805,
      "Ġzip": 3806,
      "ĠREDISMODULE": 3807,
      "VICE": 3808,
      "XML": 3809,
      "fill": 3810,
      "slow": 3811,
      "recursive": 3812,
      "verts": 3813,
      "ĠOP": 3814,
      "Ġjson": 3815,
      "show": 3816,
      "cessed": 3817,
      "Ġenviron": 3818,
      "Ġresponse": 3819,
      "202": 3820,
      "OST": 3821,
      "URE": 3822,
      "Ġtk": 3823,
      "Ġcounter": 3824,
      "mplet": 3825,
      "Ġcomponent": 3826,
      "track": 3827,
      "Ġrunning": 3828,
      "psset": 3829,
      "ALLOW": 3830,
      "sl": 3831,
      "icensed": 3832,
      "shape": 3833,
      ".',),": 3834,
      "App": 3835,
      "cum": 3836,
      "release": 3837,
      "istance": 3838,
      "ntax": 3839,
      "Ġsegment": 3840,
      "HASH": 3841,
      "FLAG": 3842,
      "512": 3843,
      "Dec": 3844,
      "ai": 3845,
      "solution": 3846,
      "ĠONE": 3847,
      "ens": 3848,
      "Ġfuture": 3849,
      "Ġsimple": 3850,
      "unts": 3851,
      "ĠSh": 3852,
      "ĠĠĠĠĠĠĠĠĠĠĠĠĠĠĠĠĠĠĠĠĠĠĠĠĠĠ": 3853,
      "ynomial": 3854,
      "EVENT": 3855,
      "gree": 3856,
      "reset": 3857,
      "Ġbig": 3858,
      "Ġehooks": 3859,
      "Ġanother": 3860,
      "Ġgra": 3861,
      "Ġcons": 3862,
      "Ġsend": 3863,
      "IncrementalDecoder": 3864,
      "Trans": 3865,
      "LET": 3866,
      "fn": 3867,
      "Ġdeterm": 3868,
      "ĠBase": 3869,
      "Ġshow": 3870,
      "83": 3871,
      "Float": 3872,
      "Ġpr": 3873,
      "ĠLicensed": 3874,
      "Ġconnect": 3875,
      "Release": 3876,
      "APP": 3877,
      "46": 3878,
      "ias": 3879,
      "peed": 3880,
      "ATOM": 3881,
      "amily": 3882,
      "counter": 3883,
      "Ġproblem": 3884,
      "StreamReader": 3885,
      "PARATOR": 3886,
      "ĠThrowable": 3887,
      "95": 3888,
      "WIN": 3889,
      "fname": 3890,
      "Ġindent": 3891,
      "Ġrelease": 3892,
      "Ġpac": 3893,
      "Ġhandler": 3894,
      "common": 3895,
      "Ġregard": 3896,
      "mapping": 3897,
      "Ġ\"\\": 3898,
      "Ġmacro": 3899,
      "__\",": 3900,
      "ĠSI": 3901,
      "Ġconstructor": 3902,
      "Ġattribute": 3903,
      "runtime": 3904,
      "ately": 3905,
      "ĠCall": 3906,
      "Ġhandl": 3907,
      "Ġhost": 3908,
      "connect": 3909,
      "numbers": 3910,
      "Ġactual": 3911,
      "ĠSEPARATOR": 3912,
      "IncrementalEncoder": 3913,
      "Case": 3914,
      "done": 3915,
      "request": 3916,
      "dealloc": 3917,
      "Ġtoo": 3918,
      "INC": 3919,
      "ALF": 3920,
      "Ġ[-": 3921,
      "ODING": 3922,
      "tributes": 3923,
      "equals": 3924,
      ")_": 3925,
      "43": 3926,
      "::": 3927,
      "va": 3928,
      "decoding": 3929,
      "Ġignore": 3930,
      "Ġeval": 3931,
      "protocol": 3932,
      "errcode": 3933,
      "Token": 3934,
      "Byte": 3935,
      "Ġcopyright": 3936,
      "ĠANY": 3937,
      "BadArgument": 3938,
      "ĠError": 3939,
      "rees": 3940,
      "Ġmean": 3941,
      "ĠGraph": 3942,
      "bose": 3943,
      "Ġparameters": 3944,
      "nargs": 3945,
      "ral": 3946,
      "inition": 3947,
      "123": 3948,
      "HECK": 3949,
      "Ġquot": 3950,
      "println": 3951,
      "ĠComparable": 3952,
      "ominator": 3953,
      "atures": 3954,
      "lest": 3955,
      "loor": 3956,
      "Ġforce": 3957,
      "ĠPoint": 3958,
      "Ġcompat": 3959,
      "seek": 3960,
      "Ġvalidate": 3961,
      "Ġactive": 3962,
      "({": 3963,
      "IVE": 3964,
      "closed": 3965,
      "Ġcir": 3966,
      "Ġclock": 3967,
      "()}": 3968,
      "Ġduring": 3969,
      "ARY": 3970,
      "ĠOUT": 3971,
      "errupt": 3972,
      "ĠDEVICE": 3973,
      "OBJECT": 3974,
      "ATOMIC": 3975,
      "Bit": 3976,
      "Clear": 3977,
      "Ġclosed": 3978,
      "Ġnormal": 3979,
      "unpack": 3980,
      "ĠHel": 3981,
      "Ġequivalent": 3982,
      "environ": 3983,
      "efficient": 3984,
      "ĠINT": 3985,
      "Ġclasses": 3986,
      "Ġfall": 3987,
      "Ġpivot": 3988,
      "Ġhook": 3989,
      "Ġcondition": 3990,
      "ĠFound": 3991,
      "ĠWindows": 3992,
      "testcapi": 3993,
      "QUARE": 3994,
      "StreamWriter": 3995,
      "Ġletter": 3996,
      "Ġlarge": 3997,
      "NonNull": 3998,
      "ĠWARRAN": 3999,
      "CI": 4000,
      "bc": 4001,
      "Ġrows": 4002,
      "Ġdb": 4003,
      "extra": 4004,
      "background": 4005,
      "Ġcompiler": 4006,
      "Unpack": 4007,
      "IONS": 4008,
      "FromLong": 4009,
      "box": 4010,
      "859": 4011,
      "MSG": 4012,
      "lar": 4013,
      "rel": 4014,
      "Ġtraceback": 4015,
      "height": 4016,
      "Ġmapping": 4017,
      "\",\".": 4018,
      "Ġconversion": 4019,
      "BUG": 4020,
      "mallest": 4021,
      "ParseTuple": 4022,
      "EP": 4023,
      "TT": 4024,
      "ee": 4025,
      "Ġcycle": 4026,
      "Ġreal": 4027,
      "nums": 4028,
      "ĠCalculate": 4029,
      "ĠSoftware": 4030,
      "\"):": 4031,
      "PD": 4032,
      "hand": 4033,
      "alind": 4034,
      "ench": 4035,
      "Ġrepe": 4036,
      "ĠLo": 4037,
      "pysqlite": 4038,
      "Ġpriority": 4039,
      "WINDOWS": 4040,
      "96": 4041,
      "MUL": 4042,
      "](": 4043,
      "try": 4044,
      "LOCAL": 4045,
      "'re": 4046,
      "Del": 4047,
      "First": 4048,
      "LinkedList": 4049,
      "VI": 4050,
      "ĠAll": 4051,
      "ĠRuntime": 4052,
      "ĠĠĠĠĠĠĠĠĠĠĠĠĠĠĠĠĠĠĠĠĠĠĠĠĠĠĠĠĠĠĠĠĠ": 4053,
      "Ġhasattr": 4054,
      "plat": 4055,
      "points": 4056,
      "vas": 4057,
      "Ġtb": 4058,
      "rot": 4059,
      "Ġ17": 4060,
      "ameters": 4061,
      "Ġprec": 4062,
      "ernel": 4063,
      "ident": 4064,
      "MEM": 4065,
      "THREADS": 4066,
      "={": 4067,
      "Random": 4068,
      "grid": 4069,
      "late": 4070,
      "Ġ'/": 4071,
      "illi": 4072,
      "Star": 4073,
      "ĠConstructs": 4074,
      "Ġquery": 4075,
      "content": 4076,
      "Ġdocument": 4077,
      "itespace": 4078,
      "CP": 4079,
      "SY": 4080,
      "uous": 4081,
      "Ġ')": 4082,
      "ĠTable": 4083,
      "forms": 4084,
      "Ġfib": 4085,
      "QUAL": 4086,
      "8859": 4087,
      "Max": 4088,
      "Spec": 4089,
      "SUP": 4090,
      "System": 4091,
      "Ġ\".": 4092,
      "Ġbegin": 4093,
      "quot": 4094,
      "Ġdescript": 4095,
      "Ġmatches": 4096,
      "Buffered": 4097,
      "NE": 4098,
      "ĠNO": 4099,
      "Ġgrid": 4100,
      "Ġgetattr": 4101,
      "Ġbuilder": 4102,
      "ADD": 4103,
      "Ġexponent": 4104,
      "Ġallocation": 4105,
      "domain": 4106,
      "Ġcapacity": 4107,
      "Ġcorresponding": 4108,
      "wrap": 4109,
      "inf": 4110,
      "ĠLINE": 4111,
      "ĠCopy": 4112,
      "sets": 4113,
      "APE": 4114,
      "Ġsent": 4115,
      "Ġattr": 4116,
      "ibility": 4117,
      "SCRIPT": 4118,
      "TOK": 4119,
      "ĠProcess": 4120,
      "ufffe": 4121,
      "Ġlibrary": 4122,
      "42": 4123,
      "DS": 4124,
      "]],": 4125,
      "atal": 4126,
      "builtin": 4127,
      "ĠGener": 4128,
      "pair": 4129,
      "Ġstructure": 4130,
      "Ġcontent": 4131,
      "63": 4132,
      "tt": 4133,
      "uce": 4134,
      "Ġtok": 4135,
      "ĠPer": 4136,
      "Search": 4137,
      "TIES": 4138,
      "Ġprovides": 4139,
      "Ġfailure": 4140,
      "Qu": 4141,
      "WO": 4142,
      "high": 4143,
      "Ġpredicate": 4144,
      "ĠLG": 4145,
      "leno": 4146,
      "ustom": 4147,
      "Ġquick": 4148,
      "Ġcombin": 4149,
      "DateTime": 4150,
      "ĠWARRANTIES": 4151,
      ")-": 4152,
      "AF": 4153,
      "Range": 4154,
      "fmt": 4155,
      "sample": 4156,
      "Ġsample": 4157,
      "ĠEn": 4158,
      "ĠInput": 4159,
      "LOG": 4160,
      "Memory": 4161,
      "delta": 4162,
      "ASCII": 4163,
      "End": 4164,
      "sor": 4165,
      "ĠPyDict": 4166,
      "Ġasync": 4167,
      "ĠStack": 4168,
      "TypeError": 4169,
      "Ġmemcpy": 4170,
      "FromString": 4171,
      "Ġinitialize": 4172,
      "rypted": 4173,
      "Alloc": 4174,
      "annels": 4175,
      "Ġcollections": 4176,
      "CLEAR": 4177,
      "41": 4178,
      "53": 4179,
      "dalloc": 4180,
      "gno": 4181,
      "Ġrece": 4182,
      "Ġslow": 4183,
      "icro": 4184,
      "ĠSQUARE": 4185,
      "ĠHALF": 4186,
      "Ġaddr": 4187,
      "Ġenumerate": 4188,
      "Ġmonth": 4189,
      "ĠFoundation": 4190,
      "'],": 4191,
      "IME": 4192,
      "ca": 4193,
      "ever": 4194,
      "Ġclear": 4195,
      "Ġden": 4196,
      "lication": 4197,
      "Ġseconds": 4198,
      "ĠObjects": 4199,
      "Boolean": 4200,
      "Ġprogram": 4201,
      "Ġspecial": 4202,
      "ĠComplexity": 4203,
      "ĠArrays": 4204,
      "tails": 4205,
      "Ġremoved": 4206,
      "invalid": 4207,
      "Ġrest": 4208,
      "Ġ(?:": 4209,
      "ĠĠĠĠĠĠĠĠĠĠĠĠĠĠĠĠĠĠĠĠĠĠĠĠĠĠĠĠ": 4210,
      "ĠWSA": 4211,
      "ĠRFC": 4212,
      "Ġcompli": 4213,
      "VarObject": 4214,
      "Ġpermissions": 4215,
      "KN": 4216,
      "Pattern": 4217,
      "Tra": 4218,
      "Ġpad": 4219,
      "Ġstill": 4220,
      "Ġlaw": 4221,
      "Ġannotations": 4222,
      "Ġnever": 4223,
      "ĠBy": 4224,
      "Ġstrlen": 4225,
      "Ġitself": 4226,
      "Ġcalling": 4227,
      "Ġ{\"\\": 4228,
      "Ġiterable": 4229,
      "Ġrequires": 4230,
      "Eval": 4231,
      "RML": 4232,
      "stmt": 4233,
      "oring": 4234,
      "Ġcp": 4235,
      "didate": 4236,
      "olute": 4237,
      "ĠImport": 4238,
      "ressed": 4239,
      "Ġpaths": 4240,
      "tributeError": 4241,
      "fastargs": 4242,
      "NS": 4243,
      "PyThreadState": 4244,
      "utdown": 4245,
      "ĠCh": 4246,
      "Ġthrows": 4247,
      "ĠIncremental": 4248,
      "Ġthreads": 4249,
      "Ġindic": 4250,
      "INFO": 4251,
      "Ġplatform": 4252,
      "gdbm": 4253,
      "ole": 4254,
      "space": 4255,
      "Ġpush": 4256,
      "ĠOBJ": 4257,
      "tok": 4258,
      "Ġyear": 4259,
      "Ġcompar": 4260,
      "Ġkwargs": 4261,
      "callable": 4262,
      "){": 4263,
      ";\"},": 4264,
      "Min": 4265,
      "YPE": 4266,
      "gctx": 4267,
      "non": 4268,
      "rtree": 4269,
      "utton": 4270,
      "umns": 4271,
      "olved": 4272,
      "Ġnewline": 4273,
      "MPTY": 4274,
      "CC": 4275,
      "Multibyte": 4276,
      "ass": 4277,
      "tc": 4278,
      "eros": 4279,
      "ĠLe": 4280,
      "Ġinternal": 4281,
      "REP": 4282,
      "ĠUp": 4283,
      "ĠVersion": 4284,
      "shared": 4285,
      "Ġwritten": 4286,
      "asyncio": 4287,
      "WAYS": 4288,
      "imp": 4289,
      "}'": 4290,
      "Ġput": 4291,
      "lying": 4292,
      "execut": 4293,
      "Ġhex": 4294,
      "Ġdestination": 4295,
      "<?": 4296,
      "bb": 4297,
      "fc": 4298,
      "{@": 4299,
      "Ġtyp": 4300,
      "inel": 4301,
      "Ġthree": 4302,
      "ALWAYS": 4303,
      "Ġdivis": 4304,
      "ĠBA": 4305,
      "reduce": 4306,
      "Ġ50": 4307,
      "Ġmember": 4308,
      "ordinate": 4309,
      "Hel": 4310,
      "SM": 4311,
      "bt": 4312,
      "factor": 4313,
      "PyType": 4314,
      "isx": 4315,
      "osition": 4316,
      "ĠEOF": 4317,
      "Ġcompare": 4318,
      "Ġzone": 4319,
      "Ġentries": 4320,
      "Ġapplicable": 4321,
      "indent": 4322,
      "acy": 4323,
      "licen": 4324,
      "ynch": 4325,
      "IRE": 4326,
      "br": 4327,
      "body": 4328,
      "lin": 4329,
      "ling": 4330,
      "Ġreply": 4331,
      "Ġlat": 4332,
      "ists": 4333,
      "acci": 4334,
      "tab": 4335,
      "Ġcomput": 4336,
      "partition": 4337,
      "75": 4338,
      "stant": 4339,
      "unds": 4340,
      "Ġ/,": 4341,
      "ĠCOM": 4342,
      "verage": 4343,
      "Ġsec": 4344,
      "imil": 4345,
      "Ġwhat": 4346,
      "Ġonce": 4347,
      "priv": 4348,
      "ĠISO": 4349,
      "Ġalpha": 4350,
      "ĠCOND": 4351,
      "FOR": 4352,
      "hes": 4353,
      "Ġcause": 4354,
      "ings": 4355,
      "ĠEN": 4356,
      "Ġproduct": 4357,
      "Ġshared": 4358,
      "Ġcontribut": 4359,
      "AsInt": 4360,
      "Ġmatching": 4361,
      "Ġtakes": 4362,
      "&_": 4363,
      "61": 4364,
      "LU": 4365,
      "just": 4366,
      "rank": 4367,
      "onacci": 4368,
      "Ġregister": 4369,
      "Ġ\"-": 4370,
      "ĠCAR": 4371,
      "change": 4372,
      "ĠIO": 4373,
      "conversion": 4374,
      "ersh": 4375,
      "Ġargc": 4376,
      "UTF": 4377,
      "(!": 4378,
      "action": 4379,
      "atio": 4380,
      "Ġsave": 4381,
      "ĠBig": 4382,
      "Ġprocesses": 4383,
      "ĠWITHOUT": 4384,
      "Ġtests": 4385,
      "Ġquote": 4386,
      "ĠAny": 4387,
      "Ġregarding": 4388,
      "Can": 4389,
      "THAN": 4390,
      "Version": 4391,
      "allow": 4392,
      "enu": 4393,
      "elif": 4394,
      "Ġraised": 4395,
      "cording": 4396,
      "imilar": 4397,
      "ged": 4398,
      "traceback": 4399,
      "}\"": 4400,
      "Ġlicense": 4401,
      "ĠCED": 4402,
      "ason": 4403,
      "Ġhapp": 4404,
      "Ġsets": 4405,
      "Ġknow": 4406,
      "Ġcaller": 4407,
      "Complex": 4408,
      "Ġblocks": 4409,
      "Ġmiddle": 4410,
      "Ġimplied": 4411,
      "ILLA": 4412,
      "ĠCEDILLA": 4413,
      "BASE": 4414,
      "ait": 4415,
      "ev": 4416,
      "pow": 4417,
      "uplic": 4418,
      "Ġcompute": 4419,
      "Ġidle": 4420,
      "Ġlargest": 4421,
      "Generic": 4422,
      "ership": 4423,
      "CLO": 4424,
      "pid": 4425,
      "year": 4426,
      "Ġigno": 4427,
      "tool": 4428,
      "Ġknown": 4429,
      "LAKE": 4430,
      "Ġlimitations": 4431,
      "PYTHON": 4432,
      "POLL": 4433,
      "globals": 4434,
      "PAGE": 4435,
      "fre": 4436,
      "txt": 4437,
      "Ġ{'": 4438,
      "Ġmerge": 4439,
      "ĠPyVarObject": 4440,
      "ĠĠĠĠĠĠĠĠĠĠĠĠĠĠĠĠĠĠĠĠĠĠĠĠĠĠĠĠĠĠ": 4441,
      "ĠAd": 4442,
      "ĠABO": 4443,
      "Ġrtree": 4444,
      "Ġdirectly": 4445,
      "Ġheaders": 4446,
      "ĠCreates": 4447,
      "ĠABOVE": 4448,
      "BIN": 4449,
      "Find": 4450,
      "Handle": 4451,
      "Ke": 4452,
      "Ġiss": 4453,
      "Ġdiff": 4454,
      "lies": 4455,
      "strong": 4456,
      "Ġunicode": 4457,
      "ROLE": 4458,
      "0213": 4459,
      "ĠUnless": 4460,
      "Ġownership": 4461,
      "ĠSIZE": 4462,
      "ynchron": 4463,
      "91": 4464,
      "License": 4465,
      "oot": 4466,
      "come": 4467,
      "ORY": 4468,
      "ĠOther": 4469,
      "locked": 4470,
      "area": 4471,
      "Ġcurrently": 4472,
      "vertices": 4473,
      "ĠfieldName": 4474,
      "Ġcompliance": 4475,
      "38": 4476,
      "Dis": 4477,
      "gb": 4478,
      "nstime": 4479,
      "supported": 4480,
      "dered": 4481,
      "Ġstored": 4482,
      "ading": 4483,
      "Ġda": 4484,
      "ITIONS": 4485,
      "ĠFILE": 4486,
      "accept": 4487,
      "ĠReg": 4488,
      "Decode": 4489,
      "NDLE": 4490,
      "Ġhttp": 4491,
      "layer": 4492,
      "Runtime": 4493,
      "pr": 4494,
      "}\")": 4495,
      "Ġcar": 4496,
      "itu": 4497,
      "ĠFile": 4498,
      "ĠBinary": 4499,
      "ĠThese": 4500,
      "apped": 4501,
      "stdout": 4502,
      "EM": 4503,
      "Redis": 4504,
      "classes": 4505,
      "dl": 4506,
      "dp": 4507,
      "ront": 4508,
      "inst": 4509,
      "hell": 4510,
      "ĠCUR": 4511,
      "upper": 4512,
      "ACHE": 4513,
      "Ġmodules": 4514,
      "62": 4515,
      "PC": 4516,
      "Ġtag": 4517,
      "Ġpe": 4518,
      "DEBUG": 4519,
      "ENSE": 4520,
      "Ġyour": 4521,
      "aries": 4522,
      "ĠTHREE": 4523,
      "Pri": 4524,
      "tv": 4525,
      "Ġoccur": 4526,
      "losure": 4527,
      "Ġ'{": 4528,
      "Ġlicen": 4529,
      "ĠMPD": 4530,
      "Ġwhose": 4531,
      "curr": 4532,
      "proxy": 4533,
      "ĠĠĠĠĠĠĠĠĠĠĠĠĠĠĠĠĠĠĠĠĠĠĠĠĠĠĠĠĠĠĠĠĠĠ": 4534,
      "Ġparts": 4535,
      "ĠConverts": 4536,
      "ĠSearch": 4537,
      "Ġrobj": 4538,
      "Ġagree": 4539,
      "Ġrelative": 4540,
      "UnpackKeywords": 4541,
      "licenses": 4542,
      "Raw": 4543,
      "require": 4544,
      "Ġmissing": 4545,
      "ERO": 4546,
      "Ġgover": 4547,
      "Ġbuilt": 4548,
      "Ġexceptions": 4549,
      "LICENSE": 4550,
      ":\\": 4551,
      "On": 4552,
      "UCS": 4553,
      "ered": 4554,
      "zen": 4555,
      "deprecated": 4556,
      "Ġbl": 4557,
      "mpt": 4558,
      "ĠĠĠĠĠĠĠĠĠĠĠĠĠĠĠĠĠĠĠĠĠĠĠĠĠĠĠĠĠĠĠĠĠĠĠ": 4559,
      "ĠDo": 4560,
      "ĠOptional": 4561,
      "ached": 4562,
      "charset": 4563,
      "Ġassign": 4564,
      "destroy": 4565,
      "ĠBASIS": 4566,
      "'\\": 4567,
      "51": 4568,
      "USE": 4569,
      "ogram": 4570,
      "zip": 4571,
      "izing": 4572,
      "parts": 4573,
      "ĠDec": 4574,
      "Ġalignment": 4575,
      "Ġexpr": 4576,
      "boot": 4577,
      "ĠACCENT": 4578,
      "Ġagreed": 4579,
      "ĠNOTICE": 4580,
      "ĠCONDITIONS": 4581,
      "Ġgoverning": 4582,
      "Oper": 4583,
      "iew": 4584,
      "vari": 4585,
      "Ġfraction": 4586,
      "rome": 4587,
      "Objects": 4588,
      "Ġduration": 4589,
      "ĠATO": 4590,
      "iguous": 4591,
      "ITER": 4592,
      "argsbuf": 4593,
      "mainder": 4594,
      "ARRAY": 4595,
      "actors": 4596,
      "Ġargsbuf": 4597,
      "lector": 4598,
      "ĠJava": 4599,
      "commit": 4600,
      "Ġdifference": 4601,
      "Ġcontributor": 4602,
      "Ġlicenses": 4603,
      "68": 4604,
      "VIS": 4605,
      "fut": 4606,
      "ĠPyBytes": 4607,
      "enter": 4608,
      "ĠTO": 4609,
      "ĠASF": 4610,
      "Ġguar": 4611,
      "Ġdeque": 4612,
      "imize": 4613,
      "cluding": 4614,
      "ĠĠĠĠĠĠĠĠĠĠĠĠĠĠĠĠĠĠĠĠĠĠĠĠĠĠĠĠĠĠĠĠĠĠĠĠ": 4615,
      "000000": 4616,
      "ASF": 4617,
      "Ġexisting": 4618,
      "month": 4619,
      "ĠHeap": 4620,
      "integer": 4621,
      "Ġagreements": 4622,
      "52": 4623,
      "GI": 4624,
      "Simple": 4625,
      "bf": 4626,
      "iod": 4627,
      "rest": 4628,
      "ram": 4629,
      "ĠTWO": 4630,
      "idle": 4631,
      "Ġbeh": 4632,
      "Ġ[(": 4633,
      "ĠExamples": 4634,
      "ĠATOMIC": 4635,
      "79": 4636,
      "BLOCK": 4637,
      "DIR": 4638,
      "Ġsure": 4639,
      "Ġvol": 4640,
      "ĠRemove": 4641,
      "gramming": 4642,
      "Func": 4643,
      "TRA": 4644,
      "Task": 4645,
      "UID": 4646,
      "STAT": 4647,
      "buff": 4648,
      "proc": 4649,
      "Ġnamed": 4650,
      "spatch": 4651,
      "Ġfailed": 4652,
      "Per": 4653,
      "stit": 4654,
      "Ġpur": 4655,
      "unct": 4656,
      "amb": 4657,
      "valueOf": 4658,
      "overlapped": 4659,
      "df": 4660,
      "tected": 4661,
      "title": 4662,
      "Ġfut": 4663,
      "rocess": 4664,
      "rozen": 4665,
      "Ġwriter": 4666,
      "Ġ24": 4667,
      "inite": 4668,
      "ĠArgs": 4669,
      "Struct": 4670,
      "Ġboard": 4671,
      "warn": 4672,
      "Ġclust": 4673,
      "Ġexactly": 4674,
      "Ġignored": 4675,
      "AK": 4676,
      "Ext": 4677,
      "GTH": 4678,
      "ae": 4679,
      "Ġconstant": 4680,
      "Ġsubclass": 4681,
      "edges": 4682,
      "Ġrepr": 4683,
      "sqrt": 4684,
      "ĠUNUSED": 4685,
      "MUT": 4686,
      "ii": 4687,
      "stamp": 4688,
      "Ġ*=": 4689,
      "Ġfilter": 4690,
      "Ġ'<": 4691,
      "Ġcomplete": 4692,
      "linked": 4693,
      "Ġallocated": 4694,
      "Ġdecoded": 4695,
      "LENGTH": 4696,
      "mpletion": 4697,
      "59": 4698,
      "SQLITE": 4699,
      "fold": 4700,
      "td": 4701,
      "Ġedit": 4702,
      "onic": 4703,
      "Ġlongest": 4704,
      "ĠDouble": 4705,
      "ĠPri": 4706,
      "Instance": 4707,
      "Position": 4708,
      "TEST": 4709,
      "WRITE": 4710,
      "UInt": 4711,
      "gil": 4712,
      "ikipedia": 4713,
      "lg": 4714,
      "Ġâ": 4715,
      "Ġsur": 4716,
      "Ġms": 4717,
      "versed": 4718,
      "extension": 4719,
      "formed": 4720,
      "serv": 4721,
      "adding": 4722,
      "Unit": 4723,
      "Ġoperator": 4724,
      "ĠExp": 4725,
      "tokens": 4726,
      "Callback": 4727,
      "Ġkwnames": 4728,
      "Ġdelta": 4729,
      "Ġlookup": 4730,
      "ĠLOAD": 4731,
      "BE": 4732,
      "Client": 4733,
      "Match": 4734,
      "Matrix": 4735,
      "hpa": 4736,
      "ru": 4737,
      "Ġti": 4738,
      "ints": 4739,
      "rio": 4740,
      "Ġday": 4741,
      "quent": 4742,
      "ARG": 4743,
      "ICT": 4744,
      "Ġinterval": 4745,
      "illiseconds": 4746,
      "Dig": 4747,
      "dated": 4748,
      "rie": 4749,
      "older": 4750,
      "termin": 4751,
      "force": 4752,
      "tric": 4753,
      "Streaming": 4754,
      "Ġchildren": 4755,
      "Num": 4756,
      "dit": 4757,
      "filter": 4758,
      "ler": 4759,
      "yload": 4760,
      "enum": 4761,
      "look": 4762,
      "ĠLI": 4763,
      "locity": 4764,
      "Ġdelim": 4765,
      "Ġrank": 4766,
      "ĠKRML": 4767,
      "Ġallowed": 4768,
      "Control": 4769,
      "ĠBuilder": 4770,
      "Ġprecision": 4771,
      "PEND": 4772,
      "Windows": 4773,
      "lack": 4774,
      "fileno": 4775,
      "ĠConvert": 4776,
      "Ġinstances": 4777,
      "Ġdirected": 4778,
      "Ġdescriptor": 4779,
      "58": 4780,
      "Desc": 4781,
      "aly": 4782,
      "Ġsmallest": 4783,
      "Ġemail": 4784,
      "ĠTA": 4785,
      "ished": 4786,
      "ves": 4787,
      "Ġneighb": 4788,
      "ARGET": 4789,
      "Ġdefaults": 4790,
      "Ġincluded": 4791,
      "Initializer": 4792,
      "94": 4793,
      "FS": 4794,
      "registry": 4795,
      "Ġwidget": 4796,
      "ĠCO": 4797,
      "ĠAL": 4798,
      "ĠStop": 4799,
      "tained": 4800,
      "Ġinitialized": 4801,
      "xadecimal": 4802,
      "Socket": 4803,
      "DIGIT": 4804,
      "blake": 4805,
      "flag": 4806,
      "fetch": 4807,
      "roll": 4808,
      "lap": 4809,
      "ITY": 4810,
      "Ġconverted": 4811,
      "POINT": 4812,
      "system": 4813,
      "way": 4814,
      "ically": 4815,
      "Ġparam": 4816,
      "Ġiterator": 4817,
      "81": 4818,
      "FIG": 4819,
      "TARGET": 4820,
      "aut": 4821,
      "ural": 4822,
      "Ġodd": 4823,
      "abstract": 4824,
      "Connect": 4825,
      "AndSize": 4826,
      "Ġsmaller": 4827,
      "Ident": 4828,
      "RL": 4829,
      "ios": 4830,
      "window": 4831,
      "Ġmp": 4832,
      "Ġ):": 4833,
      "alog": 4834,
      "Ġhand": 4835,
      "Reference": 4836,
      "modules": 4837,
      "Ġhandling": 4838,
      "ĠCopyright": 4839,
      ")*": 4840,
      "cing": 4841,
      "sem": 4842,
      "Ġreset": 4843,
      "Ġsig": 4844,
      "Ġwrapper": 4845,
      "Ġmy": 4846,
      "ĠLOW": 4847,
      "Ġunique": 4848,
      "rowser": 4849,
      "pare": 4850,
      "Ġaccording": 4851,
      "Order": 4852,
      "initialized": 4853,
      "EGIN": 4854,
      "history": 4855,
      "CESS": 4856,
      "Warning": 4857,
      "[])": 4858,
      "ortest": 4859,
      "anch": 4860,
      "Ġmut": 4861,
      "htable": 4862,
      "ather": 4863,
      "ĠThere": 4864,
      "Ġweights": 4865,
      "Ġprevent": 4866,
      "Ġapply": 4867,
      "Ġrepresents": 4868,
      "Ġbackground": 4869,
      "ĠKeyError": 4870,
      "EC": 4871,
      "eff": 4872,
      "Ġ--------------------------------": 4873,
      "Ġ()": 4874,
      "anced": 4875,
      "RAME": 4876,
      "Ġarrays": 4877,
      "Ġcases": 4878,
      "ecache": 4879,
      "Ġoverride": 4880,
      "ĠAttributeError": 4881,
      "alindrome": 4882,
      "BC": 4883,
      "Predicate": 4884,
      "Ġturn": 4885,
      "atches": 4886,
      "Ġfmt": 4887,
      "Ġreturning": 4888,
      "ulk": 4889,
      "iff": 4890,
      "complete": 4891,
      "locals": 4892,
      "LIENT": 4893,
      "suffix": 4894,
      "executable": 4895,
      "requireNonNull": 4896,
      "Bo": 4897,
      "MON": 4898,
      "Vector": 4899,
      "Ġ$": 4900,
      "pear": 4901,
      "ĠAE": 4902,
      "Ġmet": 4903,
      "Ġstatement": 4904,
      "herit": 4905,
      "Ġinterpreter": 4906,
      "overflow": 4907,
      "metric": 4908,
      "Ġ'*": 4909,
      "Ġmight": 4910,
      "Ġ25": 4911,
      "Ġnecess": 4912,
      "ĠNULLABLE": 4913,
      "ALSE": 4914,
      "fields": 4915,
      "Ġcompress": 4916,
      "weight": 4917,
      "Attr": 4918,
      "RANGE": 4919,
      "privdata": 4920,
      ">{@": 4921,
      "AST": 4922,
      "normal": 4923,
      "ping": 4924,
      "zy": 4925,
      "Ġinf": 4926,
      "Ġreport": 4927,
      "Ġwor": 4928,
      "\").": 4929,
      "ĠUT": 4930,
      "directed": 4931,
      "Valid": 4932,
      "ĠInitialize": 4933,
      "Ġevalu": 4934,
      "rocessing": 4935,
      ">'": 4936,
      "Binary": 4937,
      "false": 4938,
      "fail": 4939,
      "gr": 4940,
      "ho": 4941,
      "Ġ(((": 4942,
      "ionError": 4943,
      "unit": 4944,
      "idden": 4945,
      "clone": 4946,
      "ĠPO": 4947,
      "Ġchecked": 4948,
      "pointer": 4949,
      "****************************************************************": 4950,
      "Left": 4951,
      "large": 4952,
      "ĠImportError": 4953,
      "Keys": 4954,
      "ares": 4955,
      "option": 4956,
      "rong": 4957,
      "dev": 4958,
      "Ġcomplex": 4959,
      "Group": 4960,
      "light": 4961,
      "ining": 4962,
      "Ġ\")": 4963,
      "Ġbody": 4964,
      "isds": 4965,
      "Style": 4966,
      "ĠMatrix": 4967,
      "ĠEnt": 4968,
      "DEFIN": 4969,
      "dirty": 4970,
      "Default": 4971,
      "Ġprimes": 4972,
      "ĠChecks": 4973,
      "Ġboundary": 4974,
      "ĠMethod": 4975,
      "\",\".\",\".": 4976,
      "AA": 4977,
      "Obj": 4978,
      "TREE": 4979,
      "ba": 4980,
      "cu": 4981,
      "fragment": 4982,
      "lu": 4983,
      "Ġlit": 4984,
      "ĠIP": 4985,
      "single": 4986,
      "kwonly": 4987,
      "LOAD": 4988,
      "Ġfails": 4989,
      "ĠOtherwise": 4990,
      "BEGIN": 4991,
      "Sign": 4992,
      "_(": 4993,
      "ior": 4994,
      "pthread": 4995,
      "slab": 4996,
      "tip": 4997,
      "Ġ\"'": 4998,
      "diff": 4999,
      "ATT": 5000,
      "Ġdigest": 5001,
      "ĠFE": 5002,
      "ĠPre": 5003,
      "resource": 5004,
      "--------------": 5005,
      "Delete": 5006,
      "Ġchecks": 5007,
      "weakref": 5008,
      "TRUE": 5009,
      "wards": 5010,
      "Hex": 5011,
      "Man": 5012,
      "go": 5013,
      "ially": 5014,
      "alph": 5015,
      ")),": 5016,
      "opcode": 5017,
      "need": 5018,
      "ArrayList": 5019,
      "cursor": 5020,
      "CONN": 5021,
      "Ġwaiting": 5022,
      "Ġalphabet": 5023,
      "Source": 5024,
      "bi": 5025,
      "Ġpys": 5026,
      "Ġvia": 5027,
      "aps": 5028,
      "Ġuseful": 5029,
      "ificant": 5030,
      "which": 5031,
      "global": 5032,
      "Supplier": 5033,
      "ĠLocale": 5034,
      "CType": 5035,
      "Table": 5036,
      "inv": 5037,
      "PyBytes": 5038,
      "ĠDOT": 5039,
      "extend": 5040,
      "Ġdomain": 5041,
      "Ġxk": 5042,
      "iobj": 5043,
      "headers": 5044,
      "threads": 5045,
      "umpy": 5046,
      "VISIT": 5047,
      "lt": 5048,
      "decoder": 5049,
      "PyDict": 5050,
      "Ġ(-": 5051,
      "ĠPyList": 5052,
      "ĠTValue": 5053,
      "Ġbest": 5054,
      "ATTR": 5055,
      "Ġdiv": 5056,
      "ĠESC": 5057,
      "ĠHow": 5058,
      "pass": 5059,
      "Ġwere": 5060,
      "Ġtestmod": 5061,
      "tkinter": 5062,
      "itude": 5063,
      "DEFINED": 5064,
      "Ad": 5065,
      "Future": 5066,
      "power": 5067,
      "where": 5068,
      "Ġ;": 5069,
      "alled": 5070,
      "heme": 5071,
      "Ġinside": 5072,
      "Ġ(&_": 5073,
      "Ġbind": 5074,
      "Ġ19": 5075,
      "Ġrule": 5076,
      "Ġprobab": 5077,
      "outine": 5078,
      "Ġ:=": 5079,
      "Ġ40": 5080,
      "Ġargv": 5081,
      "Ġthrown": 5082,
      "elementtree": 5083,
      "previous": 5084,
      "78": 5085,
      "SO": 5086,
      "TES": 5087,
      "basic": 5088,
      "Ġpage": 5089,
      "convert": 5090,
      "acquire": 5091,
      "Ġdele": 5092,
      "ĠMake": 5093,
      "crease": 5094,
      "9999": 5095,
      "Ġfrequency": 5096,
      "ENCODING": 5097,
      "Ġscanf": 5098,
      "platform": 5099,
      "Close": 5100,
      "GLE": 5101,
      "IFT": 5102,
      "wer": 5103,
      "Ġlater": 5104,
      "INAL": 5105,
      "COM": 5106,
      "cular": 5107,
      "Ġverbose": 5108,
      "Ġ'.'": 5109,
      "Ġletters": 5110,
      "vcrt": 5111,
      "DI": 5112,
      "Line": 5113,
      "Warnings": 5114,
      "urtle": 5115,
      "Ġssl": 5116,
      "Ġ':": 5117,
      "Ġ'('": 5118,
      "Ġchain": 5119,
      "(\"<": 5120,
      "ĠEQUAL": 5121,
      "OPEN": 5122,
      "interval": 5123,
      "224": 5124,
      "ĠsrcPos": 5125,
      "Ġtermin": 5126,
      "ategory": 5127,
      "Ġseparator": 5128,
      "REPLY": 5129,
      "EMPTY": 5130,
      "bd": 5131,
      "bs": 5132,
      "att": 5133,
      "Ġhalf": 5134,
      "Ġdirection": 5135,
      "pred": 5136,
      "ĠOut": 5137,
      "Ġradius": 5138,
      "mount": 5139,
      "************": 5140,
      "Ġready": 5141,
      "Ġexecutable": 5142,
      "ĠHEBRE": 5143,
      "2022": 5144,
      "Append": 5145,
      "MULTI": 5146,
      "ĠHEBREW": 5147,
      "Ver": 5148,
      "tick": 5149,
      "Ġrem": 5150,
      "Ġelem": 5151,
      "ceed": 5152,
      "Ġthose": 5153,
      "Ġmach": 5154,
      "component": 5155,
      "LID": 5156,
      "IGNORE": 5157,
      "shake": 5158,
      "Ġsingleton": 5159,
      "Ġnamespace": 5160,
      "=(": 5161,
      "Graph": 5162,
      "Malloc": 5163,
      "dot": 5164,
      "Ġgeo": 5165,
      "Ġpost": 5166,
      "ĠSPACE": 5167,
      "ONLY": 5168,
      "ĠPattern": 5169,
      "ĠHT": 5170,
      "Ġparsed": 5171,
      "Ġinstant": 5172,
      "SHIFT": 5173,
      "ordinates": 5174,
      "ĠOnly": 5175,
      "76": 5176,
      "CRO": 5177,
      "ple": 5178,
      "sig": 5179,
      "square": 5180,
      "Ġeffect": 5181,
      "ulation": 5182,
      "Ġhold": 5183,
      "ational": 5184,
      "ĠImplement": 5185,
      "Ġ255": 5186,
      "Ġdivide": 5187,
      "Ġendif": 5188,
      "Ġhexadecimal": 5189,
      "kwds": 5190,
      "LongLong": 5191,
      "ANT": 5192,
      "Returns": 5193,
      "Events": 5194,
      "Ġaround": 5195,
      "pipe": 5196,
      "cuit": 5197,
      ".\",": 5198,
      "><": 5199,
      "Row": 5200,
      "gy": 5201,
      "xit": 5202,
      "ĠERROR": 5203,
      "alt": 5204,
      "racket": 5205,
      "ĠSer": 5206,
      "Ġdynamic": 5207,
      "Ġjoin": 5208,
      "prog": 5209,
      "Ġsetting": 5210,
      "Ġattributes": 5211,
      "utils": 5212,
      "ookup": 5213,
      "MPLE": 5214,
      "Ġmodif": 5215,
      "unknown": 5216,
      "stdin": 5217,
      "ĠCharacter": 5218,
      "CLASS": 5219,
      "hashtable": 5220,
      "=%": 5221,
      "NESS": 5222,
      "ky": 5223,
      "pages": 5224,
      "Ġfragment": 5225,
      "Ġlamb": 5226,
      "ĠText": 5227,
      "Ġ23": 5228,
      "Ġserial": 5229,
      "FAULT": 5230,
      "ification": 5231,
      "ĉĉĉĉĉĉ": 5232,
      "BytesIO": 5233,
      "Ġ^=": 5234,
      "Identifier": 5235,
      ",&": 5236,
      "Ne": 5237,
      "PI": 5238,
      "cm": 5239,
      "dc": 5240,
      "osed": 5241,
      "ql": 5242,
      "realloc": 5243,
      "reverse": 5244,
      "Ġpat": 5245,
      "utes": 5246,
      "ĠPyMethod": 5247,
      "ckh": 5248,
      "ONOS": 5249,
      "Ġwhitespace": 5250,
      "Ġkeyword": 5251,
      "Ġcompile": 5252,
      "HAI": 5253,
      "Ġcontents": 5254,
      "Ġtransl": 5255,
      "################################": 5256,
      "NUMBER": 5257,
      "ĠSOLID": 5258,
      "Suppress": 5259,
      "Parent": 5260,
      "Ġpipe": 5261,
      "Decimal": 5262,
      "Ġcompatibility": 5263,
      "FORM": 5264,
      "GG": 5265,
      "NM": 5266,
      "TLS": 5267,
      "visit": 5268,
      "Ġ..": 5269,
      "ĠQueue": 5270,
      "ameter": 5271,
      "cos": 5272,
      "Ġprodu": 5273,
      "ĠVal": 5274,
      "OTH": 5275,
      "Ġexplicit": 5276,
      "Ġabstract": 5277,
      "defaults": 5278,
      "blocks": 5279,
      "Ġtransform": 5280,
      "OLON": 5281,
      "ĠBooleanUtils": 5282,
      "Ġbehav": 5283,
      "ĠSOLIDUS": 5284,
      "AI": 5285,
      "CONT": 5286,
      "SUB": 5287,
      "YP": 5288,
      "fect": 5289,
      "orary": 5290,
      "Ġsolve": 5291,
      "Ġoctal": 5292,
      "entr": 5293,
      "Ġ}\")": 5294,
      "__.": 5295,
      "atexit": 5296,
      "arger": 5297,
      "Ġlists": 5298,
      "ĠRandom": 5299,
      "Ġdatabase": 5300,
      "INDIC": 5301,
      "jacent": 5302,
      "Ġstrict": 5303,
      "'{": 5304,
      "82": 5305,
      "AV": 5306,
      "Ġfn": 5307,
      "Ġregist": 5308,
      "Ġ'\"": 5309,
      "REDIS": 5310,
      "emLock": 5311,
      "Ġprocessed": 5312,
      "Ġcontrol": 5313,
      "owner": 5314,
      "pendent": 5315,
      "dioop": 5316,
      "Bits": 5317,
      "SER": 5318,
      "bstract": 5319,
      "ired": 5320,
      "Ġefficient": 5321,
      "Ġwchar": 5322,
      "Ġchanged": 5323,
      "Exact": 5324,
      "ĠGC": 5325,
      "++]": 5326,
      "Ġ{\"__": 5327,
      "expand": 5328,
      "Overlapped": 5329,
      "elements": 5330,
      "Ġappear": 5331,
      "aaaa": 5332,
      "ARENT": 5333,
      "Server": 5334,
      "ĠValid": 5335,
      "=-": 5336,
      "Print": 5337,
      "boolean": 5338,
      "foo": 5339,
      "merge": 5340,
      "Ġns": 5341,
      "Ġstarts": 5342,
      "Ġtool": 5343,
      "bucket": 5344,
      "aved": 5345,
      "OPT": 5346,
      "Ġmodified": 5347,
      "ĠFormat": 5348,
      "winapi": 5349,
      "frames": 5350,
      "ĠUNDEFINED": 5351,
      "ĠANGLE": 5352,
      "ĠUpdate": 5353,
      "POINTING": 5354,
      "SuppressWarnings": 5355,
      "73": 5356,
      "Ġ*(": 5357,
      "__.__": 5358,
      "ĠTHAI": 5359,
      "ĠBIT": 5360,
      "ĠPrint": 5361,
      "transport": 5362,
      "CTX": 5363,
      "Ġpartic": 5364,
      "'''": 5365,
      "ecutor": 5366,
      "Ġworks": 5367,
      "Ġallows": 5368,
      "Ġregular": 5369,
      "________": 5370,
      "written": 5371,
      "pend": 5372,
      "rb": 5373,
      "Ġnumpy": 5374,
      "ĠName": 5375,
      "ĠEach": 5376,
      "strings": 5377,
      "ighbo": 5378,
      "Ġsched": 5379,
      "Ġlocation": 5380,
      "Component": 5381,
      "Ġimmedi": 5382,
      "PATH": 5383,
      "cla": 5384,
      "san": 5385,
      "widget": 5386,
      "hel": 5387,
      "Ġcustom": 5388,
      "losing": 5389,
      "Ġhpdata": 5390,
      "quote": 5391,
      "ĠFast": 5392,
      "ExUtils": 5393,
      "irt": 5394,
      "ĠRaise": 5395,
      "ĠThread": 5396,
      "Nodes": 5397,
      "iterable": 5398,
      "Ġcomment": 5399,
      "Ġadjacency": 5400,
      "ĠObjectUtils": 5401,
      "Ġsteps": 5402,
      "ancelled": 5403,
      "INITIALIZ": 5404,
      "SUPPORT": 5405,
      "ĠRegExUtils": 5406,
      "Ġcluster": 5407,
      "384": 5408,
      "EE": 5409,
      "[],": 5410,
      "factory": 5411,
      "hing": 5412,
      "mension": 5413,
      "qlite": 5414,
      "recursion": 5415,
      "Ġpick": 5416,
      "Ġwell": 5417,
      "Ġconsumer": 5418,
      "Ġexclude": 5419,
      "ives": 5420,
      "HESIS": 5421,
      "ĠCont": 5422,
      "Ġlogging": 5423,
      "Ġglobals": 5424,
      "symbol": 5425,
      "Ġappropri": 5426,
      "Ġdetermine": 5427,
      "ARENTHESIS": 5428,
      "70": 5429,
      "FRAME": 5430,
      "IM": 5431,
      "ga": 5432,
      "sin": 5433,
      "Ġregistry": 5434,
      "Ġrecursion": 5435,
      "Ġscore": 5436,
      "ĠPyC": 5437,
      "intext": 5438,
      "ĠNe": 5439,
      "ĠPARENTHESIS": 5440,
      "DEX": 5441,
      "Ġensure": 5442,
      "serve": 5443,
      "Ġsubset": 5444,
      "Ġreading": 5445,
      "Algorithm": 5446,
      "running": 5447,
      "ĠIndexError": 5448,
      "ĠCURLY": 5449,
      "ĠESCAPE": 5450,
      "Root": 5451,
      "eval": 5452,
      "rate": 5453,
      "leep": 5454,
      "Ġamount": 5455,
      "ication": 5456,
      "cell": 5457,
      "vex": 5458,
      "Ġgap": 5459,
      "CTL": 5460,
      "Ġtransport": 5461,
      "ĉĉĉĉĉ": 5462,
      "Ġbytearray": 5463,
      "Ġactually": 5464,
      "Ġindices": 5465,
      "Ġreferences": 5466,
      "SDS": 5467,
      "Ġdatetime": 5468,
      "Ġpairs": 5469,
      "szind": 5470,
      "Locale": 5471,
      "ĠSIZEOF": 5472,
      "Ġpysqlite": 5473,
      "tz": 5474,
      "Ġcert": 5475,
      "Ġhist": 5476,
      "Ġdid": 5477,
      "reser": 5478,
      "Ġhel": 5479,
      "Ġbuff": 5480,
      "times": 5481,
      "ANNOT": 5482,
      "<>(": 5483,
      "ĠCARON": 5484,
      "Ġoccurrence": 5485,
      "FD": 5486,
      "PTR": 5487,
      "SPACE": 5488,
      "hug": 5489,
      "tol": 5490,
      "arn": 5491,
      "Ġax": 5492,
      "Ġbottom": 5493,
      "ĠNOP": 5494,
      "ĠTONOS": 5495,
      "Remove": 5496,
      "ĠFOUR": 5497,
      "Ġsem": 5498,
      "Ġconstants": 5499,
      "validate": 5500,
      "poly": 5501,
      "opts": 5502,
      "Ġsuccessful": 5503,
      "Ġusage": 5504,
      "Pair": 5505,
      "ighbour": 5506,
      "GN": 5507,
      "bl": 5508,
      "jk": 5509,
      "vb": 5510,
      "xFFFF": 5511,
      "urst": 5512,
      "ĠPyThreadState": 5513,
      "channels": 5514,
      "Ġcoefficient": 5515,
      "Ġyet": 5516,
      "UNT": 5517,
      "ĠConcurrent": 5518,
      "Ġimplementations": 5519,
      "Names": 5520,
      "Protocol": 5521,
      "Ġiteration": 5522,
      "Load": 5523,
      "Ġadv": 5524,
      "Ġpartition": 5525,
      "ĠSTART": 5526,
      "generate": 5527,
      "Ġsqrt": 5528,
      "uzzy": 5529,
      "Ġautom": 5530,
      ")\",": 5531,
      "200": 5532,
      "Slot": 5533,
      "ng": 5534,
      "page": 5535,
      "plit": 5536,
      "Ġarch": 5537,
      "rev": 5538,
      "Ġreason": 5539,
      "Ġlarger": 5540,
      ")));": 5541,
      "ĠDWORD": 5542,
      "query": 5543,
      "ĠFirst": 5544,
      "Ġunion": 5545,
      "Ġlistener": 5546,
      "ssertionError": 5547,
      "Ġunderlying": 5548,
      "tract": 5549,
      "MINUS": 5550,
      "tools": 5551,
      "SemLock": 5552,
      "jp": 5553,
      "}:": 5554,
      "Ġcla": 5555,
      "ĠPyBuffer": 5556,
      "--)": 5557,
      "proto": 5558,
      "Ġkernel": 5559,
      "ĠĠĠĠĠĠĠĠĠĠĠĠĠĠĠĠĠĠĠĠĠĠĠĠĠĠĠĠĠĠĠĠĠĠĠĠĠĠ": 5560,
      "notation": 5561,
      "Proxy": 5562,
      "Ġneeds": 5563,
      "ĠHashMap": 5564,
      "INCREF": 5565,
      "NON": 5566,
      "big": 5567,
      "sel": 5568,
      "__':": 5569,
      "ĠLong": 5570,
      "Ġliter": 5571,
      "ĠAs": 5572,
      "Ġnothing": 5573,
      "http": 5574,
      "strlen": 5575,
      "Ġbucket": 5576,
      "Ġcandidate": 5577,
      "Deprecated": 5578,
      "1111": 5579,
      "ĠMAP": 5580,
      "comment": 5581,
      "Ġaccepts": 5582,
      "Ġenvironment": 5583,
      "Ġimmediately": 5584,
      "72": 5585,
      "bos": 5586,
      "cf": 5587,
      "hore": 5588,
      "iation": 5589,
      "reen": 5590,
      "Ġnet": 5591,
      "lier": 5592,
      "mass": 5593,
      "except": 5594,
      "Ġproperty": 5595,
      "neighb": 5596,
      "paths": 5597,
      "Ġgeneric": 5598,
      "reply": 5599,
      "calls": 5600,
      "Ġpermut": 5601,
      "Arrays": 5602,
      "LOB": 5603,
      "begin": 5604,
      "Ġchanges": 5605,
      "ĠPyMethodDef": 5606,
      "LON": 5607,
      "cast": 5608,
      "simple": 5609,
      "Ġ----------------": 5610,
      "Ġ&=": 5611,
      "based": 5612,
      "Ġupdated": 5613,
      "3333": 5614,
      "Compiler": 5615,
      "ĠToken": 5616,
      "BYTES": 5617,
      "response": 5618,
      "ĠTests": 5619,
      "ĠIDLE": 5620,
      "Ġcarry": 5621,
      "unctools": 5622,
      "FI": 5623,
      "LG": 5624,
      "Ptr": 5625,
      "SP": 5626,
      "UGE": 5627,
      "eb": 5628,
      "ued": 5629,
      "xfe": 5630,
      "inc": 5631,
      "rea": 5632,
      "atile": 5633,
      "help": 5634,
      "Ġau": 5635,
      "otonic": 5636,
      "adv": 5637,
      "Ġvd": 5638,
      "ĠCALL": 5639,
      "Ġforward": 5640,
      "Ġdefinition": 5641,
      "ĠBE": 5642,
      "ĠRETURN": 5643,
      "ĠRDB": 5644,
      "ESC": 5645,
      "Ġrepresented": 5646,
      "ĠSets": 5647,
      "ieve": 5648,
      "ĠLoad": 5649,
      "CUR": 5650,
      "DO": 5651,
      "fer": 5652,
      "nprintf": 5653,
      "oke": 5654,
      "xo": 5655,
      "Ġpages": 5656,
      "dispatch": 5657,
      "rier": 5658,
      "rive": 5659,
      "may": 5660,
      "Ġmaint": 5661,
      "DED": 5662,
      "ĠGET": 5663,
      "ODO": 5664,
      "Ġinitializer": 5665,
      "ĠDEFAULT": 5666,
      "functions": 5667,
      "OLATED": 5668,
      "ĠFinds": 5669,
      "ĠUTF": 5670,
      "irtual": 5671,
      ">\",": 5672,
      "One": 5673,
      "SSIZE": 5674,
      "nan": 5675,
      "small": 5676,
      "xFF": 5677,
      "Ġtrace": 5678,
      "Ġcrc": 5679,
      "Ġ\"<": 5680,
      "ingly": 5681,
      "ITES": 5682,
      "Ġbecome": 5683,
      "Ġrc": 5684,
      "EDI": 5685,
      "classmethod": 5686,
      "Ġparsing": 5687,
      "structures": 5688,
      "week": 5689,
      "CheckExact": 5690,
      "Ġtokens": 5691,
      "annel": 5692,
      "canvas": 5693,
      "ĠToString": 5694,
      "Ġspaces": 5695,
      "////////////////": 5696,
      "Ġhappen": 5697,
      "MES": 5698,
      "Su": 5699,
      "TA": 5700,
      "bench": 5701,
      "euler": 5702,
      "tm": 5703,
      "ĠPyNumber": 5704,
      "ĠPyFloat": 5705,
      "Ġangle": 5706,
      "ETA": 5707,
      "oll": 5708,
      "ffff": 5709,
      "ĠPRO": 5710,
      "isect": 5711,
      "mmar": 5712,
      "Ġpointers": 5713,
      "Loader": 5714,
      "ANCE": 5715,
      "Ġinitialization": 5716,
      "Ġlogger": 5717,
      "Service": 5718,
      "ByteArray": 5719,
      "Ġnecessary": 5720,
      "Last": 5721,
      "deque": 5722,
      "into": 5723,
      "Ġstmt": 5724,
      "dix": 5725,
      "iding": 5726,
      "Ġcomplexity": 5727,
      "ĠBit": 5728,
      "ĠBLAKE": 5729,
      "problem": 5730,
      "ĠValue": 5731,
      "Ġ(!--": 5732,
      "Args": 5733,
      "dirname": 5734,
      "contents": 5735,
      "Entity": 5736,
      "success": 5737,
      "ĠISOLATED": 5738,
      "ĠOutput": 5739,
      "Ġappropriate": 5740,
      "Big": 5741,
      "Calendar": 5742,
      "Link": 5743,
      "SOCK": 5744,
      "Ġswap": 5745,
      "Ġok": 5746,
      "ĠSND": 5747,
      "getattr": 5748,
      "Ġmass": 5749,
      "resp": 5750,
      "Exit": 5751,
      "STRT": 5752,
      "FFER": 5753,
      "Ġsubprocess": 5754,
      "ĠAPPEND": 5755,
      "ragma": 5756,
      "Ġconnected": 5757,
      "BT": 5758,
      "OFF": 5759,
      "aN": 5760,
      "segment": 5761,
      "lex": 5762,
      "PyList": 5763,
      "Ġ'+": 5764,
      "Ġ',": 5765,
      "ider": 5766,
      "olar": 5767,
      "Ġ21": 5768,
      "ĠPLUS": 5769,
      "Ġundirected": 5770,
      "allocated": 5771,
      "Ġjob": 5772,
      "mmutable": 5773,
      "ternative": 5774,
      "Ġsorting": 5775,
      "Ġsignificant": 5776,
      "Ġexecution": 5777,
      "lookup": 5778,
      "****************************************************************************": 5779,
      "EDIUM": 5780,
      "Enum": 5781,
      "âĶ": 5782,
      "Ġtt": 5783,
      "Ġcatch": 5784,
      "Ġinverse": 5785,
      "Ġ26": 5786,
      "ĠPAGE": 5787,
      "numerator": 5788,
      "Ġnumeric": 5789,
      "results": 5790,
      "Ġtasks": 5791,
      "multiprocessing": 5792,
      "Ġlambda": 5793,
      "'ll": 5794,
      "FALSE": 5795,
      "Met": 5796,
      "uation": 5797,
      "recv": 5798,
      "eral": 5799,
      "align": 5800,
      "hest": 5801,
      "Ġival": 5802,
      "Ġfront": 5803,
      "ante": 5804,
      "Ġetc": 5805,
      "ceval": 5806,
      "Ġmilliseconds": 5807,
      "adj": 5808,
      "ilities": 5809,
      "ĠFULL": 5810,
      "LED": 5811,
      "Ġmade": 5812,
      "Ġproper": 5813,
      "Compare": 5814,
      "TreeNode": 5815,
      "Ġexecuted": 5816,
      "Accessible": 5817,
      "ADDR": 5818,
      "Ġissue": 5819,
      "');": 5820,
      "SYS": 5821,
      "bad": 5822,
      "eq": 5823,
      "xml": 5824,
      "engine": 5825,
      "Ġaux": 5826,
      "Ġpending": 5827,
      "mean": 5828,
      "display": 5829,
      "INK": 5830,
      "lamb": 5831,
      "Ġusize": 5832,
      "Ġnest": 5833,
      "Ġord": 5834,
      "Ġrdb": 5835,
      "Ġfunctional": 5836,
      "Converter": 5837,
      "013": 5838,
      "Ġcolumns": 5839,
      "Ġreadline": 5840,
      "Ġdecay": 5841,
      "casecmp": 5842,
      "Iteration": 5843,
      "Ġfastargs": 5844,
      "BSD": 5845,
      "BACK": 5846,
      "}\\": 5847,
      "Ġred": 5848,
      "Ġph": 5849,
      "Ġpthread": 5850,
      "Ġsimilar": 5851,
      "ĠSte": 5852,
      "ĠSpace": 5853,
      "vec": 5854,
      "cost": 5855,
      "Ġ(!(": 5856,
      "ROUND": 5857,
      "Ġlinear": 5858,
      "nsitive": 5859,
      "bytearray": 5860,
      "endswith": 5861,
      "CONFIG": 5862,
      "bosity": 5863,
      "ĠSNDCTL": 5864,
      "lambda": 5865,
      "WH": 5866,
      "cleanup": 5867,
      "onal": 5868,
      "divis": 5869,
      "ĠSH": 5870,
      "Ġisn": 5871,
      "adline": 5872,
      "ĠUsed": 5873,
      "Counter": 5874,
      "Ġtesting": 5875,
      "iterator": 5876,
      "RANK": 5877,
      "Ġoptim": 5878,
      "ĠCalcul": 5879,
      "Ġfixed": 5880,
      "ĠAlgorithm": 5881,
      "Any": 5882,
      ">,": 5883,
      "Ctx": 5884,
      "GIL": 5885,
      "LATION": 5886,
      "nb": 5887,
      "uge": 5888,
      "}')": 5889,
      "Ġ(%": 5890,
      "uess": 5891,
      "ĠCase": 5892,
      "Ġgcd": 5893,
      "Ġhpa": 5894,
      "Ġconstruct": 5895,
      "Ġ256": 5896,
      "ĠFStar": 5897,
      "ĠPath": 5898,
      "readable": 5899,
      "----------": 5900,
      "astfold": 5901,
      "illis": 5902,
      "ISX": 5903,
      "denominator": 5904,
      "Ġconfiguration": 5905,
      "multiple": 5906,
      "mula": 5907,
      "Ġapplication": 5908,
      "ĠStreamReader": 5909,
      "NMSTRT": 5910,
      ")}.": 5911,
      "AND": 5912,
      "Fe": 5913,
      "XED": 5914,
      "uard": 5915,
      "windows": 5916,
      "Ġcell": 5917,
      "Ġmuch": 5918,
      "ĠPyExc": 5919,
      "ĠSET": 5920,
      "thr": 5921,
      "getitem": 5922,
      "amma": 5923,
      "RELA": 5924,
      "ithmet": 5925,
      "LEMENT": 5926,
      "ĠExt": 5927,
      "Ġ31": 5928,
      "spect": 5929,
      "BUFFER": 5930,
      "Ġchecking": 5931,
      "Ġnoptargs": 5932,
      "Ġitertools": 5933,
      "Ġpositions": 5934,
      "Ġinsertion": 5935,
      "viction": 5936,
      "Strategy": 5937,
      "Ġselected": 5938,
      "ĠSHADE": 5939,
      "likely": 5940,
      "ĠDefault": 5941,
      "Current": 5942,
      "ĠBigInteger": 5943,
      "Ġidlelib": 5944,
      "RELAXED": 5945,
      "HO": 5946,
      "OVER": 5947,
      "PREF": 5948,
      "_->": 5949,
      "crc": 5950,
      "cmath": 5951,
      "eof": 5952,
      "multibyte": 5953,
      "watch": 5954,
      "strap": 5955,
      "orage": 5956,
      "ories": 5957,
      "Ġcast": 5958,
      "Ġfil": 5959,
      "Ġbr": 5960,
      "adr": 5961,
      "INVAL": 5962,
      "ĠTRAN": 5963,
      "ĠTEXT": 5964,
      "Ġdisc": 5965,
      "shutdown": 5966,
      "Ġcursor": 5967,
      "Ġstats": 5968,
      "xyz": 5969,
      "vectorcall": 5970,
      "ĠCollection": 5971,
      "Ġdays": 5972,
      "hugify": 5973,
      "HOST": 5974,
      "IOW": 5975,
      "VEN": 5976,
      "_##": 5977,
      "floor": 5978,
      "irect": 5979,
      "jisx": 5980,
      "rule": 5981,
      "Ġtz": 5982,
      "Ġps": 5983,
      "ĠSup": 5984,
      "ĠSub": 5985,
      "ĠSUP": 5986,
      "chr": 5987,
      "Ġ22": 5988,
      "console": 5989,
      "LECT": 5990,
      "datetime": 5991,
      "Timeout": 5992,
      "dirs": 5993,
      "Ġabsolute": 5994,
      "Ġautomatic": 5995,
      "IOWrapper": 5996,
      "ud": 5997,
      "xim": 5998,
      "ĠSHI": 5999,
      "**/": 6000,
      "().__": 6001,
      "img": 6002,
      "ICODE": 6003,
      "Ġleading": 6004,
      "Ġenough": 6005,
      "ĠRead": 6006,
      "aving": 6007,
      "BULATION": 6008,
      "namespace": 6009,
      "osen": 6010,
      "Character": 6011,
      "MAPP": 6012,
      "Ġanswer": 6013,
      "Output": 6014,
      "ĠTABULATION": 6015,
      "FORMAT": 6016,
      "ithmetic": 6017,
      "ĠSHIFT": 6018,
      "'\",": 6019,
      "Bi": 6020,
      "Open": 6021,
      "uv": 6022,
      "warnings": 6023,
      "zu": 6024,
      "Ġtab": 6025,
      "Ġspeed": 6026,
      "Ġwarning": 6027,
      "ĠLua": 6028,
      "ĠNEXT": 6029,
      "ERSCRIPT": 6030,
      "Ġdot": 6031,
      "ighest": 6032,
      "START": 6033,
      "ĠMax": 6034,
      "ĠOpen": 6035,
      "oose": 6036,
      "Errno": 6037,
      "([-": 6038,
      "OWLED": 6039,
      "Modules": 6040,
      "ĠACKN": 6041,
      "Ġencodings": 6042,
      "Encoding": 6043,
      "Color": 6044,
      "ĠParse": 6045,
      "Ġapproach": 6046,
      "ĠDefine": 6047,
      "uplicate": 6048,
      "Digit": 6049,
      "ĠSUPERSCRIPT": 6050,
      "OWLEDGE": 6051,
      "ĠACKNOWLEDGE": 6052,
      "'])": 6053,
      "Ac": 6054,
      "CIAL": 6055,
      "FMT": 6056,
      "HEN": 6057,
      "Right": 6058,
      "[(": 6059,
      "]),": 6060,
      "cies": 6061,
      "ucl": 6062,
      "ctl": 6063,
      "Ġpadding": 6064,
      "ĠĠĠĠĠĠĠĠĠĠĠĠĠĠĠĠĠĠĠĠĠĠĠĠĠĠĠĠĠĠĠĠĠĠĠĠĠĠĠ": 6065,
      "Ġattemp": 6066,
      "character": 6067,
      "scrib": 6068,
      "Unsigned": 6069,
      "ĠluaK": 6070,
      "EXPORT": 6071,
      "999": 6072,
      "Ġformatted": 6073,
      "Ġblocking": 6074,
      "blocking": 6075,
      "Ġcommands": 6076,
      "IFY": 6077,
      "metadata": 6078,
      "histogram": 6079,
      "ITERAL": 6080,
      "ĠFEED": 6081,
      ")\"": 6082,
      "=_": 6083,
      "CACHE": 6084,
      "Esc": 6085,
      "Wait": 6086,
      "]+": 6087,
      "closure": 6088,
      "endian": 6089,
      "PyOS": 6090,
      "ics": 6091,
      "Ġ'#": 6092,
      "ectors": 6093,
      "ĠSpec": 6094,
      "Ġ18": 6095,
      "Ġvis": 6096,
      "ĠCHECK": 6097,
      "ialog": 6098,
      "ĠĠĠĠĠĠĠĠĠĠĠĠĠĠĠĠĠĠĠĠĠĠĠĠĠĠĠĠĠĠĠĠĠĠĠĠĠĠĠĠ": 6099,
      "Ġlonger": 6100,
      "Ġsubtree": 6101,
      "Ġmodel": 6102,
      "Ġequals": 6103,
      "[:-": 6104,
      "ĠHANDLE": 6105,
      "tasks": 6106,
      "cntl": 6107,
      "Short": 6108,
      "Ġfeatures": 6109,
      "Ġimg": 6110,
      "ĠRuntimeError": 6111,
      "Ġ'/'": 6112,
      "Ġguarante": 6113,
      "abstractmethod": 6114,
      "ĠHowever": 6115,
      "LOBAL": 6116,
      "Ssize": 6117,
      "TIN": 6118,
      "eo": 6119,
      "multi": 6120,
      "xed": 6121,
      "Ġincremental": 6122,
      "ummy": 6123,
      "ATCH": 6124,
      "concurrent": 6125,
      "Request": 6126,
      "Ġproto": 6127,
      "ĠHYP": 6128,
      "datastructures": 6129,
      "Ġbuiltin": 6130,
      "Ġbuckets": 6131,
      "ĠĠĠĠĠĠĠĠĠĠĠĠĠĠĠĠĠĠĠĠĠĠĠĠĠĠĠĠĠĠĠĠĠĠĠĠĠ": 6132,
      "ISSION": 6133,
      "Ġexpand": 6134,
      "Ġimplemented": 6135,
      "Ġsupports": 6136,
      "Ġmanager": 6137,
      "4567": 6138,
      "ESTION": 6139,
      "SMISSION": 6140,
      "âĶĢ": 6141,
      "ĠTRANSMISSION": 6142,
      "ĠHYPHEN": 6143,
      "Equal": 6144,
      "Msg": 6145,
      "Window": 6146,
      "nil": 6147,
      "Ġtak": 6148,
      "Ġremainder": 6149,
      "Ġecache": 6150,
      "Ġlay": 6151,
      "uling": 6152,
      "Ġvari": 6153,
      "isting": 6154,
      "Ġthreshold": 6155,
      "Ġ28": 6156,
      "ignore": 6157,
      "RACTION": 6158,
      "apply": 6159,
      "tests": 6160,
      "ixel": 6161,
      "Ġperiod": 6162,
      "filenames": 6163,
      "Ġtrailing": 6164,
      "FileIO": 6165,
      "Encode": 6166,
      "Ġszind": 6167,
      "Ġgoal": 6168,
      "\"],": 6169,
      "ELEMENT": 6170,
      "FREE": 6171,
      "IAN": 6172,
      "Mode": 6173,
      "]->": 6174,
      "_{": 6175,
      "pose": 6176,
      "two": 6177,
      "watcher": 6178,
      "}{": 6179,
      "report": 6180,
      "Ġawait": 6181,
      "Ġfit": 6182,
      "Ġregex": 6183,
      "PyStatus": 6184,
      "Ġsco": 6185,
      "Ġmulti": 6186,
      "ĠTE": 6187,
      "changed": 6188,
      "Ġder": 6189,
      "ĠDB": 6190,
      "Ġdetails": 6191,
      "Ġmemo": 6192,
      "Ġrax": 6193,
      "SILON": 6194,
      "Ġgets": 6195,
      "Ġgenerator": 6196,
      "ĠSecurity": 6197,
      "Ġthreading": 6198,
      "OSError": 6199,
      "Collection": 6200,
      "Ġtriangle": 6201,
      "WAIT": 6202,
      "Ġperformance": 6203,
      "Ġtkinter": 6204,
      "CHECK": 6205,
      "fds": 6206,
      "got": 6207,
      "req": 6208,
      "regex": 6209,
      "star": 6210,
      "Ġfactors": 6211,
      "Ġpid": 6212,
      "Ġ\"\")": 6213,
      "Ġbasic": 6214,
      "Ġ'<<": 6215,
      "Ġmutable": 6216,
      "ĠLinkedList": 6217,
      "idual": 6218,
      "REAT": 6219,
      "Ġrate": 6220,
      "exists": 6221,
      "Ġshortest": 6222,
      "Ġsubstit": 6223,
      "Ġextract": 6224,
      "objects": 6225,
      "Ġscale": 6226,
      "Ġassume": 6227,
      "labels": 6228,
      "Chars": 6229,
      "Ġpolynomial": 6230,
      "Ġvars": 6231,
      "Hello": 6232,
      "Ġdeleted": 6233,
      "multibytecodec": 6234,
      "064": 6235,
      "pat": 6236,
      "around": 6237,
      "Ġcv": 6238,
      "ane": 6239,
      "dient": 6240,
      "Ġconvex": 6241,
      "ĠMutable": 6242,
      "ĠWikipedia": 6243,
      "SetError": 6244,
      "cached": 6245,
      "polation": 6246,
      "Ġ128": 6247,
      "ĠParameters": 6248,
      "compareTo": 6249,
      "Child": 6250,
      "Ġmutex": 6251,
      "AVA": 6252,
      "71": 6253,
      "GAR": 6254,
      "SON": 6255,
      "SIGN": 6256,
      "auth": 6257,
      "clock": 6258,
      "card": 6259,
      "grow": 6260,
      "lator": 6261,
      "Ġ*_": 6262,
      "sensitive": 6263,
      "Ġctypes": 6264,
      "peek": 6265,
      "setup": 6266,
      "parator": 6267,
      "ĠFRACTION": 6268,
      "aclass": 6269,
      "Ġdetect": 6270,
      "Ġruntime": 6271,
      "Ġproxy": 6272,
      "ĠOp": 6273,
      "Ġadjacent": 6274,
      "Header": 6275,
      "encoded": 6276,
      "Ġrequire": 6277,
      "ĠAPIs": 6278,
      "ĠCharUtils": 6279,
      "AddInt": 6280,
      "Ġsym": 6281,
      "Ġgroups": 6282,
      "Ġkwds": 6283,
      "PACK": 6284,
      "GEN": 6285,
      "timer": 6286,
      "PyFunction": 6287,
      "deferred": 6288,
      "Ġsto": 6289,
      "ĠSimple": 6290,
      "INDEX": 6291,
      "cli": 6292,
      "Ġcounts": 6293,
      "accum": 6294,
      "ĠPER": 6295,
      "ĠMin": 6296,
      "ĠMain": 6297,
      "tach": 6298,
      "pai": 6299,
      "Ġloader": 6300,
      "SEQ": 6301,
      "UMP": 6302,
      "apture": 6303,
      "ĠSOFT": 6304,
      "postfork": 6305,
      "RedisModule": 6306,
      "Ġregistered": 6307,
      ".')": 6308,
      "Ali": 6309,
      "EW": 6310,
      "Fix": 6311,
      "GA": 6312,
      "SIG": 6313,
      "fit": 6314,
      "macro": 6315,
      "algorithm": 6316,
      "Ġslab": 6317,
      "lobj": 6318,
      "ĠTr": 6319,
      ")).": 6320,
      "ĠDon": 6321,
      "Ġleaf": 6322,
      "Ġweek": 6323,
      "trunc": 6324,
      "Console": 6325,
      "Ġpai": 6326,
      "subclass": 6327,
      "Ġseries": 6328,
      "Ġdefines": 6329,
      "Ġdestroy": 6330,
      "ĠQUESTION": 6331,
      "tkapp": 6332,
      "Ġplt": 6333,
      "boundary": 6334,
      "Ġwrapped": 6335,
      "Ġquicklist": 6336,
      "Ġcombinations": 6337,
      "Ġcomparis": 6338,
      "Ġmachine": 6339,
      "bottom": 6340,
      "ipe": 6341,
      "Ġcfg": 6342,
      "Ġfamily": 6343,
      "ĠPyBUF": 6344,
      "Ġ/=": 6345,
      "INET": 6346,
      "usr": 6347,
      "##_": 6348,
      "statement": 6349,
      "forward": 6350,
      "ĠHI": 6351,
      "('-": 6352,
      "ĠRecursive": 6353,
      "ROKE": 6354,
      "ĠInvalid": 6355,
      "030": 6356,
      "quired": 6357,
      "Ġdecla": 6358,
      "redisContext": 6359,
      "ALLOC": 6360,
      "sidered": 6361,
      "ĠSTROKE": 6362,
      "LUAI": 6363,
      "Ġfeature": 6364,
      "original": 6365,
      "Ġplaintext": 6366,
      "LETE": 6367,
      "Flags": 6368,
      "IOC": 6369,
      "Mapping": 6370,
      "eset": 6371,
      "gt": 6372,
      "none": 6373,
      "when": 6374,
      "Ġtre": 6375,
      "Ġinner": 6376,
      "Ġreader": 6377,
      "Ġnb": 6378,
      "Ġear": 6379,
      "Ġemap": 6380,
      "Ġvb": 6381,
      "Ġintern": 6382,
      "Ġdy": 6383,
      "ubble": 6384,
      "ĠMEDIUM": 6385,
      "Ġresulting": 6386,
      "Ġshard": 6387,
      "Ġoutside": 6388,
      "Ġsuppli": 6389,
      "while": 6390,
      "BREAK": 6391,
      "Ġmacros": 6392,
      "Ġ')'": 6393,
      "NEW": 6394,
      "GNUC": 6395,
      "LF": 6396,
      "MATION": 6397,
      "Matches": 6398,
      "Slice": 6399,
      "TL": 6400,
      "emp": 6401,
      "lv": 6402,
      "raries": 6403,
      "xor": 6404,
      "inherit": 6405,
      "arator": 6406,
      "Ġfs": 6407,
      "Ġpow": 6408,
      "Ġmis": 6409,
      "ĠSince": 6410,
      "Ġla": 6411,
      "ĠTODO": 6412,
      "Ġ_,": 6413,
      "setattr": 6414,
      "Ġrather": 6415,
      "ĠBe": 6416,
      "ĠMove": 6417,
      "Ġengine": 6418,
      "Internal": 6419,
      "Ġsupplier": 6420,
      "logical": 6421,
      "Defrag": 6422,
      "Ġordering": 6423,
      "sume": 6424,
      "Interface": 6425,
      "redisAsync": 6426,
      "maths": 6427,
      "ĠdstPos": 6428,
      "Ġpolicy": 6429,
      "Ġ'-'": 6430,
      "ĠStreamWriter": 6431,
      "Ġrepeat": 6432,
      "Ġhelper": 6433,
      "WAR": 6434,
      "family": 6435,
      "alanced": 6436,
      "ards": 6437,
      "Ġcalendar": 6438,
      "edded": 6439,
      "ĠTry": 6440,
      "ĠAR": 6441,
      "asing": 6442,
      "strcasecmp": 6443,
      "ryption": 6444,
      "').": 6445,
      "reatest": 6446,
      "condition": 6447,
      "Ġvery": 6448,
      "anner": 6449,
      "Ġsentinel": 6450,
      "ĠCOMMA": 6451,
      "Ġdelimiter": 6452,
      "Ġparams": 6453,
      "(?": 6454,
      "101": 6455,
      "FE": 6456,
      "Wide": 6457,
      "elocity": 6458,
      "filer": 6459,
      "stra": 6460,
      "ĠPyInterpreterState": 6461,
      "ĠCLIENT": 6462,
      "Ġsear": 6463,
      "mpleted": 6464,
      "reading": 6465,
      "SIMPLE": 6466,
      "msvcrt": 6467,
      "USER": 6468,
      "PyUnicodeWriter": 6469,
      "Ġlinenoise": 6470,
      "CLOSE": 6471,
      "Manager": 6472,
      "10000": 6473,
      "BA": 6474,
      "Fa": 6475,
      "fraction": 6476,
      "mac": 6477,
      "Ġinclusive": 6478,
      "loss": 6479,
      "direction": 6480,
      "(\"\",": 6481,
      "quares": 6482,
      "project": 6483,
      "vals": 6484,
      "Types": 6485,
      "StringIO": 6486,
      "049": 6487,
      "RIB": 6488,
      "Build": 6489,
      "Ġ60": 6490,
      "FUNCTION": 6491,
      "Ġpatterns": 6492,
      "bitmap": 6493,
      "Ġoffsetof": 6494,
      "groups": 6495,
      "DateFormat": 6496,
      "istics": 6497,
      "Ġdenominator": 6498,
      "anchor": 6499,
      "Ġbehavior": 6500,
      "ANNOTATE": 6501,
      "2000": 6502,
      "RON": 6503,
      "WIT": 6504,
      "tls": 6505,
      "Ġtitle": 6506,
      "sen": 6507,
      "alias": 6508,
      "Ġincluding": 6509,
      "Ġpool": 6510,
      "Ġoc": 6511,
      "ulate": 6512,
      "Ġrv": 6513,
      "Ġascii": 6514,
      "Ġprog": 6515,
      "Ġprotected": 6516,
      "Ġ\\'": 6517,
      "ĠUINT": 6518,
      "perm": 6519,
      "SIX": 6520,
      "Ġsha": 6521,
      "...)": 6522,
      "SetFrom": 6523,
      "compiler": 6524,
      "ifies": 6525,
      "funcs": 6526,
      "luaL": 6527,
      "Ġtraversal": 6528,
      "ĠUnix": 6529,
      "Ġprocessing": 6530,
      "CEPT": 6531,
      "Ġsomething": 6532,
      "processor": 6533,
      "Ġentity": 6534,
      "Ġarbit": 6535,
      "Ġaccessible": 6536,
      "Ġreplacement": 6537,
      "Track": 6538,
      "MUTEX": 6539,
      "lapsed": 6540,
      "PREFIX": 6541,
      "Distance": 6542,
      "sv": 6543,
      "ws": 6544,
      "Ġview": 6545,
      "ilds": 6546,
      "()))": 6547,
      "olds": 6548,
      "ĠAT": 6549,
      "Ġcoordinates": 6550,
      "ackground": 6551,
      "ĠEvent": 6552,
      "DENT": 6553,
      "buckets": 6554,
      "ĠVUL": 6555,
      "('\\": 6556,
      ").__": 6557,
      "Ġzmalloc": 6558,
      "iterative": 6559,
      "ĠSegment": 6560,
      "checked": 6561,
      "Ġformatter": 6562,
      "ificate": 6563,
      "ĠredisLib": 6564,
      "ĠListNode": 6565,
      "Ġretval": 6566,
      "Ġclients": 6567,
      "Ġlabels": 6568,
      "Content": 6569,
      "correct": 6570,
      "Ġstdout": 6571,
      "ĠIterator": 6572,
      "Ġemitter": 6573,
      "ĠIncrementalDecoder": 6574,
      "ĠIncrementalEncoder": 6575,
      "<?>": 6576,
      "Ġparticular": 6577,
      "ĠVULGAR": 6578,
      "Found": 6579,
      "Pe": 6580,
      "Visit": 6581,
      "cfg": 6582,
      "ulo": 6583,
      "Ġnth": 6584,
      "Ġ\"\".": 6585,
      "Ġmer": 6586,
      "__()": 6587,
      "ĠAssertionError": 6588,
      "TERN": 6589,
      "parameters": 6590,
      "Ġunless": 6591,
      "ĠGiven": 6592,
      "Ġ48": 6593,
      "mplate": 6594,
      "Ġcollect": 6595,
      "USH": 6596,
      "missing": 6597,
      "NoMemory": 6598,
      "CLAMATION": 6599,
      "Ġreduce": 6600,
      "ĠWSAE": 6601,
      "UGEPAGE": 6602,
      "ĠCalculates": 6603,
      "Ġoccurs": 6604,
      "CArray": 6605,
      "PL": 6606,
      "oom": 6607,
      "water": 6608,
      "Ġcross": 6609,
      "PyEval": 6610,
      "ĠSM": 6611,
      "tered": 6612,
      "ĠTra": 6613,
      "Ġanet": 6614,
      "lash": 6615,
      "chain": 6616,
      "ĠAS": 6617,
      "ĠField": 6618,
      "external": 6619,
      "scii": 6620,
      "compat": 6621,
      "posix": 6622,
      "Ġstates": 6623,
      "specific": 6624,
      "INFINIT": 6625,
      "writing": 6626,
      "Ġencrypted": 6627,
      "ĠEXCLAMATION": 6628,
      "Ġcenter": 6629,
      "tracking": 6630,
      "Ġschedule": 6631,
      "Det": 6632,
      "Mo": 6633,
      "OO": 6634,
      "OUND": 6635,
      "Sy": 6636,
      "[^": 6637,
      "cipher": 6638,
      "swap": 6639,
      "eries": 6640,
      "Ġip": 6641,
      "Ġcmp": 6642,
      "Ġoct": 6643,
      "Ġ'--": 6644,
      "Ġws": 6645,
      "ĠPyThread": 6646,
      "Ġvc": 6647,
      "ĠTIOC": 6648,
      "Ġdump": 6649,
      "ITOR": 6650,
      "Ġ201": 6651,
      "Ġinputs": 6652,
      "LOOP": 6653,
      "Ġlowest": 6654,
      "Ġfollows": 6655,
      "Ġentire": 6656,
      "STRINGLIB": 6657,
      "translate": 6658,
      "Ġagainst": 6659,
      "LOCALE": 6660,
      "Cannot": 6661,
      "ITESPACE": 6662,
      ",\\": 6663,
      ">\\": 6664,
      "LOW": 6665,
      "Tab": 6666,
      "ius": 6667,
      "kg": 6668,
      "naps": 6669,
      "ratio": 6670,
      "sup": 6671,
      "tell": 6672,
      "ĠCur": 6673,
      "Ġconsidered": 6674,
      "cover": 6675,
      "Ġchr": 6676,
      "Recursive": 6677,
      "ops": 6678,
      "Ġmedian": 6679,
      "ORMA": 6680,
      "ĉĉĉĠĠĠ": 6681,
      "Ġasc": 6682,
      "acters": 6683,
      "ĠStart": 6684,
      "Ġ%.": 6685,
      "Ġpredict": 6686,
      "Ġspecify": 6687,
      "newline": 6688,
      "044": 6689,
      "HTTP": 6690,
      "Values": 6691,
      "Ġtransp": 6692,
      "oked": 6693,
      "Ġtokenize": 6694,
      "Ġpoly": 6695,
      "TextIOWrapper": 6696,
      "ĠTimeZone": 6697,
      "Ġdescription": 6698,
      "Ġreceived": 6699,
      "napsack": 6700,
      "(\\": 6701,
      "Pack": 6702,
      "elem": 6703,
      "lus": 6704,
      "Ġts": 6705,
      "details": 6706,
      "Ġcleanup": 6707,
      "threshold": 6708,
      "peat": 6709,
      "MACRO": 6710,
      "codes": 6711,
      "ubsub": 6712,
      "Insert": 6713,
      "ACT": 6714,
      "fixer": 6715,
      "Ġmessages": 6716,
      "Ġlocals": 6717,
      "Ġtemporary": 6718,
      "NODE": 6719,
      "Ġpassword": 6720,
      "Ġsigned": 6721,
      "ATEG": 6722,
      "Ġsdscat": 6723,
      "CRT": 6724,
      "Ġciphertext": 6725,
      "errupted": 6726,
      "BINARY": 6727,
      "Assert": 6728,
      "CPYTHON": 6729,
      "Sys": 6730,
      "]*": 6731,
      "blob": 6732,
      "job": 6733,
      "norm": 6734,
      "rstrip": 6735,
      "Ġwrong": 6736,
      "Ġmac": 6737,
      "ĠCOP": 6738,
      "gettext": 6739,
      "counts": 6740,
      "ĠFuture": 6741,
      "usable": 6742,
      "Ġseen": 6743,
      "erson": 6744,
      "Ġaccum": 6745,
      "Ġscheme": 6746,
      "ĠhashCode": 6747,
      "Ġbetter": 6748,
      "Ġfactorial": 6749,
      "auto": 6750,
      "Ġnested": 6751,
      "WHITESPACE": 6752,
      "REATER": 6753,
      "ĠCOPY": 6754,
      "Bool": 6755,
      "Raise": 6756,
      "gacy": 6757,
      "lish": 6758,
      "oice": 6759,
      "ration": 6760,
      "slice": 6761,
      "}/": 6762,
      "Ġflush": 6763,
      "Ġreached": 6764,
      "Ġslots": 6765,
      "anet": 6766,
      "unregister": 6767,
      "Ġ'?": 6768,
      "ĠSIG": 6769,
      "rival": 6770,
      "Ġdue": 6771,
      "setdefault": 6772,
      "ĠDO": 6773,
      "hecked": 6774,
      "linear": 6775,
      "Ġxml": 6776,
      "Ġadding": 6777,
      "unchecked": 6778,
      "SIZEOF": 6779,
      "Ġperformed": 6780,
      "Ġmemset": 6781,
      "summary": 6782,
      "HashMap": 6783,
      "alencoder": 6784,
      "Ġcoroutine": 6785,
      "PROF": 6786,
      "Ġchunks": 6787,
      "Weak": 6788,
      "Ġstdin": 6789,
      "finish": 6790,
      "Ġbeginning": 6791,
      "FromStringAndSize": 6792,
      "ĠValidate": 6793,
      "hello": 6794,
      "\"])": 6795,
      "GLOBAL": 6796,
      "MSC": 6797,
      "Same": 6798,
      "save": 6799,
      "tot": 6800,
      "vol": 6801,
      "ĠORD": 6802,
      "Ġfig": 6803,
      "Ġflow": 6804,
      "Ġfprintf": 6805,
      "ĠNFA": 6806,
      "ĠSkip": 6807,
      "ĠCan": 6808,
      "setstate": 6809,
      "UNICODE": 6810,
      "document": 6811,
      "Ġcompressed": 6812,
      "Ġcols": 6813,
      "library": 6814,
      "Ġrepla": 6815,
      "ĠCallable": 6816,
      "generated": 6817,
      "collections": 6818,
      "ĠHello": 6819,
      "Ġmetadata": 6820,
      "ĠIPv": 6821,
      "ITORING": 6822,
      "DOUBLE": 6823,
      "cpython": 6824,
      "handl": 6825,
      "Ġcau": 6826,
      "Ġpc": 6827,
      "unded": 6828,
      "Ġ']": 6829,
      "ĠLESS": 6830,
      "Ġgen": 6831,
      "ATIVE": 6832,
      "Stop": 6833,
      "lip": 6834,
      "preserve": 6835,
      "strcmp": 6836,
      "ominal": 6837,
      "ĠGREATER": 6838,
      "series": 6839,
      "Ġtimestamp": 6840,
      "ĠREVER": 6841,
      "ĠredisAsync": 6842,
      "Overflow": 6843,
      "decoded": 6844,
      "Ġwaiter": 6845,
      "PROLOG": 6846,
      "Ġdeclar": 6847,
      "Ġtyping": 6848,
      "StructSequence": 6849,
      "Ġ':'": 6850,
      ")((": 6851,
      "Ascii": 6852,
      "Cap": 6853,
      "Dialog": 6854,
      "WSA": 6855,
      "cript": 6856,
      "hidden": 6857,
      "attribute": 6858,
      "Ġslot": 6859,
      "Ġwit": 6860,
      "otent": 6861,
      "0001": 6862,
      "ĠAss": 6863,
      "Ġdialog": 6864,
      "ĠBY": 6865,
      "STD": 6866,
      "DEN": 6867,
      "Ġ/**<": 6868,
      "payload": 6869,
      "soft": 6870,
      "Ġones": 6871,
      "weak": 6872,
      "MPD": 6873,
      "ĠdictEntry": 6874,
      "versions": 6875,
      "Log": 6876,
      "cycle": 6877,
      "5555": 6878,
      "before": 6879,
      "psz": 6880,
      "Ġcreates": 6881,
      "waiting": 6882,
      "regentry": 6883,
      "Ġvarious": 6884,
      "Ġvolatile": 6885,
      "Vectorcall": 6886,
      "Ġsupplied": 6887,
      "Ġarbitrary": 6888,
      "Ġascending": 6889,
      "PA": 6890,
      "Push": 6891,
      "VC": 6892,
      "]):": 6893,
      "gray": 6894,
      "rv": 6895,
      "analy": 6896,
      "ĠSY": 6897,
      "Ġdfs": 6898,
      "ĠAuthor": 6899,
      "Ġchosen": 6900,
      "Ġdiag": 6901,
      "ĠBACK": 6902,
      "example": 6903,
      "resses": 6904,
      "Ġenabled": 6905,
      "Ġshape": 6906,
      "Ġcomparable": 6907,
      "rena": 6908,
      "041": 6909,
      "Ġperfect": 6910,
      "EXP": 6911,
      "Ġtrain": 6912,
      "Ġstreamwriter": 6913,
      "Ġstreamreader": 6914,
      "ĠProblem": 6915,
      "054": 6916,
      "Ġinstall": 6917,
      "Ġways": 6918,
      "CodecInfo": 6919,
      "perties": 6920,
      "Ġsockaddr": 6921,
      "DBM": 6922,
      "ĠaddReplyError": 6923,
      "Ġsqlite": 6924,
      "GROUPS": 6925,
      "Ġzipmap": 6926,
      "Ġmodify": 6927,
      ">.": 6928,
      "NORMA": 6929,
      "calloc": 6930,
      "score": 6931,
      "ured": 6932,
      "Ġrio": 6933,
      "Ġtv": 6934,
      "itoring": 6935,
      "PyImport": 6936,
      "Ġsb": 6937,
      "rogate": 6938,
      "defrag": 6939,
      "entries": 6940,
      "ĠSy": 6941,
      "inet": 6942,
      "converter": 6943,
      "ĠDis": 6944,
      "ĠDiff": 6945,
      "quick": 6946,
      "ĠPR": 6947,
      "ARCH": 6948,
      "Ġ36": 6949,
      "ĠHandle": 6950,
      "pagate": 6951,
      "Ġgetregentry": 6952,
      "Ġmatched": 6953,
      "043": 6954,
      "binascii": 6955,
      "SIZES": 6956,
      "Ġwhence": 6957,
      "Ġallocator": 6958,
      "Ġinserted": 6959,
      "Ġcreating": 6960,
      "Ġrequests": 6961,
      "Ġapproxim": 6962,
      "ĠInternal": 6963,
      "descr": 6964,
      "Ġincrementalencoder": 6965,
      "qualname": 6966,
      "Ġlittle": 6967,
      "Ġincrementaldecoder": 6968,
      "projecteuler": 6969,
      ")/": 6970,
      "MB": 6971,
      "PHA": 6972,
      "RIGHT": 6973,
      "Watch": 6974,
      "cut": 6975,
      "hull": 6976,
      "king": 6977,
      "pick": 6978,
      "uc": 6979,
      "Ġtstate": 6980,
      "Ġtrig": 6981,
      "PyMem": 6982,
      "Ġsat": 6983,
      "adapt": 6984,
      "istent": 6985,
      "Ġthough": 6986,
      "emb": 6987,
      "Include": 6988,
      "Ġjump": 6989,
      "ĠUtil": 6990,
      "ĠURL": 6991,
      "Ġenable": 6992,
      "ISK": 6993,
      "TimeZone": 6994,
      "ĠdictGet": 6995,
      "Ġiterations": 6996,
      "FAIL": 6997,
      "decmap": 6998,
      "policy": 6999,
      "Ġversions": 7000,
      "orityQueue": 7001,
      "CRON": 7002,
      "LUSTER": 7003,
      "Ġsymbols": 7004,
      "Ġsurface": 7005,
      "Ġbecomes": 7006,
      "âĶĢâĶĢ": 7007,
      "/****************************************************************************": 7008,
      "Fast": 7009,
      "Macro": 7010,
      "UD": 7011,
      "ZERO": 7012,
      "]]:": 7013,
      "font": 7014,
      "speed": 7015,
      "Ġtw": 7016,
      "atural": 7017,
      "deep": 7018,
      "arsh": 7019,
      "->_": 7020,
      "union": 7021,
      "Ġ'='": 7022,
      "Ġiso": 7023,
      "ĠCleanup": 7024,
      "coordinate": 7025,
      "Ġnotify": 7026,
      "Resource": 7027,
      "Ġdimension": 7028,
      "ARGE": 7029,
      "builder": 7030,
      "ĠVer": 7031,
      "ĠVector": 7032,
      "ĠWITNESS": 7033,
      "STRY": 7034,
      "Ġexpect": 7035,
      "EXEC": 7036,
      "Ġdecrypt": 7037,
      "Ġallocate": 7038,
      "capacity": 7039,
      "eks": 7040,
      "patterns": 7041,
      "Ġfinish": 7042,
      "ampwidth": 7043,
      "GISTRY": 7044,
      "Ġ'*'": 7045,
      "Ġcompression": 7046,
      "Ġautomatically": 7047,
      "Alias": 7048,
      "CD": 7049,
      "DOWN": 7050,
      "Failable": 7051,
      "Main": 7052,
      "hat": 7053,
      "must": 7054,
      "Ġreversed": 7055,
      "Ġ#####": 7056,
      "Ġ'',": 7057,
      "ĠSDS": 7058,
      "Ġlp": 7059,
      "etween": 7060,
      "Ġ[],": 7061,
      "addstatus": 7062,
      "Ġweak": 7063,
      "ĠReplace": 7064,
      "idean": 7065,
      "ĠInsert": 7066,
      "features": 7067,
      "literal": 7068,
      "042": 7069,
      "Cost": 7070,
      "collect": 7071,
      "Ġbinascii": 7072,
      "OPCODE": 7073,
      "special": 7074,
      "Ġsystems": 7075,
      "ĠQu": 7076,
      "tracemalloc": 7077,
      "Ġexecute": 7078,
      "Ġencrypt": 7079,
      "Ġrespect": 7080,
      "Ġdescrib": 7081,
      "PREC": 7082,
      "ĠHelper": 7083,
      "allowed": 7084,
      "uclidean": 7085,
      ":-": 7086,
      "Arena": 7087,
      "Bulk": 7088,
      "Cal": 7089,
      "JISX": 7090,
      "MODE": 7091,
      "NING": 7092,
      "`.": 7093,
      "hisds": 7094,
      "nframes": 7095,
      "pla": 7096,
      "rdb": 7097,
      "warning": 7098,
      "rer": 7099,
      "oriz": 7100,
      "arily": 7101,
      "Ġsynchron": 7102,
      "Ġstderr": 7103,
      "ĠSUB": 7104,
      "ĠTHE": 7105,
      "ĠAbstract": 7106,
      "getargs": 7107,
      "Ġusu": 7108,
      "cons": 7109,
      "quared": 7110,
      "preters": 7111,
      "Inclusive": 7112,
      "pawn": 7113,
      "creasing": 7114,
      "Ġnumerator": 7115,
      "QUIRE": 7116,
      "ibling": 7117,
      "Ġcomb": 7118,
      "TRY": 7119,
      "latin": 7120,
      "multiply": 7121,
      "writable": 7122,
      "editwin": 7123,
      "ĠIterable": 7124,
      "Ġcomponents": 7125,
      "ĠHTTP": 7126,
      "Ġexplicitly": 7127,
      "Feature": 7128,
      "DT": 7129,
      "EK": 7130,
      "cert": 7131,
      "dup": 7132,
      "oh": 7133,
      "sur": 7134,
      "Ġtimer": 7135,
      "arrier": 7136,
      "Ġsink": 7137,
      "Ġ\"--": 7138,
      "rop": 7139,
      "roid": 7140,
      "olver": 7141,
      "location": 7142,
      "Ġmaster": 7143,
      "Ġzeros": 7144,
      "CTF": 7145,
      "INTR": 7146,
      "Selector": 7147,
      "ĠMACRON": 7148,
      "ĠNUMBER": 7149,
      "Ġrotate": 7150,
      "Ġutility": 7151,
      "OTHER": 7152,
      "AddIntMacro": 7153,
      "SetFromErrno": 7154,
      "125": 7155,
      "AY": 7156,
      "BAD": 7157,
      "Button": 7158,
      "CRE": 7159,
      "Lookup": 7160,
      "Variable": 7161,
      "gers": 7162,
      "yy": 7163,
      "{}": 7164,
      "|'": 7165,
      "les": 7166,
      "Ġcnt": 7167,
      "Ġaverage": 7168,
      "Ġ\"/": 7169,
      "Ġbad": 7170,
      "Ġev": 7171,
      "()[": 7172,
      "(\"-": 7173,
      "ALI": 7174,
      "Ġresolve": 7175,
      "Exec": 7176,
      "Ġimports": 7177,
      "ROP": 7178,
      "Conf": 7179,
      "ĠĠĠĠĠĠĠĠĠĠĠĠĠĠĠĠĠĠĠĠĠĠĠĠĠĠĠĠĠĠĠĠĠĠĠĠĠĠĠĠĠĠ": 7180,
      "Ġextended": 7181,
      "substring": 7182,
      "ibonacci": 7183,
      "ToString": 7184,
      "Ġbutton": 7185,
      "train": 7186,
      "ĠDECLA": 7187,
      "PROT": 7188,
      "PROCESS": 7189,
      "what": 7190,
      "Level": 7191,
      "Weakref": 7192,
      "cancelled": 7193,
      "samples": 7194,
      "Ġlatency": 7195,
      "MONITORING": 7196,
      "Vertex": 7197,
      "visited": 7198,
      "inglyLinkedList": 7199,
      "orizont": 7200,
      "ĠDECLARE": 7201,
      "Div": 7202,
      "Final": 7203,
      "nable": 7204,
      "oi": 7205,
      "Ġinstruction": 7206,
      "Ġsa": 7207,
      "Ġssize": 7208,
      "meth": 7209,
      "ssion": 7210,
      "__',": 7211,
      "Ġ10000": 7212,
      "thp": 7213,
      "ĠAF": 7214,
      "ATTERN": 7215,
      "ĠDi": 7216,
      "ĠMapping": 7217,
      "Ġunknown": 7218,
      "Ġasdl": 7219,
      "Ġprogramming": 7220,
      "ĠRed": 7221,
      "ĠRun": 7222,
      "aren": 7223,
      "COUNT": 7224,
      "ĠREAD": 7225,
      "waiter": 7226,
      "ĠArg": 7227,
      "mitive": 7228,
      "ĠCharSet": 7229,
      "Ġrelroot": 7230,
      "Translator": 7231,
      "Tokenizer": 7232,
      "Ġcombination": 7233,
      "Ġmembers": 7234,
      "Ġblank": 7235,
      "bootstrap": 7236,
      "Operation": 7237,
      "TRACE": 7238,
      "ATTRIB": 7239,
      "GENER": 7240,
      "Detail": 7241,
      "(\"\"": 7242,
      "9049": 7243,
      "Bound": 7244,
      "RC": 7245,
      "Ġatexit": 7246,
      "inner": 7247,
      "Ġturtle": 7248,
      "security": 7249,
      "enabled": 7250,
      "Ġae": 7251,
      "Ġ\"\",": 7252,
      "Ġ'$": 7253,
      "ĠNow": 7254,
      "ĠTrie": 7255,
      "ĠAOF": 7256,
      "igen": 7257,
      "ATURE": 7258,
      "RED": 7259,
      "ĠDate": 7260,
      "ĠBU": 7261,
      "ĠPol": 7262,
      "ĠEmpty": 7263,
      "ĠGIL": 7264,
      "Ġimportlib": 7265,
      "Ġ56": 7266,
      "ĠStringUtils": 7267,
      "Deque": 7268,
      "Ġzfree": 7269,
      "compute": 7270,
      "archive": 7271,
      "([])": 7272,
      "GetItem": 7273,
      "audioop": 7274,
      "Ġcached": 7275,
      "Ġactiv": 7276,
      "Ġ///<": 7277,
      "sired": 7278,
      "ĠAdds": 7279,
      "attro": 7280,
      "Ġwitness": 7281,
      "054013": 7282,
      "9049054013": 7283,
      "\"*": 7284,
      "/_": 7285,
      ":</": 7286,
      "Millis": 7287,
      "RP": 7288,
      "Rank": 7289,
      "Trace": 7290,
      "Vertices": 7291,
      "_,": 7292,
      "bisect": 7293,
      "sa": 7294,
      "rem": 7295,
      "ergy": 7296,
      "alk": 7297,
      "alle": 7298,
      "Ġrestore": 7299,
      "Ġshell": 7300,
      "Ġformula": 7301,
      "ĠAut": 7302,
      "Ġhighest": 7303,
      "named": 7304,
      "Ġordered": 7305,
      "Ġdelay": 7306,
      "Ġrhs": 7307,
      "using": 7308,
      "ĠMo": 7309,
      "ĠEP": 7310,
      "ĠEDATA": 7311,
      "ocation": 7312,
      "ĠUSE": 7313,
      "ĠGeo": 7314,
      "ROM": 7315,
      "Ġsubarray": 7316,
      "GetBuffer": 7317,
      "aux": 7318,
      "PyCode": 7319,
      "Ġpartial": 7320,
      "ĠZERO": 7321,
      "Ġoptimal": 7322,
      "ĠCompute": 7323,
      "CONST": 7324,
      "Ġsyntax": 7325,
      "sdslen": 7326,
      "HeapCType": 7327,
      "OrReply": 7328,
      "Ġgrammar": 7329,
      "WindowsConsole": 7330,
      "Ġneighbor": 7331,
      "Ġremote": 7332,
      "Ġliteral": 7333,
      ")+": 7334,
      "Be": 7335,
      "CAPI": 7336,
      "Ra": 7337,
      "Word": 7338,
      "aab": 7339,
      "ea": 7340,
      "guard": 7341,
      "pan": 7342,
      "saved": 7343,
      "wt": 7344,
      "inclusive": 7345,
      "remo": 7346,
      "Ġtot": 7347,
      "Ġtdata": 7348,
      "heses": 7349,
      "Ġvert": 7350,
      "Ġdefrag": 7351,
      "allback": 7352,
      "Ġ'\\\\'": 7353,
      "ĠFraction": 7354,
      "STACK": 7355,
      "prepare": 7356,
      "ĠEIGHT": 7357,
      "exe": 7358,
      "ird": 7359,
      "ĠVariable": 7360,
      "Convert": 7361,
      "SetItem": 7362,
      "Ġquant": 7363,
      "bytesio": 7364,
      "Ġmatcher": 7365,
      "Ġ---": 7366,
      "callbacks": 7367,
      "mission": 7368,
      "tainer": 7369,
      "generator": 7370,
      "letters": 7371,
      "Ġtermios": 7372,
      "KNOWN": 7373,
      "ĠSMTP": 7374,
      "/******************************************************************************/": 7375,
      ".*": 7376,
      ":%": 7377,
      "Mon": 7378,
      "Net": 7379,
      "UINT": 7380,
      "XY": 7381,
      "Zero": 7382,
      "hren": 7383,
      "inplace": 7384,
      "style": 7385,
      "heit": 7386,
      "Ġcategory": 7387,
      "Ġincrease": 7388,
      "PyInterpreter": 7389,
      "Ġsw": 7390,
      "Ġep": 7391,
      "ĠPyDateTime": 7392,
      "getstate": 7393,
      "RESS": 7394,
      "escap": 7395,
      "ĠModule": 7396,
      "Ġselection": 7397,
      "Ġunsorted": 7398,
      "ĠnewNode": 7399,
      "ĠOver": 7400,
      "found": 7401,
      "fileobj": 7402,
      "Ġstarted": 7403,
      "Ġcoll": 7404,
      "notate": 7405,
      "CAN": 7406,
      "Height": 7407,
      "Ġbitmap": 7408,
      "Ġruns": 7409,
      "days": 7410,
      "ĠSTOP": 7411,
      "ĠSome": 7412,
      "Ġhigher": 7413,
      "sym": 7414,
      "Prefix": 7415,
      "finity": 7416,
      "Ġconsider": 7417,
      "Ġevaluate": 7418,
      "PIPE": 7419,
      "ackgroundInitializer": 7420,
      "WindowsConsoleIO": 7421,
      "hrenheit": 7422,
      ">\"": 7423,
      "FLO": 7424,
      "LITERAL": 7425,
      "Op": 7426,
      "Part": 7427,
      "UCT": 7428,
      "await": 7429,
      "half": 7430,
      "ier": 7431,
      "nbits": 7432,
      "pip": 7433,
      "ufe": 7434,
      "hent": 7435,
      "ital": 7436,
      "Ġsin": 7437,
      "ancy": 7438,
      "throw": 7439,
      "Ġhour": 7440,
      "getter": 7441,
      "iles": 7442,
      "REG": 7443,
      "ely": 7444,
      "mach": 7445,
      "built": 7446,
      "Example": 7447,
      "Ġjisx": 7448,
      "Ġsetup": 7449,
      "Ġprior": 7450,
      "compressed": 7451,
      "csv": 7452,
      "AsUTF": 7453,
      "MODINIT": 7454,
      "sgi": 7455,
      "Ġverbosity": 7456,
      "aged": 7457,
      "Ġrequested": 7458,
      "metry": 7459,
      "Ġfallback": 7460,
      "Ġindicates": 7461,
      "ĠDecimal": 7462,
      "extensions": 7463,
      "ĠREVERSE": 7464,
      ")'": 7465,
      "Missing": 7466,
      "Optional": 7467,
      "Pool": 7468,
      "^'": 7469,
      "fil": 7470,
      "play": 7471,
      "pragma": 7472,
      "ĠER": 7473,
      "incr": 7474,
      "Ġam": 7475,
      "Ġable": 7476,
      "Ġfont": 7477,
      "Ġreally": 7478,
      "Ġ';": 7479,
      "ĠPySequence": 7480,
      "ĠSIX": 7481,
      "izable": 7482,
      "Ġconv": 7483,
      "MARK": 7484,
      "staticmethod": 7485,
      "Ġseek": 7486,
      "served": 7487,
      "ĠtimeZone": 7488,
      "Ġ{\"_": 7489,
      "039": 7490,
      "configure": 7491,
      "Ġbufsize": 7492,
      "Ġtokenizer": 7493,
      "oseconds": 7494,
      "replaceAll": 7495,
      "Ġmakes": 7496,
      "AGES": 7497,
      "Ġfixer": 7498,
      "Generator": 7499,
      "letter": 7500,
      "ABCDEF": 7501,
      "Ġcorrectly": 7502,
      "Ġmeaning": 7503,
      "install": 7504,
      "alpha": 7505,
      "SING": 7506,
      "crypt": 7507,
      "nor": 7508,
      "ĠINITIAL": 7509,
      "eration": 7510,
      "decompress": 7511,
      "Ġcare": 7512,
      "Ġcancelled": 7513,
      "Ġfactory": 7514,
      "Ġreach": 7515,
      "Ġsimp": 7516,
      "ceil": 7517,
      "Ġwt": 7518,
      "Ġvirtual": 7519,
      "Ġgr": 7520,
      "ifest": 7521,
      "atable": 7522,
      "MAN": 7523,
      "conv": 7524,
      "Ġdesired": 7525,
      "Executor": 7526,
      "],[": 7527,
      "Ġalign": 7528,
      "application": 7529,
      "Ġpayload": 7530,
      "StateException": 7531,
      "Unix": 7532,
      "Ġscr": 7533,
      "Problem": 7534,
      "Ġlikely": 7535,
      "Ġtrie": 7536,
      "encmap": 7537,
      "Cursor": 7538,
      "mediate": 7539,
      "hostname": 7540,
      "ntaxError": 7541,
      "enchmark": 7542,
      "Ġdivisor": 7543,
      "Ġaxis": 7544,
      "Ġnetwork": 7545,
      "ĠStep": 7546,
      "compatible": 7547,
      "ĠUtility": 7548,
      ",)": 7549,
      "Down": 7550,
      "GB": 7551,
      "GT": 7552,
      "It": 7553,
      "MM": 7554,
      "PUT": 7555,
      "TX": 7556,
      "]}": 7557,
      "_',": 7558,
      "delay": 7559,
      "Ġfrozen": 7560,
      "Ġnstime": 7561,
      "Ġ\").": 7562,
      "Ġmicro": 7563,
      "rac": 7564,
      "ĠNon": 7565,
      "ĠNew": 7566,
      "Ġls": 7567,
      "Ġcond": 7568,
      "ffi": 7569,
      "ALIGN": 7570,
      "ands": 7571,
      "Ġrand": 7572,
      "usize": 7573,
      "ĠENC": 7574,
      "ĠEuler": 7575,
      "until": 7576,
      "ĠUUID": 7577,
      "ĠState": 7578,
      "Ġenergy": 7579,
      "Ġbreaker": 7580,
      "Interrupt": 7581,
      "Functions": 7582,
      "GetModule": 7583,
      "subprocess": 7584,
      "ibly": 7585,
      "auss": 7586,
      "Ġcomments": 7587,
      "AsLong": 7588,
      "ĠIllegalStateException": 7589,
      "ĉĉĉĉĉĉĉ": 7590,
      "combin": 7591,
      "EventLoop": 7592,
      "Ġgood": 7593,
      "manager": 7594,
      "ĠThrown": 7595,
      "Ġplatforms": 7596,
      "Ġunittest": 7597,
      "icrosoft": 7598,
      "servations": 7599,
      "Ġworld": 7600,
      "ĠBITMAP": 7601,
      "SUPPORTED": 7602,
      "Ġ'+'": 7603,
      "ĠOpArg": 7604,
      "(%": 7605,
      "Copy": 7606,
      "Tk": 7607,
      "\\',": 7608,
      "but": 7609,
      "ome": 7610,
      "pool": 7611,
      "rm": 7612,
      "inline": 7613,
      "Ġimmutable": 7614,
      "Ġnor": 7615,
      "PyFrame": 7616,
      "PyPe": 7617,
      "Ġbor": 7618,
      "Ġest": 7619,
      "Ġemb": 7620,
      "ection": 7621,
      "Ġmenu": 7622,
      "ĠSto": 7623,
      "()}.": 7624,
      "Ġhard": 7625,
      "TERISK": 7626,
      "ĠEdge": 7627,
      "Ġseed": 7628,
      "Ġaddition": 7629,
      "Condition": 7630,
      "stringlib": 7631,
      "Ġcolors": 7632,
      "Ġpathname": 7633,
      "Ġsuite": 7634,
      "mitted": 7635,
      "Ġfilenames": 7636,
      "Ġincludes": 7637,
      "SHORT": 7638,
      "Alph": 7639,
      "ĠAnnotate": 7640,
      "Ġseparated": 7641,
      "Sorted": 7642,
      "Ġextensions": 7643,
      "ĠOUTCHAR": 7644,
      "Ġhandled": 7645,
      "PyPegen": 7646,
      "Fail": 7647,
      "IMP": 7648,
      "LARGE": 7649,
      "POP": 7650,
      "lst": 7651,
      "pad": 7652,
      "ĠĠĠĠčĊ": 7653,
      "rela": 7654,
      "Ġpotent": 7655,
      "Ġ\"\\\\": 7656,
      "Ġoccurred": 7657,
      "loader": 7658,
      "river": 7659,
      "ĠCalendar": 7660,
      "Ġconcurrent": 7661,
      "Ġdefining": 7662,
      "ĠBL": 7663,
      "predict": 7664,
      "ĠMIME": 7665,
      "ĠerrorTab": 7666,
      "Ġsubstring": 7667,
      "Ġallocations": 7668,
      "BITMAP": 7669,
      "primes": 7670,
      "Ġfreed": 7671,
      "Contiguous": 7672,
      "Ġescap": 7673,
      "Expat": 7674,
      "Ġquoted": 7675,
      "Ġdocumentation": 7676,
      "Ġhistory": 7677,
      "ESCAPE": 7678,
      "Ġtaken": 7679,
      "ĠCurrent": 7680,
      "NORMALI": 7681,
      ")],": 7682,
      "767": 7683,
      "DR": 7684,
      "Fi": 7685,
      "GONE": 7686,
      "MER": 7687,
      "OUS": 7688,
      "bins": 7689,
      "dss": 7690,
      "kId": 7691,
      "rsplit": 7692,
      "zlib": 7693,
      "zeros": 7694,
      "reap": 7695,
      "Ġclean": 7696,
      "ensure": 7697,
      "Ġfour": 7698,
      "Ġnorm": 7699,
      "Ġpurge": 7700,
      "ĠLine": 7701,
      "intset": 7702,
      "ĠNINE": 7703,
      "ĠSQLITE": 7704,
      "ulus": 7705,
      "ĠABC": 7706,
      "ifted": 7707,
      "ĠFIVE": 7708,
      "ĠPEP": 7709,
      "ĠMUL": 7710,
      "ircular": 7711,
      "activ": 7712,
      "forsecurity": 7713,
      "ĠConstructor": 7714,
      "logger": 7715,
      "Ġadapt": 7716,
      "nsure": 7717,
      "Ġequation": 7718,
      "splitlines": 7719,
      "prefixes": 7720,
      "Ġopened": 7721,
      "Ġsequences": 7722,
      "CallReply": 7723,
      "ĠSEVEN": 7724,
      "Address": 7725,
      "Ġmodulo": 7726,
      "Ġenter": 7727,
      "Ġterms": 7728,
      "Ġselector": 7729,
      "ĠAlso": 7730,
      "ATTRIBUTE": 7731,
      "ĠENCODING": 7732,
      "NORMALIZE": 7733,
      ":\")": 7734,
      ">:": 7735,
      "Com": 7736,
      "Pipe": 7737,
      "TED": 7738,
      "WE": 7739,
      "`,": 7740,
      "aded": 7741,
      "ahead": 7742,
      "kernel": 7743,
      "ssed": 7744,
      "stable": 7745,
      "dependent": 7746,
      "orld": 7747,
      "Ġfunctools": 7748,
      "PyBuffer": 7749,
      "Ġeas": 7750,
      "Ġ'~": 7751,
      "Ġwon": 7752,
      "entity": 7753,
      "divide": 7754,
      "INS": 7755,
      "ĠTLS": 7756,
      "()]": 7757,
      "Ġgame": 7758,
      "getset": 7759,
      "-----": 7760,
      "ased": 7761,
      "ĠDATA": 7762,
      "ĠFibonacci": 7763,
      "Ġlex": 7764,
      "Ġweakref": 7765,
      "ĠĠĠĠĠĠĠĠĠĠĠĠĠĠĠĠĠĠĠĠĠĠĠĠĠĠĠĠĠĠĠĠĠĠĠĠĠĠĠĠĠĠĠ": 7766,
      "Decl": 7767,
      "Ġexpire": 7768,
      "Ġreadable": 7769,
      "Ġanything": 7770,
      "packages": 7771,
      "Ġvalidated": 7772,
      "READY": 7773,
      "ossible": 7774,
      "Interval": 7775,
      "Ġfollowed": 7776,
      "ĠHEAD": 7777,
      "ELD": 7778,
      "Ġreduction": 7779,
      "Ġcircuit": 7780,
      "DIGITS": 7781,
      "ĠSerial": 7782,
      "entrancy": 7783,
      "ĠRaises": 7784,
      "INVALID": 7785,
      "DOM": 7786,
      "Safe": 7787,
      "Two": 7788,
      "WS": 7789,
      "guar": 7790,
      "kh": 7791,
      "Ġcs": 7792,
      "Ġnan": 7793,
      "rols": 7794,
      "unsupported": 7795,
      "rackets": 7796,
      "verbose": 7797,
      "ĠBi": 7798,
      "readinto": 7799,
      "Ġaren": 7800,
      "Ġalternative": 7801,
      "ĠRING": 7802,
      "serial": 7803,
      "Ġatt": 7804,
      "HANDLE": 7805,
      "Ġstructures": 7806,
      "hashlib": 7807,
      "ĠserverAssert": 7808,
      "Ġdirectories": 7809,
      "Ġtransition": 7810,
      "ĠUNIT": 7811,
      "Ġdistances": 7812,
      "Ġtriple": 7813,
      "Ġexamples": 7814,
      "Ġterminal": 7815,
      "Ġlowercase": 7816,
      "Ġplaces": 7817,
      "ĠAppend": 7818,
      "Ġcalculated": 7819,
      "handshake": 7820,
      "Ġrules": 7821,
      "ceeds": 7822,
      "ĠContent": 7823,
      "maybe": 7824,
      "weekday": 7825,
      "Failed": 7826,
      "INFINITY": 7827,
      "handlers": 7828,
      "rerror": 7829,
      "ĠArgument": 7830,
      "Fin": 7831,
      "KL": 7832,
      "KEN": 7833,
      "QR": 7834,
      "dll": 7835,
      "nominal": 7836,
      "Ġtctx": 7837,
      "urther": 7838,
      "PyMODINIT": 7839,
      "Ġ(;": 7840,
      "Ġsnprintf": 7841,
      "Ġ','": 7842,
      "disc": 7843,
      "Ġll": 7844,
      "Ġlno": 7845,
      "ĠComm": 7846,
      "Ġexport": 7847,
      "conc": 7848,
      "Static": 7849,
      "Ġ>>=": 7850,
      "probab": 7851,
      "ĠThat": 7852,
      "ACH": 7853,
      "basename": 7854,
      "weights": 7855,
      "Ġsuit": 7856,
      "Ġpercent": 7857,
      "exponent": 7858,
      "Ġadds": 7859,
      "ASY": 7860,
      "ĠDecoding": 7861,
      "cannot": 7862,
      "Ġrecursively": 7863,
      "grammar": 7864,
      "OURCE": 7865,
      "Ġindicating": 7866,
      "basicsize": 7867,
      "ighbours": 7868,
      "scribe": 7869,
      "PRECATED": 7870,
      "relaxed": 7871,
      "*,": 7872,
      ":\",": 7873,
      ":])": 7874,
      "Cipher": 7875,
      "DOT": 7876,
      "Multip": 7877,
      "PUSH": 7878,
      "Try": 7879,
      "ggest": 7880,
      "ov": 7881,
      "plet": 7882,
      "Ġcmath": 7883,
      "Ġrec": 7884,
      "Ġsi": 7885,
      "Ġsimpl": 7886,
      "Ġ\"*": 7887,
      "Ġburst": 7888,
      "lost": 7889,
      "Ġ'&": 7890,
      "ĠNEG": 7891,
      "olated": 7892,
      "blems": 7893,
      "Ġgray": 7894,
      "prefork": 7895,
      "Ġsen": 7896,
      "ĠOGONE": 7897,
      "Ġ\\\\": 7898,
      "product": 7899,
      "ĠReference": 7900,
      "Ġshutdown": 7901,
      "sound": 7902,
      "Ġtimeit": 7903,
      "Ġending": 7904,
      "0000000": 7905,
      "cols": 7906,
      "ients": 7907,
      "contiguous": 7908,
      "Ġmoving": 7909,
      "Ġlogic": 7910,
      "ReplyWith": 7911,
      "ĠSEMIC": 7912,
      "precation": 7913,
      "IsContiguous": 7914,
      "UCD": 7915,
      "Ġfibonacci": 7916,
      "hesis": 7917,
      "Bounds": 7918,
      "Ġoccurrences": 7919,
      "neighbor": 7920,
      "ĠOGONEK": 7921,
      "ĠSEMICOLON": 7922,
      "!'": 7923,
      ")])": 7924,
      "=[": 7925,
      "??": 7926,
      "AUT": 7927,
      "DICT": 7928,
      "even": 7929,
      "fallback": 7930,
      "grees": 7931,
      "hdr": 7932,
      "ik": 7933,
      "nchannels": 7934,
      "plot": 7935,
      "sm": 7936,
      "orator": 7937,
      "Ġauth": 7938,
      "Ġnatural": 7939,
      "Ġbpo": 7940,
      "Ġov": 7941,
      "icon": 7942,
      "ĠPyConfig": 7943,
      "ĠLIG": 7944,
      "ĠLONG": 7945,
      "diffe": 7946,
      "peak": 7947,
      "lazy": 7948,
      "ETER": 7949,
      "ĠDuration": 7950,
      "Ġdetermin": 7951,
      "extract": 7952,
      "sizes": 7953,
      "emon": 7954,
      "....": 7955,
      "Ġuni": 7956,
      "ively": 7957,
      "Ġlisten": 7958,
      "ĠHUGEPAGE": 7959,
      "ĠGROUP": 7960,
      "Ġ45": 7961,
      "Connection": 7962,
      "Ġcompiled": 7963,
      "objs": 7964,
      "Ġexternal": 7965,
      "Ġabort": 7966,
      "MPER": 7967,
      "ĉĉĉĉĉĉĉĉ": 7968,
      "tokenizer": 7969,
      "ĠSTATE": 7970,
      "Ġdisable": 7971,
      "connected": 7972,
      "ĠEncoding": 7973,
      "Ġ'\"'": 7974,
      "Ġcertain": 7975,
      "ĠTrans": 7976,
      "Ġcomparison": 7977,
      "Ġscrut": 7978,
      "ĠLIGATURE": 7979,
      "DLL": 7980,
      "LIN": 7981,
      "POS": 7982,
      "View": 7983,
      "Wrapper": 7984,
      "hide": 7985,
      "kf": 7986,
      "Ġum": 7987,
      "Ġce": 7988,
      "Ġci": 7989,
      "Ġfloor": 7990,
      "PyInit": 7991,
      "Ġbracket": 7992,
      "ĠPyExpat": 7993,
      "Ġvelocity": 7994,
      "ĠCANCE": 7995,
      ">>>": 7996,
      "Ġdt": 7997,
      "Ġhull": 7998,
      "ĠWrit": 7999
    },
    "merges": [
      [
        "Ġ",
        "Ġ"
      ],
      [
        "ĠĠ",
        "ĠĠ"
      ],
      [
        "č",
        "Ċ"
      ],
      [
        "ĠĠ",
        "Ġ"
      ],
      [
        "i",
        "n"
      ],
      [
        "ĠĠĠĠ",
        "ĠĠĠ"
      ],
      [
        "r",
        "e"
      ],
      [
        "Ġ",
        "t"
      ],
      [
        "e",
        "r"
      ],
      [
        "s",
        "t"
      ],
      [
        "o",
        "n"
      ],
      [
        "Ġ",
        "*"
      ],
      [
        "s",
        "e"
      ],
      [
        "a",
        "t"
      ],
      [
        "l",
        "e"
      ],
      [
        "d",
        "e"
      ],
      [
        "ĠĠĠĠ",
        "ĠĠĠĠ"
      ],
      [
        "Ġ",
        "="
      ],
      [
        "o",
        "r"
      ],
      [
        "a",
        "l"
      ],
      [
        "h",
        "e"
      ],
      [
        "Ġ",
        "i"
      ],
      [
        "a",
        "r"
      ],
      [
        "Ġ",
        "c"
      ],
      [
        "e",
        "n"
      ],
      [
        "Ġ",
        "a"
      ],
      [
        "c",
        "t"
      ],
      [
        "Ġ",
        "f"
      ],
      [
        "i",
        "t"
      ],
      [
        "u",
        "r"
      ],
      [
        "Ġt",
        "he"
      ],
      [
        "Ġ",
        "in"
      ],
      [
        "Ġ",
        "re"
      ],
      [
        "Ġ",
        "0"
      ],
      [
        "Ġ",
        "n"
      ],
      [
        "ĠĠĠĠ",
        "ĠĠĠĠĠĠĠ"
      ],
      [
        "P",
        "y"
      ],
      [
        "Ġ",
        "p"
      ],
      [
        "Ġ",
        "("
      ],
      [
        ")",
        ";"
      ],
      [
        "Ġ",
        "s"
      ],
      [
        "Ġ",
        "{"
      ],
      [
        "Ġ",
        "\""
      ],
      [
        "m",
        "e"
      ],
      [
        "i",
        "on"
      ],
      [
        "Ġ",
        "b"
      ],
      [
        "in",
        "g"
      ],
      [
        "a",
        "n"
      ],
      [
        "Ġ",
        "o"
      ],
      [
        "ur",
        "n"
      ],
      [
        "t",
        "urn"
      ],
      [
        "e",
        "d"
      ],
      [
        "r",
        "o"
      ],
      [
        "i",
        "c"
      ],
      [
        "Ġi",
        "f"
      ],
      [
        "Ġ",
        "#"
      ],
      [
        "-",
        ">"
      ],
      [
        "Ġ",
        "e"
      ],
      [
        "l",
        "f"
      ],
      [
        "c",
        "e"
      ],
      [
        "se",
        "lf"
      ],
      [
        "m",
        "p"
      ],
      [
        "u",
        "n"
      ],
      [
        "l",
        "o"
      ],
      [
        "u",
        "e"
      ],
      [
        "Ġ",
        "'"
      ],
      [
        "Ġ",
        "w"
      ],
      [
        "Ġre",
        "turn"
      ],
      [
        "u",
        "t"
      ],
      [
        "e",
        "ct"
      ],
      [
        "s",
        "s"
      ],
      [
        "Ġ",
        "m"
      ],
      [
        "de",
        "f"
      ],
      [
        "r",
        "a"
      ],
      [
        "o",
        "de"
      ],
      [
        "g",
        "e"
      ],
      [
        "Ġ",
        "Py"
      ],
      [
        "b",
        "j"
      ],
      [
        "en",
        "t"
      ],
      [
        "\"",
        ","
      ],
      [
        "Ġ",
        "}"
      ],
      [
        "-",
        "-"
      ],
      [
        "o",
        "t"
      ],
      [
        "_",
        "_"
      ],
      [
        "at",
        "e"
      ],
      [
        "Ġ",
        "L"
      ],
      [
        "in",
        "t"
      ],
      [
        "bj",
        "ect"
      ],
      [
        "0",
        "0"
      ],
      [
        "Ġ",
        "st"
      ],
      [
        "c",
        "k"
      ],
      [
        "Ġt",
        "o"
      ],
      [
        "d",
        "i"
      ],
      [
        "Ġ",
        "N"
      ],
      [
        "Ġ",
        "/"
      ],
      [
        "Ġ",
        "S"
      ],
      [
        "Ġ",
        "l"
      ],
      [
        "u",
        "l"
      ],
      [
        "u",
        "m"
      ],
      [
        "Ġ",
        "1"
      ],
      [
        "Ġi",
        "s"
      ],
      [
        "*",
        "*"
      ],
      [
        "a",
        "d"
      ],
      [
        "Ġ",
        "v"
      ],
      [
        "t",
        "h"
      ],
      [
        "t",
        "e"
      ],
      [
        "I",
        "N"
      ],
      [
        "Ġ",
        "T"
      ],
      [
        "i",
        "z"
      ],
      [
        "Ġo",
        "f"
      ],
      [
        "r",
        "i"
      ],
      [
        "p",
        "e"
      ],
      [
        "L",
        "L"
      ],
      [
        "Ġ",
        "C"
      ],
      [
        "ĠĠĠĠĠĠĠĠ",
        "ĠĠĠĠĠĠĠ"
      ],
      [
        "Ġ*",
        "/"
      ],
      [
        "i",
        "l"
      ],
      [
        "(",
        ")"
      ],
      [
        "Ġa",
        "n"
      ],
      [
        "Ġ",
        "self"
      ],
      [
        "O",
        "bject"
      ],
      [
        "Ġf",
        "or"
      ],
      [
        "Ġin",
        "t"
      ],
      [
        "a",
        "me"
      ],
      [
        "i",
        "s"
      ],
      [
        "al",
        "ue"
      ],
      [
        "l",
        "a"
      ],
      [
        "o",
        "d"
      ],
      [
        "E",
        "R"
      ],
      [
        ">",
        ">"
      ],
      [
        "iz",
        "e"
      ],
      [
        "Ġ",
        "<"
      ],
      [
        "E",
        "T"
      ],
      [
        "Ġ",
        "_"
      ],
      [
        "Ġ",
        "->"
      ],
      [
        "p",
        "t"
      ],
      [
        "in",
        "e"
      ],
      [
        "i",
        "d"
      ],
      [
        "ĠĠĠĠĠĠĠĠ",
        "ĠĠĠĠĠĠĠĠ"
      ],
      [
        "i",
        "st"
      ],
      [
        "Ġt",
        "h"
      ],
      [
        "o",
        "l"
      ],
      [
        "c",
        "h"
      ],
      [
        ")",
        ":"
      ],
      [
        "le",
        "n"
      ],
      [
        "\"",
        "\""
      ],
      [
        "b",
        "le"
      ],
      [
        "ar",
        "g"
      ],
      [
        "Ġ",
        "d"
      ],
      [
        "x",
        "t"
      ],
      [
        "or",
        "t"
      ],
      [
        "Ġ",
        "A"
      ],
      [
        "on",
        "e"
      ],
      [
        "n",
        "t"
      ],
      [
        "Ġ",
        "-"
      ],
      [
        "y",
        "pe"
      ],
      [
        "Ġ=",
        "="
      ],
      [
        "i",
        "g"
      ],
      [
        "v",
        "e"
      ],
      [
        "Ġ",
        "g"
      ],
      [
        "Ġ",
        "@"
      ],
      [
        "a",
        "s"
      ],
      [
        "I",
        "T"
      ],
      [
        "a",
        "p"
      ],
      [
        "Ġ",
        "h"
      ],
      [
        "k",
        "e"
      ],
      [
        "i",
        "f"
      ],
      [
        "Ġc",
        "on"
      ],
      [
        "Ġ",
        "+"
      ],
      [
        "r",
        "ing"
      ],
      [
        "ge",
        "t"
      ],
      [
        "Ġ",
        "def"
      ],
      [
        "i",
        "le"
      ],
      [
        "Ġ",
        "u"
      ],
      [
        "Ġb",
        "e"
      ],
      [
        "Ġan",
        "d"
      ],
      [
        "r",
        "or"
      ],
      [
        "al",
        "l"
      ],
      [
        "A",
        "T"
      ],
      [
        "se",
        "t"
      ],
      [
        "v",
        "er"
      ],
      [
        "t",
        "er"
      ],
      [
        ")",
        ")"
      ],
      [
        "a",
        "m"
      ],
      [
        "at",
        "ion"
      ],
      [
        "--",
        "--"
      ],
      [
        "R",
        "E"
      ],
      [
        "c",
        "o"
      ],
      [
        "at",
        "a"
      ],
      [
        "it",
        "h"
      ],
      [
        "ul",
        "t"
      ],
      [
        "ct",
        "ion"
      ],
      [
        "Ġe",
        "x"
      ],
      [
        "T",
        "ER"
      ],
      [
        "m",
        "ent"
      ],
      [
        "U",
        "LL"
      ],
      [
        "Ġc",
        "h"
      ],
      [
        "u",
        "p"
      ],
      [
        "at",
        "ic"
      ],
      [
        "ĠPy",
        "Object"
      ],
      [
        "c",
        "l"
      ],
      [
        "a",
        "se"
      ],
      [
        "Ġc",
        "o"
      ],
      [
        "Ġ",
        "I"
      ],
      [
        "Ġ",
        "2"
      ],
      [
        "Ġ",
        "&"
      ],
      [
        "p",
        "ar"
      ],
      [
        "M",
        "A"
      ],
      [
        "Ġn",
        "e"
      ],
      [
        "c",
        "ode"
      ],
      [
        "u",
        "b"
      ],
      [
        "c",
        "on"
      ],
      [
        "Ġn",
        "ot"
      ],
      [
        "a",
        "ck"
      ],
      [
        "R",
        "e"
      ],
      [
        "(",
        "\""
      ],
      [
        "Ġ",
        "D"
      ],
      [
        "a",
        "ble"
      ],
      [
        "e",
        "t"
      ],
      [
        "f",
        "f"
      ],
      [
        "Ġ'",
        "\\"
      ],
      [
        "E",
        "r"
      ],
      [
        "b",
        "er"
      ],
      [
        "ĠN",
        "ULL"
      ],
      [
        "'",
        ","
      ],
      [
        "A",
        "L"
      ],
      [
        "en",
        "d"
      ],
      [
        "S",
        "t"
      ],
      [
        "Ġ/",
        "*"
      ],
      [
        "arg",
        "s"
      ],
      [
        "i",
        "me"
      ],
      [
        "Ġ",
        ">>"
      ],
      [
        "Ġ\"",
        "\"\""
      ],
      [
        "an",
        "d"
      ],
      [
        "ET",
        "TER"
      ],
      [
        "ĠL",
        "ETTER"
      ],
      [
        "n",
        "ame"
      ],
      [
        "e",
        "l"
      ],
      [
        "ke",
        "y"
      ],
      [
        "ro",
        "m"
      ],
      [
        "q",
        "u"
      ],
      [
        "Ġ",
        "di"
      ],
      [
        "=",
        "="
      ],
      [
        "Ġ",
        "or"
      ],
      [
        "ra",
        "y"
      ],
      [
        "O",
        "N"
      ],
      [
        "Ġ",
        "F"
      ],
      [
        "t",
        "s"
      ],
      [
        "a",
        "c"
      ],
      [
        "um",
        "ber"
      ],
      [
        "Ġe",
        "l"
      ],
      [
        "L",
        "E"
      ],
      [
        "lo",
        "c"
      ],
      [
        "Ġ>>",
        ">"
      ],
      [
        "o",
        "id"
      ],
      [
        ".",
        "_"
      ],
      [
        "Ġ",
        "de"
      ],
      [
        "Ġ",
        "["
      ],
      [
        "l",
        "y"
      ],
      [
        "Ġv",
        "alue"
      ],
      [
        "o",
        "p"
      ],
      [
        "Ġ",
        "r"
      ],
      [
        "p",
        "ut"
      ],
      [
        "pt",
        "ion"
      ],
      [
        "Ġ",
        "B"
      ],
      [
        "u",
        "le"
      ],
      [
        "Ġch",
        "ar"
      ],
      [
        "**",
        "**"
      ],
      [
        "o",
        "s"
      ],
      [
        "h",
        "t"
      ],
      [
        "S",
        "T"
      ],
      [
        ")",
        ","
      ],
      [
        "u",
        "s"
      ],
      [
        "mp",
        "ort"
      ],
      [
        "l",
        "i"
      ],
      [
        "at",
        "h"
      ],
      [
        "Er",
        "ror"
      ],
      [
        "ĠN",
        "one"
      ],
      [
        "er",
        "t"
      ],
      [
        "m",
        "a"
      ],
      [
        "e",
        "s"
      ],
      [
        "od",
        "ule"
      ],
      [
        "Ġ",
        "P"
      ],
      [
        "p",
        "re"
      ],
      [
        "Ġm",
        "a"
      ],
      [
        "A",
        "R"
      ],
      [
        "la",
        "ss"
      ],
      [
        "Ġ/",
        "/"
      ],
      [
        "st",
        "atic"
      ],
      [
        "in",
        "al"
      ],
      [
        "Ġ",
        "M"
      ],
      [
        "Ġ",
        "E"
      ],
      [
        "Ġel",
        "se"
      ],
      [
        "par",
        "am"
      ],
      [
        "A",
        "P"
      ],
      [
        "o",
        "c"
      ],
      [
        "in",
        "d"
      ],
      [
        "/",
        "*"
      ],
      [
        "Ġ",
        "W"
      ],
      [
        "v",
        "alue"
      ],
      [
        "e",
        "xt"
      ],
      [
        "l",
        "ic"
      ],
      [
        "s",
        "ize"
      ],
      [
        "e",
        "m"
      ],
      [
        "Ġ",
        "se"
      ],
      [
        "D",
        "E"
      ],
      [
        "re",
        "e"
      ],
      [
        "un",
        "ction"
      ],
      [
        "re",
        "nt"
      ],
      [
        "e",
        "x"
      ],
      [
        "Ġ",
        "me"
      ],
      [
        "mp",
        "le"
      ],
      [
        "Ġ",
        "|"
      ],
      [
        "AT",
        "IN"
      ],
      [
        "on",
        "g"
      ],
      [
        "ĠL",
        "ATIN"
      ],
      [
        "ar",
        "t"
      ],
      [
        "re",
        "ad"
      ],
      [
        "Ġ",
        "!"
      ],
      [
        "ar",
        "ray"
      ],
      [
        "Ġb",
        "y"
      ],
      [
        "ĠĠĠĠĠĠĠĠ",
        "ĠĠĠĠĠĠĠĠĠĠĠ"
      ],
      [
        "Ġth",
        "is"
      ],
      [
        ".",
        "."
      ],
      [
        "#",
        "#"
      ],
      [
        "Ġw",
        "ith"
      ],
      [
        "f",
        "i"
      ],
      [
        "def",
        "ine"
      ],
      [
        "Ġs",
        "ize"
      ],
      [
        "st",
        "r"
      ],
      [
        "Ġ",
        "3"
      ],
      [
        "de",
        "x"
      ],
      [
        "O",
        "R"
      ],
      [
        "ĠT",
        "he"
      ],
      [
        "ul",
        "l"
      ],
      [
        "b",
        "u"
      ],
      [
        "Ġ",
        "un"
      ],
      [
        "d",
        "s"
      ],
      [
        "a",
        "ge"
      ],
      [
        "o",
        "w"
      ],
      [
        "Ġre",
        "s"
      ],
      [
        "r",
        "y"
      ],
      [
        "re",
        "d"
      ],
      [
        "re",
        "s"
      ],
      [
        "Ġne",
        "w"
      ],
      [
        "ĉ",
        "ĉ"
      ],
      [
        "i",
        "p"
      ],
      [
        "I",
        "n"
      ],
      [
        "i",
        "ve"
      ],
      [
        "Ġa",
        "s"
      ],
      [
        "i",
        "m"
      ],
      [
        "ro",
        "w"
      ],
      [
        "i",
        "se"
      ],
      [
        "al",
        "loc"
      ],
      [
        "r",
        "ue"
      ],
      [
        "Ġp",
        "ro"
      ],
      [
        "Ġst",
        "r"
      ],
      [
        "re",
        "turn"
      ],
      [
        "Ġ{",
        "@"
      ],
      [
        "Ġ",
        "O"
      ],
      [
        "ig",
        "n"
      ],
      [
        "r",
        "int"
      ],
      [
        "t",
        "ype"
      ],
      [
        "er",
        "s"
      ],
      [
        "u",
        "ct"
      ],
      [
        "MA",
        "LL"
      ],
      [
        "Ġn",
        "umber"
      ],
      [
        "o",
        "m"
      ],
      [
        "Ġw",
        "h"
      ],
      [
        "se",
        "d"
      ],
      [
        "an",
        "ce"
      ],
      [
        "c",
        "ur"
      ],
      [
        "d",
        "er"
      ],
      [
        "\"",
        ")"
      ],
      [
        "E",
        "x"
      ],
      [
        "Ġ",
        "j"
      ],
      [
        "he",
        "ck"
      ],
      [
        "i",
        "r"
      ],
      [
        "Ġ",
        "\\"
      ],
      [
        "m",
        "at"
      ],
      [
        "a",
        "ct"
      ],
      [
        "Ġ",
        "on"
      ],
      [
        "I",
        "G"
      ],
      [
        "st",
        "ate"
      ],
      [
        "Ġl",
        "ist"
      ],
      [
        "I",
        "C"
      ],
      [
        "Ġth",
        "at"
      ],
      [
        "Ġ",
        "__"
      ],
      [
        "]",
        ","
      ],
      [
        "lo",
        "w"
      ],
      [
        "Ġd",
        "o"
      ],
      [
        "un",
        "t"
      ],
      [
        "----",
        "----"
      ],
      [
        "er",
        "ror"
      ],
      [
        "f",
        "or"
      ],
      [
        "Ġ",
        "U"
      ],
      [
        "Ġ",
        "H"
      ],
      [
        "R",
        "A"
      ],
      [
        "p",
        "ro"
      ],
      [
        "r",
        "it"
      ],
      [
        "Ġ",
        ">"
      ],
      [
        "Ġ",
        "len"
      ],
      [
        "ub",
        "lic"
      ],
      [
        "ce",
        "ption"
      ],
      [
        "cl",
        "u"
      ],
      [
        "t",
        "o"
      ],
      [
        "d",
        "ata"
      ],
      [
        "Ġa",
        "re"
      ],
      [
        "lo",
        "ck"
      ],
      [
        "e",
        "st"
      ],
      [
        "ĠĠĠĠ",
        "Ġ"
      ],
      [
        "\"",
        ");"
      ],
      [
        "f",
        "t"
      ],
      [
        "Ġs",
        "o"
      ],
      [
        "Ġ!",
        "="
      ],
      [
        "ac",
        "he"
      ],
      [
        "l",
        "ine"
      ],
      [
        "Ġ",
        "G"
      ],
      [
        "al",
        "se"
      ],
      [
        "Ġf",
        "rom"
      ],
      [
        "6",
        "4"
      ],
      [
        "in",
        "k"
      ],
      [
        "Ġ",
        "V"
      ],
      [
        "d",
        "d"
      ],
      [
        "clu",
        "de"
      ],
      [
        "a",
        "st"
      ],
      [
        "/",
        "/"
      ],
      [
        "Ġ",
        "al"
      ],
      [
        "at",
        "ed"
      ],
      [
        "v",
        "al"
      ],
      [
        "o",
        "o"
      ],
      [
        "p",
        "y"
      ],
      [
        "ĠS",
        "t"
      ],
      [
        "ĠS",
        "MALL"
      ],
      [
        "g",
        "th"
      ],
      [
        "t",
        "a"
      ],
      [
        "Ġ/",
        "**"
      ],
      [
        "Ġ",
        "ra"
      ],
      [
        "Ġ",
        "x"
      ],
      [
        "v",
        "oid"
      ],
      [
        "th",
        "od"
      ],
      [
        "A",
        "r"
      ],
      [
        "te",
        "xt"
      ],
      [
        "Ġ",
        "le"
      ],
      [
        "ts",
        "d"
      ],
      [
        "Ġ",
        "R"
      ],
      [
        "le",
        "ment"
      ],
      [
        "Ġ",
        "en"
      ],
      [
        "s",
        "er"
      ],
      [
        "(",
        "'"
      ],
      [
        "IN",
        "G"
      ],
      [
        "an",
        "ge"
      ],
      [
        "Ġ",
        "key"
      ],
      [
        "m",
        "o"
      ],
      [
        "p",
        "a"
      ],
      [
        "Ġ",
        "%"
      ],
      [
        "Ġi",
        "t"
      ],
      [
        "o",
        "int"
      ],
      [
        "E",
        "N"
      ],
      [
        "Ġ",
        "y"
      ],
      [
        "Py",
        "Object"
      ],
      [
        "ce",
        "ss"
      ],
      [
        "Ġ",
        "he"
      ],
      [
        "Ġcon",
        "st"
      ],
      [
        "==",
        "=="
      ],
      [
        "ap",
        "p"
      ],
      [
        "3",
        "2"
      ],
      [
        "un",
        "d"
      ],
      [
        "o",
        "ut"
      ],
      [
        "ad",
        "d"
      ],
      [
        "]",
        ")"
      ],
      [
        "di",
        "f"
      ],
      [
        "ĠC",
        "AP"
      ],
      [
        "i",
        "al"
      ],
      [
        "IT",
        "AL"
      ],
      [
        "ri",
        "g"
      ],
      [
        "ĠCAP",
        "ITAL"
      ],
      [
        "u",
        "a"
      ],
      [
        "T",
        "ype"
      ],
      [
        "p",
        "er"
      ],
      [
        "Ġ&",
        "&"
      ],
      [
        "l",
        "ist"
      ],
      [
        "it",
        "ion"
      ],
      [
        "y",
        "s"
      ],
      [
        "Ġc",
        "ode"
      ],
      [
        "Ġp",
        "ublic"
      ],
      [
        "Ġp",
        "rint"
      ],
      [
        "Ġw",
        "e"
      ],
      [
        "ss",
        "ert"
      ],
      [
        "f",
        "o"
      ],
      [
        "Ġn",
        "ode"
      ],
      [
        "Ġn",
        "ame"
      ],
      [
        "Ġn",
        "ull"
      ],
      [
        "Ġf",
        "inal"
      ],
      [
        "n",
        "e"
      ],
      [
        "m",
        "odule"
      ],
      [
        "s",
        "h"
      ],
      [
        "Ġf",
        "ile"
      ],
      [
        "rig",
        "ht"
      ],
      [
        "a",
        "b"
      ],
      [
        "it",
        "y"
      ],
      [
        "Ġo",
        "bject"
      ],
      [
        "ar",
        "y"
      ],
      [
        "S",
        "I"
      ],
      [
        "Ġ",
        "Re"
      ],
      [
        "um",
        "ent"
      ],
      [
        "Ġst",
        "ring"
      ],
      [
        "E",
        "D"
      ],
      [
        "]",
        ";"
      ],
      [
        "ra",
        "p"
      ],
      [
        "il",
        "l"
      ],
      [
        "Ġ",
        "get"
      ],
      [
        "Ġ",
        "array"
      ],
      [
        "u",
        "st"
      ],
      [
        "m",
        "m"
      ],
      [
        "u",
        "re"
      ],
      [
        "Ġb",
        "u"
      ],
      [
        "Ġv",
        "oid"
      ],
      [
        "Ġres",
        "ult"
      ],
      [
        "Ġ",
        "set"
      ],
      [
        "'",
        ")"
      ],
      [
        "+",
        "+"
      ],
      [
        "as",
        "h"
      ],
      [
        "a",
        "k"
      ],
      [
        "en",
        "dif"
      ],
      [
        "at",
        "or"
      ],
      [
        "te",
        "s"
      ],
      [
        "}",
        ","
      ],
      [
        "i",
        "v"
      ],
      [
        "c",
        "od"
      ],
      [
        "i",
        "mport"
      ],
      [
        "U",
        "N"
      ],
      [
        "St",
        "ring"
      ],
      [
        "ĠĠĠĠ",
        "ĠĠ"
      ],
      [
        "****",
        "****"
      ],
      [
        "Ġp",
        "ri"
      ],
      [
        "ET",
        "H"
      ],
      [
        "v",
        "ent"
      ],
      [
        "Ġ",
        ":"
      ],
      [
        "st",
        "ance"
      ],
      [
        "en",
        "er"
      ],
      [
        "pe",
        "c"
      ],
      [
        "Ġs",
        "h"
      ],
      [
        "t",
        "y"
      ],
      [
        "Ġin",
        "put"
      ],
      [
        "Ġ",
        "4"
      ],
      [
        "Ġf",
        "unction"
      ],
      [
        "Ġc",
        "ur"
      ],
      [
        "Ġ",
        "k"
      ],
      [
        "q",
        "ue"
      ],
      [
        "O",
        "D"
      ],
      [
        "Ġst",
        "atic"
      ],
      [
        "i",
        "o"
      ],
      [
        "up",
        "le"
      ],
      [
        "Ġra",
        "ise"
      ],
      [
        "Ġt",
        "ype"
      ],
      [
        "Ġp",
        "re"
      ],
      [
        "m",
        "s"
      ],
      [
        "in",
        "clude"
      ],
      [
        "b",
        "ack"
      ],
      [
        "Ġ",
        "at"
      ],
      [
        "f",
        "ile"
      ],
      [
        "s",
        "o"
      ],
      [
        "ĠT",
        "h"
      ],
      [
        "Ġi",
        "mport"
      ],
      [
        "(",
        ");"
      ],
      [
        "c",
        "lass"
      ],
      [
        ")",
        "."
      ],
      [
        "\"\"",
        "\""
      ],
      [
        "ĠW",
        "IT"
      ],
      [
        "it",
        "s"
      ],
      [
        "o",
        "f"
      ],
      [
        "Ġw",
        "he"
      ],
      [
        "Ġd",
        "ata"
      ],
      [
        "t",
        "p"
      ],
      [
        "t",
        "r"
      ],
      [
        "ff",
        "er"
      ],
      [
        "ĠWIT",
        "H"
      ],
      [
        "2",
        "5"
      ],
      [
        "a",
        "ult"
      ],
      [
        "N",
        "one"
      ],
      [
        "Ġ(",
        "!"
      ],
      [
        "g",
        "er"
      ],
      [
        "a",
        "re"
      ],
      [
        "ch",
        "ar"
      ],
      [
        "p",
        "ath"
      ],
      [
        "[",
        "]"
      ],
      [
        "R",
        "O"
      ],
      [
        "Ġc",
        "all"
      ],
      [
        "Ġt",
        "ime"
      ],
      [
        "th",
        "er"
      ],
      [
        "Ġa",
        "dd"
      ],
      [
        "Ġc",
        "an"
      ],
      [
        "Ġ",
        "lo"
      ],
      [
        "Ġst",
        "art"
      ],
      [
        "Ġ",
        "5"
      ],
      [
        "ar",
        "d"
      ],
      [
        "Ġc",
        "ase"
      ],
      [
        "Ġg",
        "ot"
      ],
      [
        "in",
        "ed"
      ],
      [
        "in",
        "it"
      ],
      [
        "C",
        "on"
      ],
      [
        "Ġ",
        "end"
      ],
      [
        "ur",
        "ce"
      ],
      [
        "o",
        "u"
      ],
      [
        "s",
        "c"
      ],
      [
        "O",
        "C"
      ],
      [
        "Ġf",
        "i"
      ],
      [
        "s",
        "p"
      ],
      [
        "ro",
        "ot"
      ],
      [
        "n",
        "ode"
      ],
      [
        "ĠSt",
        "ring"
      ],
      [
        "d",
        "oc"
      ],
      [
        "Ar",
        "g"
      ],
      [
        "Ġco",
        "mp"
      ],
      [
        ")",
        ");"
      ],
      [
        "l",
        "ink"
      ],
      [
        "Ġe",
        "lement"
      ],
      [
        "e",
        "c"
      ],
      [
        "Ġgot",
        "o"
      ],
      [
        "Ġo",
        "ut"
      ],
      [
        "la",
        "g"
      ],
      [
        "Ġp",
        "a"
      ],
      [
        "ĠĠĠĠĠĠĠĠĠĠĠĠĠĠĠĠ",
        "ĠĠĠĠĠĠĠĠĠĠĠĠĠĠĠĠ"
      ],
      [
        "s",
        "ign"
      ],
      [
        "el",
        "d"
      ],
      [
        "se",
        "s"
      ],
      [
        "..",
        "."
      ],
      [
        "o",
        "re"
      ],
      [
        "H",
        "A"
      ],
      [
        "Ġl",
        "ine"
      ],
      [
        "un",
        "c"
      ],
      [
        "ce",
        "pt"
      ],
      [
        "Ex",
        "ception"
      ],
      [
        "t",
        "ime"
      ],
      [
        "Ġm",
        "at"
      ],
      [
        "I",
        "S"
      ],
      [
        "mp",
        "l"
      ],
      [
        "0",
        "1"
      ],
      [
        "or",
        "d"
      ],
      [
        "a",
        "v"
      ],
      [
        "er",
        "n"
      ],
      [
        "Ġc",
        "lass"
      ],
      [
        "A",
        "D"
      ],
      [
        "Ġma",
        "x"
      ],
      [
        "Ġu",
        "int"
      ],
      [
        "il",
        "d"
      ],
      [
        "or",
        "y"
      ],
      [
        "Ġwh",
        "ile"
      ],
      [
        "Ġ",
        "."
      ],
      [
        "re",
        "am"
      ],
      [
        "i",
        "de"
      ],
      [
        "ĠI",
        "n"
      ],
      [
        "C",
        "O"
      ],
      [
        "Ġ",
        "arg"
      ],
      [
        "Ġ|",
        "|"
      ],
      [
        "Ġp",
        "os"
      ],
      [
        "mp",
        "d"
      ],
      [
        "f",
        "rom"
      ],
      [
        "Ġ",
        "error"
      ],
      [
        "ĠTh",
        "is"
      ],
      [
        "ST",
        "R"
      ],
      [
        "Ġl",
        "ong"
      ],
      [
        "o",
        "ol"
      ],
      [
        "e",
        "p"
      ],
      [
        "mp",
        "ty"
      ],
      [
        "te",
        "st"
      ],
      [
        "Ġp",
        "ar"
      ],
      [
        "v",
        "ate"
      ],
      [
        "a",
        "il"
      ],
      [
        "S",
        "et"
      ],
      [
        "le",
        "an"
      ],
      [
        "b",
        "y"
      ],
      [
        "Ġ{",
        "\""
      ],
      [
        "i",
        "mpl"
      ],
      [
        "Ġcur",
        "rent"
      ],
      [
        "D",
        "e"
      ],
      [
        "Ġstr",
        "uct"
      ],
      [
        "p",
        "p"
      ],
      [
        "lo",
        "at"
      ],
      [
        "f",
        "e"
      ],
      [
        "re",
        "ak"
      ],
      [
        "I",
        "L"
      ],
      [
        "Ġin",
        "dex"
      ],
      [
        "bu",
        "f"
      ],
      [
        "St",
        "ate"
      ],
      [
        "U",
        "T"
      ],
      [
        "Ġme",
        "thod"
      ],
      [
        "Ġ+",
        "="
      ],
      [
        "st",
        "ring"
      ],
      [
        "N",
        "D"
      ],
      [
        "U",
        "n"
      ],
      [
        "o",
        "und"
      ],
      [
        "A",
        "C"
      ],
      [
        "Ġ",
        "all"
      ],
      [
        "c",
        "re"
      ],
      [
        "Ġl",
        "ua"
      ],
      [
        "o",
        "bj"
      ],
      [
        "Ġ",
        "K"
      ],
      [
        "1",
        "2"
      ],
      [
        "ĠĠĠĠĠĠĠĠ",
        "ĠĠĠĠĠĠĠĠĠĠĠĠĠĠĠ"
      ],
      [
        "b",
        "ase"
      ],
      [
        "Ġc",
[...]
