{
  "version": "1.0",
  "truncation": null,
  "padding": null,
  "added_tokens": [
    {
      "id": 0,
      "content": "[PAD]",
      "single_word": false,
      "lstrip": false,
      "rstrip": false,
      "normalized": false,
      "special": true
    },
    {
      "id": 1,
      "content": "[UNK]",
      "single_word": false,
      "lstrip": false,
      "rstrip": false,
      "normalized": false,
      "special": true
    },
    {
      "id": 2,
      "content": "[BOS]",
      "single_word": false,
      "lstrip": false,
      "rstrip": false,
      "normalized": false,
      "special": true
    },
    {
      "id": 3,
      "content": "[EOS]",
      "single_word": false,
      "lstrip": false,
      "rstrip": false,
      "normalized": false,
      "special": true
    }
  ],
  "normalizer": null,
  "pre_tokenizer": {
    "type": "Whitespace"
  },
  "post_processor": null,
  "decoder": null,
  "model": {
    "type": "BPE",
    "dropout": null,
    "unk_token": "[UNK]",
    "continuing_subword_prefix": null,
    "end_of_word_suffix": null,
    "fuse_unk": false,
    "byte_fallback": false,
    "ignore_merges": false,
    "vocab": {
      "[PAD]": 0,
      "[UNK]": 1,
      "[BOS]": 2,
      "[EOS]": 3,
      "!": 4,
      "\"": 5,
      "#": 6,
      "$": 7,
      "%": 8,
      "&": 9,
      "'": 10,
      "(": 11,
      ")": 12,
      "*": 13,
      "+": 14,
      ",": 15,
      "-": 16,
      ".": 17,
      "/": 18,
      "0": 19,
      "1": 20,
      "2": 21,
      "3": 22,
      "4": 23,
      "5": 24,
      "6": 25,
      "7": 26,
      "8": 27,
      "9": 28,
      ":": 29,
      ";": 30,
      "<": 31,
      "=": 32,
      ">": 33,
      "?": 34,
      "@": 35,
      "A": 36,
      "B": 37,
      "C": 38,
      "D": 39,
      "E": 40,
      "F": 41,
      "G": 42,
      "H": 43,
      "I": 44,
      "J": 45,
      "K": 46,
      "L": 47,
      "M": 48,
      "N": 49,
      "O": 50,
      "P": 51,
      "Q": 52,
      "R": 53,
      "S": 54,
      "T": 55,
      "U": 56,
      "V": 57,
      "W": 58,
      "X": 59,
      "Y": 60,
      "Z": 61,
      "[": 62,
      "\\": 63,
      "]": 64,
      "^": 65,
      "_": 66,
      "`": 67,
      "a": 68,
      "b": 69,
      "c": 70,
      "d": 71,
      "e": 72,
      "f": 73,
      "g": 74,
      "h": 75,
      "i": 76,
      "j": 77,
      "k": 78,
      "l": 79,
      "m": 80,
      "n": 81,
      "o": 82,
      "p": 83,
      "q": 84,
      "r": 85,
      "s": 86,
      "t": 87,
      "u": 88,
      "v": 89,
      "w": 90,
      "x": 91,
      "y": 92,
      "z": 93,
      "{": 94,
      "|": 95,
      "}": 96,
      "~": 97,
      "©": 98,
      "ß": 99,
      "ä": 100,
      "æ": 101,
      "ç": 102,
      "é": 103,
      "ë": 104,
      "í": 105,
      "ï": 106,
      "ö": 107,
      "ø": 108,
      "û": 109,
      "ü": 110,
      "ą": 111,
      "ś": 112,
      "Š": 113,
      "š": 114,
      "ź": 115,
      "а": 116,
      "е": 117,
      "ж": 118,
      "и": 119,
      "к": 120,
      "л": 121,
      "м": 122,
      "о": 123,
      "п": 124,
      "р": 125,
      "с": 126,
      "т": 127,
      "ь": 128,
      "я": 129,
      "—": 130,
      "№": 131,
      "∂": 132,
      "☃": 133,
      "☕": 134,
      "✅": 135,
      "✓": 136,
      "✗": 137,
      "✨": 138,
      "ェ": 139,
      "ク": 140,
      "ジ": 141,
      "ッ": 142,
      "ニ": 143,
      "ピ": 144,
      "ー": 145,
      "火": 146,
      "腿": 147,
      "️": 148,
      "🌐": 149,
      "🍰": 150,
      "🎉": 151,
      "👥": 152,
      "📝": 153,
      "😉": 154,
      "😎": 155,
      "😱": 156,
      "🚀": 157,
      "🤓": 158,
      "on": 159,
      "es": 160,
      "\":": 161,
      "se": 162,
      "at": 163,
      "de": 164,
      "en": 165,
      "as": 166,
      "re": 167,
      "li": 168,
      "in": 169,
      "or": 170,
      "er": 171,
      "\",": 172,
      "ion": 173,
      "st": 174,
      "it": 175,
      "est": 176,
      "ap": 177,
      "pon": 178,
      "he": 179,
      "ent": 180,
      "==": 181,
      "espon": 182,
      "le": 183,
      "ar": 184,
      "al": 185,
      "esponse": 186,
      "am": 187,
      "et": 188,
      "},": 189,
      "an": 190,
      "ut": 191,
      "response": 192,
      "ser": 193,
      "co": 194,
      "ro": 195,
      "ation": 196,
      "app": 197,
      "def": 198,
      "test": 199,
      "ur": 200,
      "ali": 201,
      "qu": 202,
      "lient": 203,
      "ex": 204,
      "em": 205,
      "):": 206,
      "pe": 207,
      "{\"": 208,
      "ct": 209,
      "im": 210,
      "\"\"": 211,
      "--": 212,
      "get": 213,
      "ed": 214,
      "str": 215,
      "sert": 216,
      "(\"": 217,
      "assert": 218,
      "ty": 219,
      "ing": 220,
      "ot": 221,
      "one": 222,
      "oc": 223,
      "is": 224,
      "ort": 225,
      "\")": 226,
      "fi": 227,
      "port": 228,
      "pt": 229,
      "None": 230,
      "ame": 231,
      "the": 232,
      "client": 233,
      "ath": 234,
      "type": 235,
      "mo": 236,
      "s_": 237,
      "()": 238,
      "import": 239,
      "che": 240,
      "py": 241,
      "requ": 242,
      "name": 243,
      "ri": 244,
      "item": 245,
      "ption": 246,
      "ul": 247,
      "con": 248,
      "del": 249,
      "par": 250,
      "chem": 251,
      "path": 252,
      "test_": 253,
      "ror": 254,
      "son": 255,
      "schem": 256,
      "ad": 257,
      "ast": 258,
      "json": 259,
      "pen": 260,
      "ret": 261,
      "rom": 262,
      "alid": 263,
      "from": 264,
      "urn": 265,
      "el": 266,
      "00": 267,
      "ue": 268,
      "return": 269,
      "cl": 270,
      "ce": 271,
      "to": 272,
      "not": 273,
      "api": 274,
      "param": 275,
      "ext": 276,
      "====": 277,
      "un": 278,
      "lo": 279,
      "tit": 280,
      "title": 281,
      "alidation": 282,
      "code": 283,
      "(\"/": 284,
      "cont": 285,
      "e_": 286,
      "stat": 287,
      "ess": 288,
      "],": 289,
      "model": 290,
      "\"\"\"": 291,
      "red": 292,
      "rror": 293,
      "Error": 294,
      "com": 295,
      "AP": 296,
      "ag": 297,
      "API": 298,
      "alias": 299,
      "ass": 300,
      "sel": 301,
      "per": 302,
      "oo": 303,
      "id": 304,
      "for": 305,
      "self": 306,
      "th": 307,
      "nc": 308,
      "ver": 309,
      "il": 310,
      "dat": 311,
      "[\"": 312,
      "request": 313,
      "\"},": 314,
      "and": 315,
      "if": 316,
      "__": 317,
      "schema": 318,
      "der": 319,
      "des": 320,
      "ult": 321,
      "cri": 322,
      "statu": 323,
      "ated": 324,
      "od": 325,
      "An": 326,
      "cription": 327,
      "all": 328,
      "---": 329,
      "ra": 330,
      "description": 331,
      "ht": 332,
      "int": 333,
      "status_": 334,
      "doc": 335,
      "ired": 336,
      "y_": 337,
      "ith": 338,
      "status_code": 339,
      "ab": 340,
      "val": 341,
      "ti": 342,
      "items": 343,
      "su": 344,
      "Fast": 345,
      "FastAPI": 346,
      "content": 347,
      "user": 348,
      "200": 349,
      "po": 350,
      "required": 351,
      "ori": 352,
      "Validation": 353,
      "Client": 354,
      "lic": 355,
      "\"/": 356,
      "():": 357,
      "Test": 358,
      "fast": 359,
      "ader": 360,
      "),": 361,
      "fastapi": 362,
      "pro": 363,
      "data": 364,
      "ch": 365,
      "text": 366,
      "class": 367,
      "with": 368,
      "_model": 369,
      "tem": 370,
      "be": 371,
      "di": 372,
      "ect": 373,
      "eld": 374,
      "list": 375,
      "Re": 376,
      "TestClient": 377,
      "sh": 378,
      "open": 379,
      "url": 380,
      "\"}": 381,
      "rout": 382,
      "========": 383,
      "ync": 384,
      "string": 385,
      "get_": 386,
      "tp": 387,
      "pytest": 388,
      "http": 389,
      "ault": 390,
      "ac": 391,
      "Response": 392,
      "HT": 393,
      "mar": 394,
      "set": 395,
      "uth": 396,
      "applic": 397,
      "\"]": 398,
      "Tr": 399,
      "pl": 400,
      "application": 401,
      "om": 402,
      "_id": 403,
      "peration": 404,
      "True": 405,
      "tut": 406,
      "orial": 407,
      "tutorial": 408,
      "header": 409,
      "TP": 410,
      "ents": 411,
      "HTTP": 412,
      "``": 413,
      "out": 414,
      "=\"": 415,
      "ask": 416,
      "ple": 417,
      "operation": 418,
      "openapi": 419,
      "value": 420,
      "put": 421,
      "ValidationError": 422,
      "bj": 423,
      "Annot": 424,
      "default": 425,
      "ke": 426,
      "obj": 427,
      "_alias": 428,
      "fo": 429,
      "post": 430,
      "Mo": 431,
      "clu": 432,
      "no": 433,
      "Annotated": 434,
      "loc": 435,
      "Model": 436,
      "ase": 437,
      "paramet": 438,
      "async": 439,
      "age": 440,
      "De": 441,
      "schemas": 442,
      "lask": 443,
      "ki": 444,
      "validation": 445,
      "ter": 446,
      "ponents": 447,
      "components": 448,
      "clude": 449,
      "ail": 450,
      "ic": 451,
      "depen": 452,
      "ery": 453,
      "ack": 454,
      "response_model": 455,
      "cur": 456,
      "error": 457,
      "object": 458,
      "vel": 459,
      "_b": 460,
      "file": 461,
      "ang": 462,
      "LE": 463,
      "up": 464,
      "FI": 465,
      "option": 466,
      "ref": 467,
      "read": 468,
      "FILE": 469,
      "able": 470,
      "um": 471,
      "ate": 472,
      "->": 473,
      "Item": 474,
      "10": 475,
      "tr": 476,
      "of": 477,
      "vi": 478,
      "ate_": 479,
      "d_": 480,
      "res": 481,
      "ma": 482,
      "pre": 483,
      "ze": 484,
      "call": 485,
      "//": 486,
      "ession": 487,
      "cess": 488,
      "gen": 489,
      "://": 490,
      "ses": 491,
      "\"#": 492,
      "auth": 493,
      "dict": 494,
      "\"],": 495,
      "Fi": 496,
      "sion": 497,
      "field": 498,
      "docs": 499,
      "42": 500,
      "respon": 501,
      "py3": 502,
      "\"#/": 503,
      "_in": 504,
      "fig": 505,
      "item_id": 506,
      "use": 507,
      "fun": 508,
      "level": 509,
      "pr": 510,
      "ody": 511,
      "denc": 512,
      "py310": 513,
      "responses": 514,
      "lin": 515,
      "back": 516,
      "ception": 517,
      "ers": 518,
      "key": 519,
      "wor": 520,
      "exam": 521,
      "shot": 522,
      "arg": 523,
      "sn": 524,
      ").": 525,
      "foo": 526,
      "optional": 527,
      "In": 528,
      "apshot": 529,
      "snapshot": 530,
      "met": 531,
      "flask": 532,
      "are": 533,
      "Base": 534,
      "coo": 535,
      "dependenc": 536,
      "Any": 537,
      "ction": 538,
      "ful": 539,
      "mod": 540,
      "cooki": 541,
      "query": 542,
      "ken": 543,
      "sg": 544,
      "fil": 545,
      "Id": 546,
      "headers": 547,
      "Requ": 548,
      "tutorial00": 549,
      "ock": 550,
      "gener": 551,
      "sum": 552,
      "alse": 553,
      "ust": 554,
      "False": 555,
      "Doc": 556,
      "rc": 557,
      "_path": 558,
      "Con": 559,
      "context": 560,
      "HTTPValidationError": 561,
      "\"$": 562,
      "router": 563,
      "_name": 564,
      "ne": 565,
      "mark": 566,
      "msg": 567,
      "end": 568,
      "docs_": 569,
      "dan": 570,
      "pass": 571,
      "422": 572,
      "ed_": 573,
      "mary": 574,
      "rect": 575,
      "Ex": 576,
      "..": 577,
      "{}": 578,
      "summary": 579,
      "Su": 580,
      "det": 581,
      "meth": 582,
      "version": 583,
      "inst": 584,
      "session": 585,
      "================": 586,
      "fix": 587,
      "Request": 588,
      "src": 589,
      "ise": 590,
      "read_": 591,
      "ow": 592,
      "The": 593,
      "ve": 594,
      "ill": 595,
      "cre": 596,
      "sing": 597,
      "config": 598,
      "ool": 599,
      "ccess": 600,
      "that": 601,
      "sub": 602,
      "essage": 603,
      "ds": 604,
      "tests": 605,
      "detail": 606,
      "valid": 607,
      "ger": 608,
      "proper": 609,
      "docs_src": 610,
      "_ex": 611,
      "_py310": 612,
      "ccessful": 613,
      "atch": 614,
      "raise": 615,
      "will": 616,
      "ype": 617,
      "https": 618,
      "Successful": 619,
      "BaseModel": 620,
      "function": 621,
      "ist": 622,
      "params": 623,
      "annot": 624,
      "Read": 625,
      "input": 626,
      "hand": 627,
      "operationId": 628,
      "token": 629,
      "curit": 630,
      "ime": 631,
      "this": 632,
      "by": 633,
      "uld": 634,
      "ties": 635,
      "Depen": 636,
      "ly": 637,
      "tu": 638,
      "templ": 639,
      "ody_": 640,
      "args": 641,
      "ain": 642,
      "we": 643,
      "ance": 644,
      "any": 645,
      "Type": 646,
      "word": 647,
      "_schema": 648,
      "properties": 649,
      "load": 650,
      "callback": 651,
      "print": 652,
      "method": 653,
      "cor": 654,
      "ule": 655,
      "ocket": 656,
      ":`": 657,
      "form": 658,
      "tic": 659,
      "----": 660,
      "annotation": 661,
      "ctx": 662,
      "route": 663,
      "ustom": 664,
      "ON": 665,
      "_s": 666,
      "ies": 667,
      "rv": 668,
      "example": 669,
      "parameters": 670,
      "_m": 671,
      "={\"": 672,
      "username": 673,
      "dantic": 674,
      "lib": 675,
      "log": 676,
      "rent": 677,
      "ho": 678,
      "requests": 679,
      "Call": 680,
      "Auth": 681,
      "tag": 682,
      "ded": 683,
      "body": 684,
      "verri": 685,
      "instance": 686,
      "pri": 687,
      "Of": 688,
      "clude_": 689,
      "Path": 690,
      "ig": 691,
      "len": 692,
      "rize": 693,
      "parametrize": 694,
      "Field": 695,
      "wr": 696,
      "comm": 697,
      "ou": 698,
      "p_": 699,
      "bool": 700,
      "ray": 701,
      "current": 702,
      "[{\"": 703,
      "ould": 704,
      "Depends": 705,
      "validation_alias": 706,
      "**": 707,
      "Th": 708,
      "sen": 709,
      "array": 710,
      "own": 711,
      "{}}": 712,
      "lue": 713,
      "more": 714,
      "about": 715,
      "bar": 716,
      "ings": 717,
      "extra": 718,
      "result": 719,
      "files": 720,
      "init": 721,
      "prox": 722,
      "overri": 723,
      "lueprint": 724,
      "This": 725,
      "ug": 726,
      "handl": 727,
      "price": 728,
      "Open": 729,
      "hel": 730,
      "\"),": 731,
      "securit": 732,
      "her": 733,
      "ator": 734,
      "den": 735,
      "pect": 736,
      "40": 737,
      "olo": 738,
      "tiang": 739,
      "tiangolo": 740,
      "info": 741,
      "num": 742,
      "lang": 743,
      "password": 744,
      "custom": 745,
      "ew": 746,
      "](": 747,
      "star": 748,
      "issing": 749,
      "socket": 750,
      "te": 751,
      "/\")": 752,
      "User": 753,
      "pes": 754,
      "als": 755,
      "cookie": 756,
      "host": 757,
      "response_model_ex": 758,
      "low": 759,
      "irect": 760,
      "users": 761,
      "used": 762,
      "anyOf": 763,
      "reg": 764,
      "response_": 765,
      "testclient": 766,
      "fa": 767,
      "wh": 768,
      "OpenAPI": 769,
      "Exception": 770,
      "ml": 771,
      "(\"/\")": 772,
      "Flask": 773,
      "web": 774,
      "current_": 775,
      "JS": 776,
      "JSON": 777,
      "ks": 778,
      "sco": 779,
      "no_": 780,
      "}\")": 781,
      "ron": 782,
      "/\",": 783,
      "Foo": 784,
      "should": 785,
      "dex": 786,
      "ples": 787,
      "time": 788,
      "#:": 789,
      "server": 790,
      "run": 791,
      "tes": 792,
      "handler": 793,
      "tags": 794,
      "view": 795,
      "bin": 796,
      "updat": 797,
      "_en": 798,
      "expect": 799,
      "prec": 800,
      "af": 801,
      "but": 802,
      "exception": 803,
      "point": 804,
      "Callable": 805,
      "iv": 806,
      "sed": 807,
      "{}}},": 808,
      "websocket": 809,
      "message": 810,
      "request_": 811,
      "sl": 812,
      "app_": 813,
      "__init": 814,
      "Qu": 815,
      "zation": 816,
      "dependencies": 817,
      "ture": 818,
      "ld": 819,
      "__init__": 820,
      "body_": 821,
      "url_": 822,
      "redirect": 823,
      "Query": 824,
      "has": 825,
      "state": 826,
      "ding": 827,
      "paths": 828,
      "line_": 829,
      "create_": 830,
      "us": 831,
      "_list": 832,
      "items_": 833,
      "with_": 834,
      "Rout": 835,
      "ulti": 836,
      "hello": 837,
      "html": 838,
      "template_": 839,
      "kw": 840,
      "ues": 841,
      "index": 842,
      "ment": 843,
      "override": 844,
      "ta": 845,
      "dependency": 846,
      "Se": 847,
      "gth": 848,
      "nect": 849,
      "uni": 850,
      "ery_": 851,
      "pydantic": 852,
      "need": 853,
      "/{": 854,
      "For": 855,
      "Body": 856,
      "ull": 857,
      "ally": 858,
      "inte": 859,
      "wa": 860,
      "kwargs": 861,
      "================================": 862,
      "query_": 863,
      "examples": 864,
      "numb": 865,
      "If": 866,
      "uration": 867,
      "module": 868,
      "start": 869,
      "integer": 870,
      "dis": 871,
      "::": 872,
      "else": 873,
      "down": 874,
      "ive": 875,
      "endpoint": 876,
      "_validation_alias": 877,
      "tings": 878,
      "max": 879,
      "precated": 880,
      "Message": 881,
      "values": 882,
      "do": 883,
      "und": 884,
      "prefix": 885,
      "in_": 886,
      "`.": 887,
      "UR": 888,
      "response_model_exclude_": 889,
      "include": 890,
      "httpbin": 891,
      "Ali": 892,
      "arn": 893,
      "attr": 894,
      "_type": 895,
      "Alias": 896,
      "Un": 897,
      "can": 898,
      "test_tutorial": 899,
      "added": 900,
      "status": 901,
      "missing": 902,
      "al_": 903,
      "viron": 904,
      "isinstance": 905,
      "importlib": 906,
      "wrapp": 907,
      "=[": 908,
      "It": 909,
      "Ser": 910,
      "fields": 911,
      "cept": 912,
      "Context": 913,
      "scheme": 914,
      "generated": 915,
      "[]": 916,
      "_url": 917,
      "ha": 918,
      "me": 919,
      "Py": 920,
      "iali": 921,
      "deprecated": 922,
      "URL": 923,
      "ib": 924,
      "T_": 925,
      "patch": 926,
      "ory": 927,
      "root": 928,
      "_info": 929,
      "Hel": 930,
      "act": 931,
      "sync": 932,
      "ize": 933,
      "uniqu": 934,
      "\"})": 935,
      "aut": 936,
      "multi": 937,
      "Session": 938,
      "thon": 939,
      "security": 940,
      "Hello": 941,
      "))": 942,
      "ping": 943,
      "led": 944,
      "arer": 945,
      "null": 946,
      "rais": 947,
      "path_": 948,
      "flo": 949,
      "inline_": 950,
      "inline_snapshot": 951,
      "test_openapi": 952,
      "func": 953,
      "you": 954,
      "})": 955,
      "float": 956,
      "]:": 957,
      "static": 958,
      "oauth": 959,
      "tutorial001": 960,
      "bytes": 961,
      "gin": 962,
      "File": 963,
      "db": 964,
      "dom": 965,
      "ict": 966,
      "sec": 967,
      "regist": 968,
      "ck": 969,
      "number": 970,
      "Input": 971,
      "12": 972,
      "He": 973,
      "_request": 974,
      "--------": 975,
      "needs_": 976,
      "domain": 977,
      "St": 978,
      "new": 979,
      "ary": 980,
      "typing": 981,
      "\"}]": 982,
      "coun": 983,
      "cookies": 984,
      "pat": 985,
      "orization": 986,
      "length": 987,
      "needs_py310": 988,
      "_error": 989,
      "__name": 990,
      "raises": 991,
      "ev": 992,
      "test_openapi_schema": 993,
      "/#": 994,
      "__get": 995,
      "Def": 996,
      "Coo": 997,
      "_by_": 998,
      "Cooki": 999,
      "ose": 1000,
      "denti": 1001,
      "__name__": 1002,
      "som": 1003,
      "ansl": 1004,
      "val_alias": 1005,
      "p_val_alias": 1006,
      "Header": 1007,
      "cer": 1008,
      "ub": 1009,
      "try": 1010,
      "_n": 1011,
      "default_": 1012,
      "wait": 1013,
      "av": 1014,
      "os": 1015,
      "pla": 1016,
      "Server": 1017,
      "])": 1018,
      "connect": 1019,
      "Config": 1020,
      "model_name": 1021,
      "prep": 1022,
      "Default": 1023,
      "50": 1024,
      "is_": 1025,
      "defaults": 1026,
      "Be": 1027,
      "Cookie": 1028,
      "`/": 1029,
      "entic": 1030,
      "let": 1031,
      "_get": 1032,
      "process": 1033,
      "after": 1034,
      "pas": 1035,
      "part": 1036,
      "main": 1037,
      "have": 1038,
      "tern": 1039,
      "generate_": 1040,
      "Ret": 1041,
      "blueprint": 1042,
      "dir": 1043,
      "settings": 1044,
      "...": 1045,
      "ible": 1046,
      "Cre": 1047,
      "Val": 1048,
      "ream": 1049,
      "bp": 1050,
      "}\"": 1051,
      "_with_": 1052,
      "hero": 1053,
      "ner": 1054,
      "add": 1055,
      "parameter": 1056,
      "when": 1057,
      "Form": 1058,
      "secret": 1059,
      "2_": 1060,
      "lob": 1061,
      "transl": 1062,
      "scope": 1063,
      "upload": 1064,
      "imple": 1065,
      "Par": 1066,
      "dentials": 1067,
      "Bearer": 1068,
      "GE": 1069,
      "mon": 1070,
      "ata": 1071,
      "allow": 1072,
      "dant": 1073,
      "_annotation": 1074,
      "lif": 1075,
      "direct": 1076,
      "filter": 1077,
      "add_": 1078,
      "Return": 1079,
      "max_": 1080,
      "warn": 1081,
      "seriali": 1082,
      "chang": 1083,
      "proxy": 1084,
      "ol": 1085,
      "iter": 1086,
      "lock": 1087,
      "OAuth": 1088,
      "ke_": 1089,
      "coding": 1090,
      "append": 1091,
      "fixture": 1092,
      "Pydantic": 1093,
      "RE": 1094,
      "lat": 1095,
      "callbacks": 1096,
      "ca": 1097,
      "hoo": 1098,
      "util": 1099,
      "APIRout": 1100,
      "asic": 1101,
      "Ap": 1102,
      "python": 1103,
      "cli": 1104,
      "wag": 1105,
      "pec": 1106,
      "ces": 1107,
      "ging": 1108,
      "match": 1109,
      "ield": 1110,
      "yield": 1111,
      "environ": 1112,
      "cert": 1113,
      "bug": 1114,
      "our": 1115,
      "ure": 1116,
      "env": 1117,
      "wagger": 1118,
      "_str": 1119,
      "other": 1120,
      "rst": 1121,
      "except": 1122,
      "~~": 1123,
      "En": 1124,
      "Le": 1125,
      "ribut": 1126,
      "Ad": 1127,
      "glob": 1128,
      "origin": 1129,
      "template": 1130,
      "ys": 1131,
      "decor": 1132,
      "local": 1133,
      "tax": 1134,
      "`,": 1135,
      "vis": 1136,
      "inj": 1137,
      "dependant": 1138,
      "Loc": 1139,
      "van": 1140,
      "exc": 1141,
      "Schem": 1142,
      "_data": 1143,
      "debug": 1144,
      "oh": 1145,
      "sit": 1146,
      "than": 1147,
      "p_alias": 1148,
      "var": 1149,
      "dep": 1150,
      "igno": 1151,
      "_and": 1152,
      "wer": 1153,
      "ence": 1154,
      "body_model_name": 1155,
      "\"{": 1156,
      ")):": 1157,
      "ey": 1158,
      "fin": 1159,
      "uil": 1160,
      "utf": 1161,
      "provi": 1162,
      "async_": 1163,
      "`).": 1164,
      "openapi_": 1165,
      "tuple": 1166,
      "ifi": 1167,
      "operation_id": 1168,
      "Level": 1169,
      "Det": 1170,
      "SE": 1171,
      "cal": 1172,
      "current_user": 1173,
      "visible": 1174,
      "Not": 1175,
      "only": 1176,
      "apter": 1177,
      "OAuth2": 1178,
      "ohn": 1179,
      "await": 1180,
      "encode": 1181,
      "etime": 1182,
      "close": 1183,
      "\"}],": 1184,
      "options": 1185,
      "register": 1186,
      "inja": 1187,
      "20": 1188,
      "ST": 1189,
      "mit": 1190,
      "ern": 1191,
      "parent": 1192,
      "HTTPException": 1193,
      "Location": 1194,
      "*.": 1195,
      "test_optional": 1196,
      "Authorization": 1197,
      "passed": 1198,
      "_dict": 1199,
      "man": 1200,
      "first": 1201,
      "logging": 1202,
      "unique_": 1203,
      "az": 1204,
      "ip": 1205,
      "defin": 1206,
      "vanc": 1207,
      "ID": 1208,
      "Key": 1209,
      "gro": 1210,
      "kze": 1211,
      "unset": 1212,
      "ify": 1213,
      "expected_": 1214,
      "kzeug": 1215,
      "{\"$": 1216,
      "fore": 1217,
      "results": 1218,
      "',": 1219,
      "on_": 1220,
      "curity": 1221,
      "security_": 1222,
      "Security": 1223,
      "response_class": 1224,
      "disc": 1225,
      "unique_id": 1226,
      "Str": 1227,
      "nam": 1228,
      "Value": 1229,
      "utils": 1230,
      "Pro": 1231,
      "pa": 1232,
      "tribut": 1233,
      "datetime": 1234,
      "We": 1235,
      "an_py310": 1236,
      "copy": 1237,
      "Detail": 1238,
      "Dict": 1239,
      "lder": 1240,
      "to_": 1241,
      "ussion": 1242,
      "generate_unique_id": 1243,
      "Param": 1244,
      "stream": 1245,
      "cover": 1246,
      "md": 1247,
      "invalid": 1248,
      "\").": 1249,
      "ages": 1250,
      "item_": 1251,
      "send": 1252,
      "scopes": 1253,
      "App": 1254,
      "atic": 1255,
      "before": 1256,
      "header_": 1257,
      "_alias_and": 1258,
      "command": 1259,
      "_alias_and_validation_alias": 1260,
      "500": 1261,
      "methods": 1262,
      "ignore": 1263,
      "min": 1264,
      "advanc": 1265,
      "proxies": 1266,
      "decorator": 1267,
      "Name": 1268,
      "_function": 1269,
      "update": 1270,
      "gr": 1271,
      "errors": 1272,
      "_content": 1273,
      "tra": 1274,
      "Up": 1275,
      "_router": 1276,
      "lean": 1277,
      "test_required": 1278,
      "Wor": 1279,
      "ead": 1280,
      "ght": 1281,
      "[\"/": 1282,
      "ithub": 1283,
      "output": 1284,
      "field_info": 1285,
      "credentials": 1286,
      "resp": 1287,
      "GET": 1288,
      "cookie_": 1289,
      "={": 1290,
      "To": 1291,
      "email": 1292,
      "types": 1293,
      "jinja": 1294,
      "configuration": 1295,
      "404": 1296,
      "monkey": 1297,
      "/).": 1298,
      "Set": 1299,
      "check": 1300,
      "ument": 1301,
      "Callback": 1302,
      "monkeypatch": 1303,
      "authentic": 1304,
      "dependency_": 1305,
      "login": 1306,
      "event": 1307,
      "/\":": 1308,
      "vo": 1309,
      "Fix": 1310,
      "401": 1311,
      "does": 1312,
      "Configuration": 1313,
      "Is": 1314,
      "fer": 1315,
      "ge": 1316,
      "prag": 1317,
      "multiple": 1318,
      "werkzeug": 1319,
      "World": 1320,
      "Socket": 1321,
      "idd": 1322,
      "exceptions": 1323,
      "Web": 1324,
      "pragma": 1325,
      "ant": 1326,
      "_module": 1327,
      "limit": 1328,
      "param_": 1329,
      "\"/\":": 1330,
      "read_items": 1331,
      "iddle": 1332,
      "WebSocket": 1333,
      "spec": 1334,
      "encoding": 1335,
      "instead": 1336,
      "some": 1337,
      "author": 1338,
      "generate": 1339,
      "ski": 1340,
      "marks": 1341,
      "_env": 1342,
      "lette": 1343,
      ".{": 1344,
      "idden": 1345,
      "Items": 1346,
      "called": 1347,
      "iddlew": 1348,
      "No": 1349,
      "WW": 1350,
      "github": 1351,
      "omatic": 1352,
      "_encode": 1353,
      "Create": 1354,
      "uploadfile": 1355,
      ".\"\"\"": 1356,
      "())": 1357,
      "lick": 1358,
      "model_": 1359,
      "_model_": 1360,
      "ign": 1361,
      "100": 1362,
      "_lin": 1363,
      "must": 1364,
      "ui": 1365,
      "rece": 1366,
      "_exception": 1367,
      "count": 1368,
      "gt": 1369,
      "ample": 1370,
      "char": 1371,
      "get_client": 1372,
      "format": 1373,
      "net": 1374,
      "pack": 1375,
      "contain": 1376,
      "super": 1377,
      "writ": 1378,
      "changed": 1379,
      "APIRouter": 1380,
      "iddleware": 1381,
      "dum": 1382,
      "ff": 1383,
      "ved": 1384,
      "ition": 1385,
      "comment": 1386,
      "automatic": 1387,
      "400": 1388,
      "Blueprint": 1389,
      "Com": 1390,
      "Gen": 1391,
      "TE": 1392,
      "jar": 1393,
      "swagger": 1394,
      "attribut": 1395,
      "parse": 1396,
      "params_": 1397,
      "*,": 1398,
      "ION": 1399,
      "List": 1400,
      "pan": 1401,
      "using": 1402,
      "right": 1403,
      "from_": 1404,
      "_models": 1405,
      "\"])": 1406,
      "_in_schema": 1407,
      "cess_": 1408,
      "import_module": 1409,
      "include_in_schema": 1410,
      "[[": 1411,
      "]):": 1412,
      "world": 1413,
      "custom_": 1414,
      "ML": 1415,
      "_post": 1416,
      "click": 1417,
      "rl": 1418,
      "DE": 1419,
      "ren": 1420,
      "ates": 1421,
      "test_tutorial00": 1422,
      "tear": 1423,
      "Schema": 1424,
      "Body_": 1425,
      "Get": 1426,
      "Url": 1427,
      "giv": 1428,
      "quence": 1429,
      "(),": 1430,
      "advanced": 1431,
      "Run": 1432,
      "_a": 1433,
      "testing": 1434,
      "validations": 1435,
      "place": 1436,
      "hooks": 1437,
      "skip": 1438,
      "=[\"": 1439,
      "tureRequest": 1440,
      "pattern": 1441,
      "ific": 1442,
      "FixtureRequest": 1443,
      "IN": 1444,
      "\"))": 1445,
      "_include": 1446,
      "req": 1447,
      "requestBody": 1448,
      "response_model_exclude_unset": 1449,
      "({\"": 1450,
      "30": 1451,
      "Custom": 1452,
      "was": 1453,
      "ther": 1454,
      "keys": 1455,
      "Co": 1456,
      "baz": 1457,
      "rule": 1458,
      "ero": 1459,
      "der_": 1460,
      "ive_": 1461,
      "warnings": 1462,
      "Option": 1463,
      "PO": 1464,
      "Pass": 1465,
      "_an_py310": 1466,
      "lt": 1467,
      "ager": 1468,
      "HTML": 1469,
      "Example": 1470,
      "123": 1471,
      "_file": 1472,
      "_by": 1473,
      "tutorial001_py310": 1474,
      "base": 1475,
      "none": 1476,
      "remo": 1477,
      "cript": 1478,
      "```": 1479,
      "expected": 1480,
      "Mod": 1481,
      "ps": 1482,
      "size": 1483,
      "().": 1484,
      "given": 1485,
      ".\"": 1486,
      "_app": 1487,
      "_header": 1488,
      "page": 1489,
      "users_": 1490,
      "update_": 1491,
      "auto": 1492,
      "Bar": 1493,
      "adapter": 1494,
      "timeout": 1495,
      "jinja_env": 1496,
      "_handler": 1497,
      "espan": 1498,
      "sure": 1499,
      "whi": 1500,
      "Unset": 1501,
      "_Unset": 1502,
      "case": 1503,
      "cate": 1504,
      "same": 1505,
      "tm": 1506,
      "oolean": 1507,
      "date": 1508,
      "SS": 1509,
      "sup": 1510,
      "folder": 1511,
      "_body_": 1512,
      "_encoder": 1513,
      "Gener": 1514,
      "</": 1515,
      "filen": 1516,
      "translation": 1517,
      "Module": 1518,
      "buil": 1519,
      "sock": 1520,
      "``.": 1521,
      "_missing": 1522,
      "dig": 1523,
      "_by_alias": 1524,
      "pres": 1525,
      "sp": 1526,
      "uct": 1527,
      "exist": 1528,
      "depends": 1529,
      "level1": 1530,
      "subdomain": 1531,
      "=\"/": 1532,
      "Basic": 1533,
      "_override": 1534,
      "response_model_include": 1535,
      "Cont": 1536,
      "discussion": 1537,
      "teardown": 1538,
      "block": 1539,
      "ql": 1540,
      "uff": 1541,
      "wright": 1542,
      "ywright": 1543,
      "exclude": 1544,
      "test_security_": 1545,
      "clas": 1546,
      "found": 1547,
      "response_model_exclude": 1548,
      "fake_": 1549,
      "Password": 1550,
      "my_": 1551,
      "pi": 1552,
      "invo": 1553,
      "versionadded": 1554,
      "new_": 1555,
      "cache": 1556,
      "ernal": 1557,
      "class_": 1558,
      "HE": 1559,
      "like": 1560,
      "(\"/\",": 1561,
      "level3": 1562,
      "session_": 1563,
      "extract": 1564,
      "JSONResponse": 1565,
      "16": 1566,
      "ME": 1567,
      "With": 1568,
      "here": 1569,
      "test_query_": 1570,
      "\"][\"": 1571,
      "callable": 1572,
      "prepare": 1573,
      "generate_unique_id_function": 1574,
      "Token": 1575,
      "support": 1576,
      "_no_": 1577,
      "pool": 1578,
      "test_request_": 1579,
      "send_": 1580,
      "langu": 1581,
      "hash": 1582,
      "One": 1583,
      "sys": 1584,
      "sent": 1585,
      "startup": 1586,
      "Data": 1587,
      "Im": 1588,
      "_code": 1589,
      "min_": 1590,
      "test_get_": 1591,
      "adata": 1592,
      "correct": 1593,
      "counter": 1594,
      "localhost": 1595,
      "task": 1596,
      "wrapped_": 1597,
      "ValueError": 1598,
      "fl": 1599,
      "()[\"": 1600,
      "ailable": 1601,
      "line": 1602,
      "Do": 1603,
      "OR": 1604,
      "You": 1605,
      "my": 1606,
      "test_path_": 1607,
      "routing": 1608,
      "----------------": 1609,
      "_annotation_": 1610,
      "equ": 1611,
      "could": 1612,
      "str_": 1613,
      "conver": 1614,
      "tial": 1615,
      "lib3": 1616,
      "owner": 1617,
      "available": 1618,
      "lifespan": 1619,
      "swagger_": 1620,
      "'\"": 1621,
      "ice": 1622,
      "john": 1623,
      "test_post": 1624,
      "compat": 1625,
      "now": 1626,
      "Pl": 1627,
      "_re": 1628,
      "lit": 1629,
      "utdown": 1630,
      "document": 1631,
      "shutdown": 1632,
      "Dep": 1633,
      "full": 1634,
      "runner": 1635,
      "static_": 1636,
      "connection": 1637,
      "serializ": 1638,
      "Content": 1639,
      "\"):": 1640,
      "Async": 1641,
      "ix": 1642,
      "}/": 1643,
      "stuff": 1644,
      "its": 1645,
      "_size": 1646,
      "filename": 1647,
      "LA": 1648,
      "_C": 1649,
      "ound": 1650,
      "_match": 1651,
      "tmp": 1652,
      "Wh": 1653,
      "mode": 1654,
      ":`~": 1655,
      "starlette": 1656,
      "POST": 1657,
      "flat": 1658,
      "ctions": 1659,
      "params_str_": 1660,
      "chil": 1661,
      "metadata": 1662,
      "tutorial003": 1663,
      "versionchanged": 1664,
      "!=": 1665,
      "Hero": 1666,
      "bro": 1667,
      "elif": 1668,
      "mali": 1669,
      "non": 1670,
      "ok": 1671,
      "ating": 1672,
      "_token": 1673,
      "include_": 1674,
      "root_path": 1675,
      "directly": 1676,
      "defined": 1677,
      "automatically": 1678,
      "Optional": 1679,
      "Tag": 1680,
      "would": 1681,
      "apping": 1682,
      "emb": 1683,
      "modi": 1684,
      "Connect": 1685,
      "sync_": 1686,
      "unique": 1687,
      "modifi": 1688,
      "Dis": 1689,
      "so": 1690,
      "ans": 1691,
      "Info": 1692,
      "Invalid": 1693,
      "context_": 1694,
      "response_model_exclude_defaults": 1695,
      "UT": 1696,
      "ep": 1697,
      "make_": 1698,
      "oauth2_": 1699,
      "playwright": 1700,
      "boolean": 1701,
      "cid": 1702,
      "ft": 1703,
      "simple": 1704,
      "}\":": 1705,
      "user_id": 1706,
      "_invalid": 1707,
      "no_response_model": 1708,
      "names": 1709,
      "attribute": 1710,
      "_extra": 1711,
      "col": 1712,
      "api_": 1713,
      "ated_": 1714,
      "urllib3": 1715,
      "routes": 1716,
      "Decor": 1717,
      "les": 1718,
      "separ": 1719,
      "ing_": 1720,
      "\"][": 1721,
      "Requests": 1722,
      "sub_": 1723,
      "ource": 1724,
      "cim": 1725,
      "ins": 1726,
      "order": 1727,
      "verse": 1728,
      "_blueprint": 1729,
      "link": 1730,
      "handle": 1731,
      "template_filter": 1732,
      "wrapper": 1733,
      "which": 1734,
      "include_router": 1735,
      "By": 1736,
      "ared": 1737,
      "how": 1738,
      "sor": 1739,
      "ash": 1740,
      "image": 1741,
      "very": 1742,
      "abel": 1743,
      "access_": 1744,
      "umb": 1745,
      "~~~~": 1746,
      "manager": 1747,
      "2_py310": 1748,
      "ER": 1749,
      "On": 1750,
      "TION": 1751,
      "ting": 1752,
      "decode": 1753,
      "aph": 1754,
      "abc": 1755,
      "Dependenc": 1756,
      "current_app": 1757,
      "multipart": 1758,
      "Add": 1759,
      "global": 1760,
      "String": 1761,
      "Upload": 1762,
      "')": 1763,
      "NA": 1764,
      "Other": 1765,
      "]]": 1766,
      "xy": 1767,
      "hed": 1768,
      "=====": 1769,
      "Sub": 1770,
      "subclass": 1771,
      "fact": 1772,
      "processor": 1773,
      "ModuleType": 1774,
      "tmp_path": 1775,
      "When": 1776,
      "Len": 1777,
      "tx": 1778,
      "partial": 1779,
      "json_schema": 1780,
      "access_token": 1781,
      "('": 1782,
      "OK": 1783,
      "Operation": 1784,
      "ered": 1785,
      "less": 1786,
      "ww": 1787,
      "ind": 1788,
      "pop": 1789,
      "proxy_": 1790,
      "Settings": 1791,
      "categ": 1792,
      "AD": 1793,
      "Warn": 1794,
      "dif": 1795,
      "script": 1796,
      "head": 1797,
      "exclude_": 1798,
      "verify": 1799,
      "_block": 1800,
      "uments": 1801,
      "level2": 1802,
      "Required": 1803,
      "redirects": 1804,
      "language": 1805,
      ">>": 1806,
      "John": 1807,
      "_2": 1808,
      "ity": 1809,
      "edi": 1810,
      "ick": 1811,
      "_sco": 1812,
      "graph": 1813,
      "UploadFile": 1814,
      "differ": 1815,
      "01": 1816,
      "sign": 1817,
      "reat": 1818,
      "jsonable": 1819,
      "not_": 1820,
      "location": 1821,
      "level4": 1822,
      "url_for": 1823,
      "_bytes": 1824,
      "jsonable_encoder": 1825,
      "middleware": 1826,
      "without": 1827,
      "=====================": 1828,
      "================================================================": 1829,
      "oauth2": 1830,
      "Proxy": 1831,
      "doesn": 1832,
      "Only": 1833,
      "Length": 1834,
      "Warning": 1835,
      "=====================================================================================": 1836,
      ".\")": 1837,
      "_un": 1838,
      "_server": 1839,
      "io": 1840,
      "inter": 1841,
      "route_": 1842,
      "overrides": 1843,
      "doe": 1844,
      "response_model_exclude_none": 1845,
      "addition": 1846,
      "provided": 1847,
      "test_optional_list": 1848,
      "different": 1849,
      "IO": 1850,
      "_item_id": 1851,
      "_session": 1852,
      "{},": 1853,
      "ules": 1854,
      "cls": 1855,
      "tutorial002_py310": 1856,
      "read_items_": 1857,
      "original": 1858,
      "group": 1859,
      "UI": 1860,
      "ach": 1861,
      "ost": 1862,
      "qa": 1863,
      "your": 1864,
      "callback0": 1865,
      "OAuth2Password": 1866,
      "item_items_": 1867,
      "IsOne": 1868,
      "johndoe": 1869,
      "factory": 1870,
      "IsOneOf": 1871,
      "+=": 1872,
      "MA": 1873,
      "]}": 1874,
      "_value": 1875,
      "recor": 1876,
      "Authentic": 1877,
      "ous": 1878,
      "template_test": 1879,
      "Code": 1880,
      "80": 1881,
      "v1": 1882,
      "want": 1883,
      "sequence": 1884,
      "replace": 1885,
      "ponsor": 1886,
      "ark": 1887,
      "eth": 1888,
      "returned": 1889,
      "thread": 1890,
      "__post": 1891,
      "noqa": 1892,
      "_body": 1893,
      "may": 1894,
      "gen_": 1895,
      "functions": 1896,
      "render_": 1897,
      "label": 1898,
      "repr": 1899,
      "generator": 1900,
      "serialization": 1901,
      "define": 1902,
      "txt": 1903,
      "PA": 1904,
      "Pre": 1905,
      "bidden": 1906,
      "dot": 1907,
      "pet": 1908,
      "ard": 1909,
      "client_": 1910,
      "loader": 1911,
      "redoc": 1912,
      "plac": 1913,
      "wrapped": 1914,
      "registered": 1915,
      "hook": 1916,
      "Doe": 1917,
      "embed": 1918,
      "_of": 1919,
      "_func": 1920,
      "ted": 1921,
      "strip": 1922,
      "links": 1923,
      "websocket_": 1924,
      "package": 1925,
      "dumps": 1926,
      "flat_": 1927,
      "Decorated": 1928,
      "Mark": 1929,
      "ide": 1930,
      "imum": 1931,
      "external": 1932,
      "posit": 1933,
      "``,": 1934,
      "ling": 1935,
      "register_blueprint": 1936,
      "WWW": 1937,
      "swagger_ui": 1938,
      "Authenticate": 1939,
      "Inc": 1940,
      "Jar": 1941,
      "jo": 1942,
      "en_": 1943,
      "clients": 1944,
      "item2": 1945,
      "APIKey": 1946,
      "setdefault": 1947,
      "file_size": 1948,
      "common": 1949,
      "url_prefix": 1950,
      "CookieJar": 1951,
      "DecoratedCallable": 1952,
      "\".": 1953,
      "19": 1954,
      "].": 1955,
      "swith": 1956,
      "decim": 1957,
      "reverse": 1958,
      "all_": 1959,
      "authenticated": 1960,
      "_lines": 1961,
      "edia": 1962,
      "reater": 1963,
      "PR": 1964,
      "_types": 1965,
      "ionError": 1966,
      "chun": 1967,
      "http_": 1968,
      "router_": 1969,
      "lower": 1970,
      "heroes": 1971,
      "write": 1972,
      "min_length": 1973,
      "child": 1974,
      "umbus": 1975,
      "Ma": 1976,
      "Overri": 1977,
      "hist": 1978,
      "emp": 1979,
      "getattr": 1980,
      "_in_": 1981,
      "arguments": 1982,
      "create": 1983,
      "handlers": 1984,
      "403": 1985,
      "specific": 1986,
      "split": 1987,
      "full_name": 1988,
      "Des": 1989,
      "da": 1990,
      "item1": 1991,
      "dataclass": 1992,
      "response_model_by_alias": 1993,
      "abled": 1994,
      "authorization": 1995,
      "diction": 1996,
      "parts": 1997,
      "hidden": 1998,
      "larg": 1999,
      "test_tutorial001": 2000,
      "read_model_": 2001,
      "active": 2002,
      "APIRoute": 2003,
      "Dependency": 2004,
      "\"\\": 2005,
      "Var": 2006,
      "ili": 2007,
      "v2": 2008,
      "vent": 2009,
      "strict": 2010,
      "path5": 2011,
      "abort": 2012,
      "ValidationAlias": 2013,
      "setup": 2014,
      "operation_": 2015,
      "ModelOptional": 2016,
      "ModelRequired": 2017,
      "lines": 2018,
      "word_": 2019,
      "url_rule": 2020,
      "Route": 2021,
      "openapi_extra": 2022,
      "expected_response": 2023,
      "Paramet": 2024,
      "auto_error": 2025,
      "my_reverse": 2026,
      "read_items_items_": 2027,
      "\"<": 2028,
      "_dir": 2029,
      "last": 2030,
      "struct": 2031,
      "age_": 2032,
      "d_name": 2033,
      "modules": 2034,
      "sensit": 2035,
      "face": 2036,
      "ways": 2037,
      "_by_name": 2038,
      "ternal": 2039,
      "environment": 2040,
      "malin": 2041,
      "colle": 2042,
      "empty": 2043,
      "dictionary": 2044,
      "Al": 2045,
      "Hand": 2046,
      "OP": 2047,
      "ench": 2048,
      "typer": 2049,
      "ular": 2050,
      "contin": 2051,
      "operations": 2052,
      "fixed_": 2053,
      "numbers": 2054,
      "Python": 2055,
      "directory": 2056,
      "vari": 2057,
      "Fil": 2058,
      "_default_": 2059,
      "kes": 2060,
      "mess": 2061,
      "nest": 2062,
      "rim": 2063,
      "sur": 2064,
      "ws": 2065,
      "quot": 2066,
      "there": 2067,
      "test_client": 2068,
      "data_path": 2069,
      "{})": 2070,
      "implement": 2071,
      "olv": 2072,
      "history": 2073,
      "Description": 2074,
      "rimin": 2075,
      "AL": 2076,
      "Vi": 2077,
      "they": 2078,
      "delta": 2079,
      "ModelField": 2080,
      "Adapter": 2081,
      "dependency_overrides": 2082,
      "digest": 2083,
      "_matching": 2084,
      "Disc": 2085,
      "Enum": 2086,
      "ir": 2087,
      "uid": 2088,
      "lete": 2089,
      "anch": 2090,
      "\")],": 2091,
      "scheme_": 2092,
      "ome": 2093,
      "use_": 2094,
      "backgro": 2095,
      "password_": 2096,
      "response_description": 2097,
      "provide": 2098,
      "invoke": 2099,
      "static_folder": 2100,
      "params_str_validations": 2101,
      "inspect": 2102,
      "join": 2103,
      "continue": 2104,
      "LI": 2105,
      "My": 2106,
      "Or": 2107,
      "_to_": 2108,
      "ts": 2109,
      "org": 2110,
      "comput": 2111,
      "file_": 2112,
      "regex": 2113,
      "included": 2114,
      "_none": 2115,
      "authentication": 2116,
      "tutorial003_py310": 2117,
      "Override": 2118,
      "ility": 2119,
      "Red": 2120,
      "by_": 2121,
      "ry": 2122,
      "wo": 2123,
      "}\",": 2124,
      "hed_": 2125,
      "admin": 2126,
      "_paths": 2127,
      "property": 2128,
      ":`.": 2129,
      "create_app": 2130,
      "max_length": 2131,
      "openapi_examples": 2132,
      "Update": 2133,
      "equal": 2134,
      "separate_": 2135,
      "Lo": 2136,
      "_field": 2137,
      "fect": 2138,
      "expi": 2139,
      "returns": 2140,
      "permalin": 2141,
      "raw": 2142,
      "int_": 2143,
      "show": 2144,
      "get_stuff": 2145,
      "ready": 2146,
      "subprocess": 2147,
      "templates": 2148,
      "_map": 2149,
      "login_": 2150,
      "timeError": 2151,
      "affect": 2152,
      "pydantic_": 2153,
      "add_url_rule": 2154,
      "test_required_list": 2155,
      "RuntimeError": 2156,
      "SSL": 2157,
      "TIONS": 2158,
      "NAME": 2159,
      "render_template": 2160,
      "places": 2161,
      "View": 2162,
      "At": 2163,
      "GI": 2164,
      "Pri": 2165,
      "_for": 2166,
      "_request_": 2167,
      "_NAME": 2168,
      "ge_": 2169,
      "sort": 2170,
      "see": 2171,
      "inclu": 2172,
      "\")]": 2173,
      "those": 2174,
      "datab": 2175,
      "Reg": 2176,
      "strings": 2177,
      "get_body_model_name": 2178,
      "accept": 2179,
      "off": 2180,
      "useful": 2181,
      "level5": 2182,
      "work": 2183,
      "view_func": 2184,
      "Union": 2185,
      "Star": 2186,
      "SER": 2187,
      "discrimin": 2188,
      "tasks": 2189,
      "json_schema_extra": 2190,
      "Redirect": 2191,
      "Ch": 2192,
      "Event": 2193,
      "[],": 2194,
      "_RE": 2195,
      "each": 2196,
      "rtype": 2197,
      "ssl": 2198,
      "uuid": 2199,
      "reas": 2200,
      "()):": 2201,
      "()]):": 2202,
      "param_name": 2203,
      "und_": 2204,
      "uplic": 2205,
      "optional_list": 2206,
      "Internal": 2207,
      "read_text": 2208,
      "extra_data": 2209,
      "Sequence": 2210,
      "Credentials": 2211,
      "preser": 2212,
      "_scopes": 2213,
      "commons": 2214,
      "Discussion": 2215,
      "!\"": 2216,
      "As": 2217,
      "SGI": 2218,
      "_c": 2219,
      "_ctx": 2220,
      "nor": 2221,
      "zip": 2222,
      "ory_": 2223,
      "codes": 2224,
      "cond": 2225,
      "errorhandler": 2226,
      "tutorial004": 2227,
      "Router": 2228,
      "started": 2229,
      "...,": 2230,
      "write_": 2231,
      "supported": 2232,
      "graphql": 2233,
      "dotenv": 2234,
      "messages": 2235,
      "##": 2236,
      "/\"": 2237,
      "Out": 2238,
      "VER": 2239,
      "_form": 2240,
      "mer": 2241,
      "relat": 2242,
      "oth": 2243,
      "logger": 2244,
      "wrap": 2245,
      "also": 2246,
      "startswith": 2247,
      "Stream": 2248,
      "globals": 2249,
      "trace": 2250,
      "brow": 2251,
      "item_items__item_id": 2252,
      "edia_type": 2253,
      "reason": 2254,
      "Dig": 2255,
      "basic": 2256,
      "greater": 2257,
      "ong": 2258,
      "into": 2259,
      "intern": 2260,
      "doc_lines": 2261,
      "HTTPBasic": 2262,
      "fixed": 2263,
      "read_current_user": 2264,
      "sub_router": 2265,
      "annotation_": 2266,
      "cookiejar": 2267,
      "original_": 2268,
      "receiv": 2269,
      "charset": 2270,
      "Runner": 2271,
      "swagger_ui_": 2272,
      "collections": 2273,
      "browser": 2274,
      "Digest": 2275,
      ".\",": 2276,
      "goo": 2277,
      "me_": 2278,
      "tar": 2279,
      "}:": 2280,
      "dep_": 2281,
      "lear": 2282,
      "set_": 2283,
      "\"]}": 2284,
      "key_": 2285,
      "make": 2286,
      "created": 2287,
      "ight": 2288,
      "template_global": 2289,
      "pared": 2290,
      "discussion_": 2291,
      "Prepared": 2292,
      "read_items_items__get": 2293,
      "_version": 2294,
      "_custom": 2295,
      "`)": 2296,
      "over": 2297,
      "ually": 2298,
      "lied": 2299,
      "exit": 2300,
      "\")])": 2301,
      "parsed": 2302,
      "return_": 2303,
      "comple": 2304,
      "Extra": 2305,
      "holder": 2306,
      "_nan": 2307,
      "hero_id": 2308,
      "pace": 2309,
      "convert": 2310,
      "surname": 2311,
      "35": 2312,
      "Cli": 2313,
      "EN": 2314,
      "Post": 2315,
      "_get_": 2316,
      "hron": 2317,
      "uses": 2318,
      "wise": 2319,
      "ensure": 2320,
      "ority": 2321,
      "ute": 2322,
      "parsing": 2323,
      "return_invalid": 2324,
      "union": 2325,
      "__call": 2326,
      "_model1": 2327,
      "get_current_user": 2328,
      "_ids": 2329,
      "_sync": 2330,
      "default_factory": 2331,
      "_with_extra_data": 2332,
      "finally": 2333,
      "copy_": 2334,
      "grant": 2335,
      "scripts": 2336,
      "IncEx": 2337,
      "discriminator": 2338,
      "CliRunner": 2339,
      "__call__": 2340,
      "grant_type": 2341,
      ")],": 2342,
      "Json": 2343,
      "_1": 2344,
      "_default": 2345,
      "bound": 2346,
      "cap": 2347,
      "once": 2348,
      "repo": 2349,
      "arch": 2350,
      "always": 2351,
      "unt": 2352,
      "bearer": 2353,
      "setting": 2354,
      "nocover": 2355,
      "refer": 2356,
      "no_proxy": 2357,
      "Environ": 2358,
      "remov": 2359,
      "sensitive": 2360,
      "fixed_content": 2361,
      "Price": 2362,
      "PreparedRequest": 2363,
      "/?": 2364,
      "Buil": 2365,
      "Send": 2366,
      "TH": 2367,
      "Use": 2368,
      "bp_": 2369,
      "duplic": 2370,
      "media_type": 2371,
      "next": 2372,
      "ension": 2373,
      "orsel": 2374,
      "extend": 2375,
      "code_block": 2376,
      "models": 2377,
      "ify_": 2378,
      "process_": 2379,
      "\"}),": 2380,
      "_inf": 2381,
      "single": 2382,
      "TypeError": 2383,
      "instance_": 2384,
      "common_": 2385,
      "app_ctx": 2386,
      "prepared": 2387,
      "ING": 2388,
      "serialization_alias": 2389,
      "chunk": 2390,
      "nested": 2391,
      ")]": 2392,
      "17": 2393,
      "DB": 2394,
      "Time": 2395,
      "_query": 2396,
      "know": 2397,
      "two": 2398,
      "ent_": 2399,
      "applied": 2400,
      "__file": 2401,
      "ables": 2402,
      "Annotation": 2403,
      "handling": 2404,
      "load_": 2405,
      "lang_code": 2406,
      "unicode": 2407,
      "allow_inf": 2408,
      "receive_": 2409,
      "netrc": 2410,
      "allow_inf_nan": 2411,
      ")\"": 2412,
      "_output": 2413,
      "ci": 2414,
      "git": 2415,
      "sql": 2416,
      "tot": 2417,
      "where": 2418,
      "x_": 2419,
      "delete": 2420,
      "stem": 2421,
      "ell": 2422,
      "Ref": 2423,
      "true": 2424,
      "foobar": 2425,
      "loads": 2426,
      "timedelta": 2427,
      "hashed_": 2428,
      "=[(\"": 2429,
      "named_": 2430,
      "Generator": 2431,
      "digits": 2432,
      "class_instance_": 2433,
      "Starlette": 2434,
      "relative": 2435,
      "_custom_name": 2436,
      "__file__": 2437,
      "hashed_password": 2438,
      "([\"": 2439,
      "Iter": 2440,
      "Middleware": 2441,
      "][\"": 2442,
      "clear": 2443,
      "ec": 2444,
      "fail": 2445,
      "ges": 2446,
      "ments": 2447,
      "sav": 2448,
      "tim": 2449,
      "ine": 2450,
      "ames": 2451,
      "get_user": 2452,
      "HTTP_": 2453,
      "formation": 2454,
      "fake": 2455,
      "See": 2456,
      "Undefined": 2457,
      "some_": 2458,
      "Level5": 2459,
      "attributes": 2460,
      "Generate": 2461,
      "documentation": 2462,
      "background_": 2463,
      "(*": 2464,
      "25": 2465,
      "Case": 2466,
      "['": 2467,
      "ak": 2468,
      "mock": 2469,
      "ng": 2470,
      "wind": 2471,
      "already": 2472,
      "client_id": 2473,
      "context_b": 2474,
      "TypeVar": 2475,
      "views": 2476,
      "disabled": 2477,
      "authors": 2478,
      "charact": 2479,
      "Import": 2480,
      "flat_dependant": 2481,
      "norm": 2482,
      "fixedquery": 2483,
      "\"'": 2484,
      "K_": 2485,
      "Man": 2486,
      "S_": 2487,
      "Tem": 2488,
      "_class": 2489,
      "don": 2490,
      "lass": 2491,
      "mk": 2492,
      "rb": 2493,
      "source": 2494,
      "dered": 2495,
      "information": 2496,
      "led_": 2497,
      "()],": 2498,
      "json_": 2499,
      "clo": 2500,
      "ders": 2501,
      "sessions": 2502,
      "priority": 2503,
      "precation": 2504,
      "create_item": 2505,
      "Seriali": 2506,
      "[]}": 2507,
      "filters": 2508,
      "ification": 2509,
      "test_request_context": 2510,
      "_CO": 2511,
      "modified": 2512,
      "OPTIONS": 2513,
      "password_hash": 2514,
      "Templ": 2515,
      "Swagger": 2516,
      "_params": 2517,
      "_options": 2518,
      "just": 2519,
      "op": 2520,
      "oid": 2521,
      "png": 2522,
      "zer": 2523,
      "ince": 2524,
      "amb": 2525,
      "too": 2526,
      "forbidden": 2527,
      "content_type": 2528,
      "required_list": 2529,
      "plain": 2530,
      "HTTPAdapter": 2531,
      "main_": 2532,
      "level0": 2533,
      "line_no": 2534,
      "blueprints": 2535,
      "provider": 2536,
      "close_server": 2537,
      "expected_status": 2538,
      "custom_response": 2539,
      "HTMLResponse": 2540,
      "flag": 2541,
      "modified_": 2542,
      "api_key": 2543,
      "additional_": 2544,
      "OAuth2PasswordBearer": 2545,
      "SERVER": 2546,
      ")]):": 2547,
      "Class": 2548,
      "DO": 2549,
      "Lin": 2550,
      "_response": 2551,
      "_schemas": 2552,
      "_context": 2553,
      "_uploadfile": 2554,
      "_redirects": 2555,
      "bench": 2556,
      "every": 2557,
      "pick": 2558,
      "ress": 2559,
      "ranch": 2560,
      "saf": 2561,
      "sive": 2562,
      "sponsor": 2563,
      "wsg": 2564,
      "eric": 2565,
      "exec": 2566,
      "edges": 2567,
      "import_name": 2568,
      "item_name": 2569,
      "consum": 2570,
      "test_app": 2571,
      "0000": 2572,
      "alias_": 2573,
      "value_": 2574,
      "file_path": 2575,
      "_path_": 2576,
      "input_output": 2577,
      "tuples": 2578,
      "lows": 2579,
      "query_params_str_validations": 2580,
      "translated_": 2581,
      "Returns": 2582,
      "test_path_param_": 2583,
      "decimal_": 2584,
      "Parameter": 2585,
      "separate_input_output": 2586,
      "expires": 2587,
      "wsgi": 2588,
      "separate_input_output_schemas": 2589,
      ">\")": 2590,
      "Found": 2591,
      "Mapping": 2592,
      "PE": 2593,
      "Wr": 2594,
      "[...,": 2595,
      "catch": 2596,
      "hin": 2597,
      "ial": 2598,
      "ject": 2599,
      "rary": 2600,
      "sy": 2601,
      "ature": 2602,
      "devel": 2603,
      "enum": 2604,
      "stack": 2605,
      "lease": 2606,
      "definit": 2607,
      "uri": 2608,
      "test_put": 2609,
      "000": 2610,
      "__version": 2611,
      "And": 2612,
      "cho": 2613,
      "\"}},": 2614,
      "Deprecation": 2615,
      "Insensitive": 2616,
      "securitySchem": 2617,
      "old_": 2618,
      "find": 2619,
      "_post_": 2620,
      "owner_ids": 2621,
      "Pla": 2622,
      "www": 2623,
      "setupmethod": 2624,
      "database": 2625,
      "CaseInsensitive": 2626,
      "[]}],": 2627,
      "SERVER_NAME": 2628,
      "alias_priority": 2629,
      "definition": 2630,
      "__version__": 2631,
      "DeprecationWarning": 2632,
      "securitySchemes": 2633,
      "CaseInsensitiveDict": 2634,
      "(**": 2635,
      "14": 2636,
      "Bad": 2637,
      "IE": 2638,
      "TY": 2639,
      "Ta": 2640,
      "eded": 2641,
      "fr": 2642,
      "exp": 2643,
      "pathlib": 2644,
      "tutorial005": 2645,
      "ugh": 2646,
      "ibility": 2647,
      "someth": 2648,
      "max_age": 2649,
      "max_digits": 2650,
      "Encoding": 2651,
      "SESS": 2652,
      "AppContext": 2653,
      "decorators": 2654,
      "multiple_of": 2655,
      "itional": 2656,
      "users_me_": 2657,
      ">>>": 2658,
      "interface": 2659,
      "offset": 2660,
      "Template": 2661,
      "Link": 2662,
      "benchmark": 2663,
      "decimal_places": 2664,
      "TYPE": 2665,
      "LO": 2666,
      "Liter": 2667,
      "So": 2668,
      "Text": 2669,
      "VAL": 2670,
      "_level": 2671,
      "_oauth": 2672,
      "_PA": 2673,
      "branch": 2674,
      "go": 2675,
      "istr": 2676,
      "lamb": 2677,
      "sim": 2678,
      "rough": 2679,
      "ures": 2680,
      "portal": 2681,
      "return_dict": 2682,
      "codeError": 2683,
      "objects": 2684,
      "_inst": 2685,
      "Docs": 2686,
      "router_b": 2687,
      "router_a": 2688,
      "were": 2689,
      "commit": 2690,
      "numeric": 2691,
      "UserIn": 2692,
      "registr": 2693,
      "_by_validation_alias": 2694,
      "cause": 2695,
      "Level0": 2696,
      "pay": 2697,
      "ixin": 2698,
      "context_processor": 2699,
      "permalinks": 2700,
      "tutorial004_py310": 2701,
      "received": 2702,
      "Timeout": 2703,
      "save_": 2704,
      "ImportError": 2705,
      "Literal": 2706,
      "18": 2707,
      "BU": 2708,
      "Baz": 2709,
      "CK": 2710,
      "Ro": 2711,
      "Sco": 2712,
      "Task": 2713,
      "_count": 2714,
      "ear": 2715,
      "sa": 2716,
      "ss": 2717,
      "err": 2718,
      "issubclass": 2719,
      "test_get": 2720,
      "test_read_": 2721,
      "internal": 2722,
      "abs": 2723,
      "access": 2724,
      "setattr": 2725,
      "applicable": 2726,
      "locks": 2727,
      "vice": 2728,
      "validate": 2729,
      "tokenUrl": 2730,
      "callback1": 2731,
      "annotations": 2732,
      "_environ": 2733,
      "Defaults": 2734,
      "warning": 2735,
      "before_request": 2736,
      "commands": 2737,
      "receive": 2738,
      "compatibility": 2739,
      "SESSION": 2740,
      "lambda": 2741,
      "\"\",": 2742,
      "CA": 2743,
      "CE": 2744,
      "Gro": 2745,
      "OO": 2746,
      "WSGI": 2747,
      "_user": 2748,
      "_fix": 2749,
      "_examples": 2750,
      "fron": 2751,
      "ged": 2752,
      "ler": 2753,
      "morsel": 2754,
      "pages": 2755,
      "rel": 2756,
      "sto": 2757,
      "edError": 2758,
      "test_path": 2759,
      "test_response_model": 2760,
      "test_override": 2761,
      "pers": 2762,
      "plumbus": 2763,
      "nodes": 2764,
      "_basic": 2765,
      "resolv": 2766,
      "contextmanager": 2767,
      "hostname": 2768,
      "app_context": 2769,
      "dispatch": 2770,
      "root_dir": 2771,
      "_errors": 2772,
      "pass_": 2773,
      "Callback0": 2774,
      "contains": 2775,
      "HEAD": 2776,
      "serialized": 2777,
      "callback0__get": 2778,
      "192": 2779,
      "including": 2780,
      "prepared_request": 2781,
      "receive_text": 2782,
      "Group": 2783,
      "\"-": 2784,
      ")}": 2785,
      "26": 2786,
      ">`": 2787,
      "TI": 2788,
      "ZE": 2789,
      "_3": 2790,
      "_auth": 2791,
      "_html": 2792,
      "a_": 2793,
      "bet": 2794,
      "mail": 2795,
      "stand": 2796,
      "ite": 2797,
      "ped": 2798,
      "()]": 2799,
      "requi": 2800,
      "test_header_": 2801,
      "loa": 2802,
      "__put": 2803,
      "get_path_": 2804,
      "openapi_url": 2805,
      "callback2": 2806,
      "callback3": 2807,
      "callback_router": 2808,
      "_same": 2809,
      "_simple": 2810,
      "_multi": 2811,
      "_mapping": 2812,
      "binary": 2813,
      "undle": 2814,
      "tutorial001_an_py310": 2815,
      "secure": 2816,
      "removed": 2817,
      "adapters": 2818,
      "present": 2819,
      "pool_": 2820,
      "implementation": 2821,
      "IZE": 2822,
      "_from": 2823,
      "_prefix": 2824,
      "atus": 2825,
      "as_": 2826,
      "hether": 2827,
      "\"\")": 2828,
      "test_invalid": 2829,
      "param_models": 2830,
      "ably": 2831,
      "prob": 2832,
      "setenv": 2833,
      "applications": 2834,
      "omit": 2835,
      "fol": 2836,
      "validations_": 2837,
      "ackgro": 2838,
      "resource": 2839,
      "tutorial006": 2840,
      "Exit": 2841,
      "submodel": 2842,
      "raised": 2843,
      "cker": 2844,
      "Status": 2845,
      "python_types": 2846,
      "cli_": 2847,
      "global_": 2848,
      "exc_info": 2849,
      "expected_content": 2850,
      "168": 2851,
      "test_query_params_str_": 2852,
      "_no_annotation_": 2853,
      "flash": 2854,
      "oauth2_scheme": 2855,
      "large": 2856,
      "Discussions": 2857,
      "sub_router_": 2858,
      "known": 2859,
      "background_tasks": 2860,
      "front": 2861,
      "test_query_params_str_validations_": 2862,
      "Che": 2863,
      "ND": 2864,
      "bit": 2865,
      "la": 2866,
      "mim": 2867,
      "ush": 2868,
      "zed": 2869,
      "still": 2870,
      "app_name": 2871,
      "test_files": 2872,
      "tifi": 2873,
      "such": 2874,
      "licit": 2875,
      "short": 2876,
      "get_db": 2877,
      "calls": 2878,
      "Invo": 2879,
      "IdConnect": 2880,
      "instal": 2881,
      "RequestValidationError": 2882,
      "_spec": 2883,
      "help": 2884,
      "url_defaults": 2885,
      "Sec": 2886,
      "_url_path": 2887,
      "URLs": 2888,
      "static_url_path": 2889,
      "certifi": 2890,
      "allowed": 2891,
      "Body_create_": 2892,
      "test_request_params": 2893,
      "--------------------------------": 2894,
      "equals": 2895,
      "LAS": 2896,
      "broken": 2897,
      "oauth2_redirect": 2898,
      "no_response_model_annotation_": 2899,
      "OKIE": 2900,
      "pository": 2901,
      "hronous": 2902,
      "copy_test_files": 2903,
      "ensions": 2904,
      "_COOKIE": 2905,
      "KE": 2906,
      "Mixin": 2907,
      "UL": 2908,
      "Ver": 2909,
      "_items": 2910,
      "_args": 2911,
      "_files": 2912,
      "echo": 2913,
      "\",',": 2914,
      "lect": 2915,
      "etype": 2916,
      "uture": 2917,
      "mod_name": 2918,
      "conn": 2919,
      "notification": 2920,
      "aliases": 2921,
      "perman": 2922,
      "\"]})": 2923,
      "HTTPBearer": 2924,
      "DecodeError": 2925,
      "ices": 2926,
      "responding": 2927,
      "form_data": 2928,
      "leni": 2929,
      "updated_": 2930,
      "gine": 2931,
      "avoid": 2932,
      "2_an_py310": 2933,
      "serialize": 2934,
      "change": 2935,
      "otherwise": 2936,
      "finis": 2937,
      "async_raise": 2938,
      "_exception_handler": 2939,
      "Common": 2940,
      "position": 2941,
      "scheme_name": 2942,
      "}:{": 2943,
      "definitions": 2944,
      "frag": 2945,
      "Invoice": 2946,
      "((": 2947,
      "64": 2948,
      "Backgro": 2949,
      "FLAS": 2950,
      "_or": 2951,
      "_method": 2952,
      "_response_": 2953,
      "_cookies": 2954,
      "_event": 2955,
      "_from_": 2956,
      "future": 2957,
      "iled": 2958,
      "mix": 2959,
      "rang": 2960,
      "since": 2961,
      "{{": 2962,
      "ones": 2963,
      "search": 2964,
      "\",),": 2965,
      "unable": 2966,
      "verify_": 2967,
      "prod": 2968,
      "beha": 2969,
      "shown": 2970,
      "Inst": 2971,
      "RequestForm": 2972,
      "corresponding": 2973,
      "igger": 2974,
      "FieldInfo": 2975,
      "langs": 2976,
      "start_": 2977,
      "ublic": 2978,
      "ified": 2979,
      "5000": 2980,
      "model_config": 2981,
      "chardet": 2982,
      "DEF": 2983,
      "test_tutorial002": 2984,
      "remove": 2985,
      "update_item": 2986,
      "build_": 2987,
      "send_text": 2988,
      "OAuth2PasswordRequestForm": 2989,
      "MAX": 2990,
      "record": 2991,
      "websocket_connect": 2992,
      "dataclasses": 2993,
      "_for_": 2994,
      "internally": 2995,
      "Tasks": 2996,
      "probably": 2997,
      "follow": 2998,
      "mimetype": 2999,
      "KEY": 3000,
      "Background": 3001,
      "32": 3002,
      "AUL": 3003,
      "Cur": 3004,
      "Rick": 3005,
      "_T": 3006,
      "_item": 3007,
      "_th": 3008,
      "clean": 3009,
      "nice": 3010,
      "side": 3011,
      "ual": 3012,
      "engine": 3013,
      "release": 3014,
      "img": 3015,
      "oto": 3016,
      "mount": 3017,
      "test_response_": 3018,
      "test_cookie_": 3019,
      "idth": 3020,
      "Clients": 3021,
      "depend": 3022,
      "response_model_none": 3023,
      "response_model_model1": 3024,
      "example_examples": 3025,
      "**:": 3026,
      "host_matching": 3027,
      "no_annotation": 3028,
      "AliasAnd": 3029,
      "oauth_header": 3030,
      "State": 3031,
      "even": 3032,
      "events": 3033,
      "default_response_class": 3034,
      "cliapp": 3035,
      "certain": 3036,
      "check_": 3037,
      "containing": 3038,
      "built": 3039,
      "exists": 3040,
      "answer": 3041,
      "~~~~~~~~": 3042,
      "Regist": 3043,
      "preserved": 3044,
      "common_parameters": 3045,
      "ent_issubclass": 3046,
      "lenient_issubclass": 3047,
      "DEFAUL": 3048,
      "Current": 3049,
      "AliasAndValidationAlias": 3050,
      "({": 3051,
      "blue": 3052,
      "gh": 3053,
      "old": 3054,
      "sq": 3055,
      "width": 3056,
      "x00": 3057,
      "orn": 3058,
      "etc": 3059,
      "rol": 3060,
      "sertionError": 3061,
      "them": 3062,
      "test_main": 3063,
      "if_": 3064,
      "been": 3065,
      "being": 3066,
      "because": 3067,
      "HTTPAuthorization": 3068,
      "tutorial008": 3069,
      "needed": 3070,
      "handled": 3071,
      "helpers": 3072,
      "hasattr": 3073,
      "T_KEY": 3074,
      "after_request": 3075,
      "site_": 3076,
      "async_wrapper": 3077,
      "Level3": 3078,
      "[[],": 3079,
      "based": 3080,
      "update_item_items__item_id": 3081,
      "test_security_http": 3082,
      "serializer": 3083,
      "category_": 3084,
      "additional": 3085,
      "Max": 3086,
      "variables": 3087,
      "Files": 3088,
      "affects": 3089,
      "sorted": 3090,
      "AssertionError": 3091,
      "goog": 3092,
      "BackgroundTasks": 3093,
      "HTTPAuthorizationCredentials": 3094,
      "']": 3095,
      "HA": 3096,
      "_S": 3097,
      "_test": 3098,
      "_key": 3099,
      "_length": 3100,
      "bre": 3101,
      "fp": 3102,
      "mis": 3103,
      "}'": 3104,
      "}?": 3105,
      "ases": 3106,
      "asci": 3107,
      "ors": 3108,
      "arbit": 3109,
      "s_to_": 3110,
      "returning": 3111,
      "state_": 3112,
      "agent": 3113,
      "ook": 3114,
      "sho": 3115,
      "HTTPDigest": 3116,
      "outine": 3117,
      "icorn": 3118,
      "keyword": 3119,
      "Include": 3120,
      "markdown": 3121,
      "lang_path": 3122,
      "202": 3123,
      "advanced_": 3124,
      "_links": 3125,
      "DER": 3126,
      "while": 3127,
      "correct_": 3128,
      "Plumbus": 3129,
      "UTF": 3130,
      "namespace": 3131,
      "sub_dependant": 3132,
      "category": 3133,
      "Handler": 3134,
      "return_submodel": 3135,
      "duplicates": 3136,
      "172": 3137,
      "translated_doc": 3138,
      "loaded": 3139,
      "fragment": 3140,
      "FLASK_": 3141,
      "behavi": 3142,
      "update_item_items__item_id__put": 3143,
      "ascii": 3144,
      ">=": 3145,
      "Ac": 3146,
      "Meth": 3147,
      "QL": 3148,
      "Some": 3149,
      "_cookie": 3150,
      "both": 3151,
      "sil": 3152,
      "xx": 3153,
      "rewind": 3154,
      "alice": 3155,
      "aliase": 3156,
      "images": 3157,
      "s_url": 3158,
      "through": 3159,
      "ories": 3160,
      "project": 3161,
      "\"}}": 3162,
      "error_handler": 3163,
      "There": 3164,
      "callback4": 3165,
      "callback5": 3166,
      "servers": 3167,
      "app_shutdown": 3168,
      "new_content": 3169,
      "\"}]}": 3170,
      "Headers": 3171,
      "after_": 3172,
      "encoder": 3173,
      "tribute": 3174,
      "super_": 3175,
      "test_tutorial003": 3176,
      "teardown_request": 3177,
      "invoice": 3178,
      "threading": 3179,
      "gen_dependency": 3180,
      "large_": 3181,
      "quote": 3182,
      "Attribute": 3183,
      "safe": 3184,
      "Tax": 3185,
      "something": 3186,
      "users_me_get": 3187,
      "omitted": 3188,
      "Verify": 3189,
      "_thread_": 3190,
      "Method": 3191,
      "aliased_name": 3192,
      "\"^": 3193,
      "([": 3194,
      "*\\": 3195,
      "45": 3196,
      "5_get": 3197,
      "Li": 3198,
      "non_": 3199,
      "ople": 3200,
      "vid": 3201,
      "wt": 3202,
      "war": 3203,
      "whether": 3204,
      "partic": 3205,
      "return_ex": 3206,
      "look": 3207,
      "idn": 3208,
      "router4": 3209,
      "necess": 3210,
      "read_required": 3211,
      "Path5": 3212,
      "Username": 3213,
      "JSONDecodeError": 3214,
      "websockets": 3215,
      "in_code_block": 3216,
      "processing": 3217,
      "cert_": 3218,
      "debug_": 3219,
      "SEC": 3220,
      "Node": 3221,
      "translation_fix": 3222,
      "extracted": 3223,
      "exclude_unset": 3224,
      "route_handler": 3225,
      "ModelOptionalList": 3226,
      "ModelRequiredList": 3227,
      "Filter": 3228,
      "_cv": 3229,
      "Router4": 3230,
      "exit_code": 3231,
      "characters": 3232,
      "closed": 3233,
      "tutorial005_py310": 3234,
      "VALID": 3235,
      "_oauth_scopes": 3236,
      "SESSION_COOKIE": 3237,
      "range": 3238,
      "Like": 3239,
      "translation_fixer": 3240,
      "!\",": 3241,
      "99": 3242,
      "Email": 3243,
      "NG": 3244,
      "V1": 3245,
      "_0": 3246,
      "_E": 3247,
      "_foo": 3248,
      "_valid": 3249,
      "_query_": 3250,
      "_is_": 3251,
      "_automatic": 3252,
      "_equals": 3253,
      "real": 3254,
      "incorrect": 3255,
      "le_": 3256,
      "ations": 3257,
      "(\".": 3258,
      "schema_extra": 3259,
      "urlparse": 3260,
      "Deprecated": 3261,
      "trust": 3262,
      "previ": 3263,
      "BaseRoute": 3264,
      "instance_path": 3265,
      "hell": 3266,
      "(\"/\").": 3267,
      "address": 3268,
      "cessed": 3269,
      "Ensure": 3270,
      "encoded": 3271,
      "encoded_": 3272,
      "2020": 3273,
      "KeyError": 3274,
      "401_": 3275,
      "package_": 3276,
      "commenters": 3277,
      "Comment": 3278,
      "base_url": 3279,
      "wrapped_call": 3280,
      "connections": 3281,
      "StringIO": 3282,
      "All": 3283,
      "provide_automatic": 3284,
      "by_alias": 3285,
      "Manager": 3286,
      "resolve_": 3287,
      "known_models": 3288,
      "Check": 3289,
      "certificate": 3290,
      "_thread_local": 3291,
      "particular": 3292,
      ".*": 3293,
      "11": 3294,
      "Jinja": 3295,
      "LS": 3296,
      "TR": 3297,
      "Ty": 3298,
      "\\\\": 3299,
      "_number": 3300,
      "_sequence": 3301,
      "cel": 3302,
      "flows": 3303,
      "noo": 3304,
      "push": 3305,
      "zen": 3306,
      "ative": 3307,
      "rozen": 3308,
      "type_": 3309,
      "s_from_": 3310,
      "admin_": 3311,
      "under": 3312,
      "compi": 3313,
      "__future": 3314,
      "_model2": 3315,
      "asyncgen": 3316,
      "_base": 3317,
      "Inter": 3318,
      "{}),": 3319,
      "ools": 3320,
      "cores": 3321,
      "p_wrap": 3322,
      "request_content": 3323,
      "endpoint_ctx": 3324,
      "Stack": 3325,
      "_non": 3326,
      "503": 3327,
      "dirty": 3328,
      "test_optional_alias_and_validation_alias": 3329,
      "first_": 3330,
      "test_required_alias_and_validation_alias": 3331,
      "somequery": 3332,
      "dump": 3333,
      "302": 3334,
      "child_": 3335,
      "less_": 3336,
      "signature": 3337,
      "client_secret": 3338,
      "decimal": 3339,
      "PRO": 3340,
      "variable": 3341,
      "Environment": 3342,
      "load_dotenv": 3343,
      "derscores": 3344,
      "too_": 3345,
      "branch_name": 3346,
      "Root": 3347,
      "get_path_param_": 3348,
      "ExitStack": 3349,
      "noop_wrap": 3350,
      "__future__": 3351,
      "\"--": 3352,
      "={})": 3353,
      "AT": 3354,
      "Ht": 3355,
      "Host": 3356,
      "Multi": 3357,
      "Per": 3358,
      "Script": 3359,
      "SQL": 3360,
      "TO": 3361,
      "UE": 3362,
      "_route": 3363,
      "bu": 3364,
      "cb": 3365,
      "dt": 3366,
      "dun": 3367,
      "frozen": 3368,
      "h1": 3369,
      "pull": 3370,
      "yam": 3371,
      "}}": 3372,
      "secon": 3373,
      "repe": 3374,
      "review": 3375,
      "inner": 3376,
      "role": 3377,
      "testtoken": 3378,
      "uring": 3379,
      "ctools": 3380,
      "their": 3381,
      "importance": 3382,
      "rompt": 3383,
      "control": 3384,
      "ither": 3385,
      "text_": 3386,
      "httpx": 3387,
      "account": 3388,
      "\"].": 3389,
      "vicon": 3390,
      "field_annotation_": 3391,
      "functools": 3392,
      "tutorial002_an_py310": 3393,
      "generating": 3394,
      "ous_": 3395,
      "ough": 3396,
      "402": 3397,
      "405": 3398,
      "favicon": 3399,
      "updated": 3400,
      "active_": 3401,
      "path_operation_": 3402,
      "dir_path": 3403,
      "upload_file": 3404,
      "manually": 3405,
      "netloc": 3406,
      "parse_": 3407,
      "subdomain_matching": 3408,
      "callable_": 3409,
      "Additional": 3410,
      "exclude_none": 3411,
      "modules_": 3412,
      "int_parsing": 3413,
      "target": 3414,
      "total": 3415,
      "Iterator": 3416,
      "test_apps": 3417,
      "payload": 3418,
      "Maximum": 3419,
      "break": 3420,
      "compile": 3421,
      "yaml": 3422,
      "/)": 3423,
      "But": 3424,
      "Pet": 3425,
      "Wer": 3426,
      "[-": 3427,
      "_command": 3428,
      "_gt": 3429,
      "_provider": 3430,
      "bad": 3431,
      "done": 3432,
      "dden": 3433,
      "during": 3434,
      "oper": 3435,
      "ograph": 3436,
      "vs": 3437,
      "remain": 3438,
      "iso": 3439,
      "s__": 3440,
      "uld_": 3441,
      "test_list": 3442,
      "schemes": 3443,
      "return_same": 3444,
      "get_graphql": 3445,
      "termin": 3446,
      "ica": 3447,
      "argument": 3448,
      "Index": 3449,
      "BaseSettings": 3450,
      "docs_path": 3451,
      "read_optional": 3452,
      "configs": 3453,
      "Users": 3454,
      "app_startup": 3455,
      "html_": 3456,
      "takes": 3457,
      "query_params": 3458,
      "act_dict": 3459,
      "RET_KEY": 3460,
      "localdomain": 3461,
      "ignored": 3462,
      "utf8": 3463,
      "test_optional_validation_alias": 3464,
      "Params": 3465,
      "DEBU": 3466,
      "test_post_body_": 3467,
      "AsyncExitStack": 3468,
      "nonce": 3469,
      "sync_raise": 3470,
      "UTH": 3471,
      "epub": 3472,
      "_underscores": 3473,
      "dependency_overrides_provider": 3474,
      "computed_": 3475,
      "rypt": 3476,
      "write_text": 3477,
      "convert_underscores": 3478,
      "return_invalid_dict": 3479,
      "removable": 3480,
      "normally": 3481,
      "pickle": 3482,
      "_post_root": 3483,
      "return_dict_with_extra_data": 3484,
      "_multipart": 3485,
      "Secret": 3486,
      "permanent": 3487,
      "should_": 3488,
      "2021": 3489,
      "return_submodel_with_extra_data": 3490,
      "behavior": 3491,
      "super_len": 3492,
      "return_exact_dict": 3493,
      "SECRET_KEY": 3494,
      "particularly": 3495,
      "modules_tmp_path": 3496,
      "Werkzeug": 3497,
      "DEBUG": 3498,
      "\">": 3499,
      "8000": 3500,
      "Fa": 3501,
      "Fun": 3502,
      "TLS": 3503,
      "[(": 3504,
      "[::": 3505,
      "]],": 3506,
      "_db": 3507,
      "_not_": 3508,
      "_external": 3509,
      "_handlers": 3510,
      "_users_me_get": 3511,
      "action": 3512,
      "pus": 3513,
      "prompt": 3514,
      "sue": 3515,
      "scription": 3516,
      "tell": 3517,
      "ward": 3518,
      "select": 3519,
      "ense": 3520,
      "inf": 3521,
      "least": 3522,
      "amed": 3523,
      "another": 3524,
      "people": 3525,
      "issu": 3526,
      "is_b": 3527,
      "jsonify": 3528,
      "extensions": 3529,
      "unter": 3530,
      "e_socket": 3531,
      "__dict": 3532,
      "__item_id": 3533,
      "__main": 3534,
      "preprocessor": 3535,
      "coroutine": 3536,
      "lang_": 3537,
      "regular": 3538,
      "failed": 3539,
      "Forbidden": 3540,
      "path_params": 3541,
      "501": 3542,
      "Api": 3543,
      "matching": 3544,
      "Level1": 3545,
      "test_optional_str": 3546,
      "TEM": 3547,
      "307": 3548,
      "_body_fields": 3549,
      "build": 3550,
      "fake_db": 3551,
      "HECK": 3552,
      "Imple": 3553,
      "AsyncGenerator": 3554,
      "_CHECK": 3555,
      "_scope": 3556,
      "_union": 3557,
      "embed_body_fields": 3558,
      "hidden_query": 3559,
      "pydantic_v1": 3560,
      "read_current_user_users_me_get": 3561,
      "swagger_ui_oauth2_redirect": 3562,
      "ensure_sync": 3563,
      "JsonApi": 3564,
      "consume_socket": 3565,
      "system": 3566,
      "test_put_": 3567,
      "TYPE_CHECK": 3568,
      "requires": 3569,
      "finished": 3570,
      "Accept": 3571,
      "necessary": 3572,
      "admin_email": 3573,
      "dunder_": 3574,
      "ryptograph": 3575,
      "pushed": 3576,
      "is_boolean": 3577,
      "__dict__": 3578,
      "__item_id__get": 3579,
      "__main__": 3580,
      "consume_socket_content": 3581,
      "TYPE_CHECKING": 3582,
      "'{": 3583,
      ")])": 3584,
      "13": 3585,
      "46": 3586,
      "AC": 3587,
      "Ar": 3588,
      "AGE": 3589,
      "CO": 3590,
      "D_": 3591,
      "Port": 3592,
      "Res": 3593,
      "XX": 3594,
      "[:": 3595,
      "ache": 3596,
      "cast": 3597,
      "fe": 3598,
      "gun": 3599,
      "ly_": 3600,
      "long": 3601,
      "sle": 3602,
      "ton": 3603,
      "ten": 3604,
      "wes": 3605,
      "zone": 3606,
      "ese": 3607,
      "indirect": 3608,
      "ormali": 3609,
      "coer": 3610,
      "contribut": 3611,
      "essica": 3612,
      "assign": 3613,
      "_model2_": 3614,
      "tempt": 3615,
      "shared": 3616,
      "string_": 3617,
      "_alias_missing": 3618,
      "Model2": 3619,
      "ModelWith": 3620,
      "asynccontextmanager": 3621,
      "field_mapping": 3622,
      "detect": 3623,
      "details": 3624,
      "loading": 3625,
      "_sign": 3626,
      "_mock": 3627,
      "overridden": 3628,
      "viewport": 3629,
      "body_field": 3630,
      "template_string": 3631,
      "template_folder": 3632,
      "tach": 3633,
      "T_template_filter": 3634,
      "T_template_test": 3635,
      "T_template_global": 3636,
      "evts": 3637,
      "model_name_map": 3638,
      "502": 3639,
      "lets": 3640,
      "max_form": 3641,
      "olute": 3642,
      "excinfo": 3643,
      "async_wrapped_": 3644,
      "NotImple": 3645,
      "tracker": 3646,
      "test_required_str": 3647,
      "umentation": 3648,
      "specified": 3649,
      "packages": 3650,
      "req_ctx": 3651,
      "flas": 3652,
      "test_post_": 3653,
      "Plain": 3654,
      "make_response": 3655,
      "simplefilter": 3656,
      "RequestsCookieJar": 3657,
      "Bytes": 3658,
      "test_optional_list_alias_and_validation_alias": 3659,
      "Handle": 3660,
      "Build": 3661,
      "developer": 3662,
      "router_b_a": 3663,
      "dispatch_request": 3664,
      "installed": 3665,
      "Instance": 3666,
      "cleanup": 3667,
      "debug_flag": 3668,
      "Interface": 3669,
      "dirty_equals": 3670,
      "[::-": 3671,
      "Portal": 3672,
      "wesome": 3673,
      "NotImplement": 3674,
      "23": 3675,
      ">\"": 3676,
      "Gun": 3677,
      "IP": 3678,
      "Named": 3679,
      "cryptograph": 3680,
      "solv": 3681,
      "tri": 3682,
      "wd": 3683,
      "second": 3684,
      "ative_": 3685,
      "represent": 3686,
      "orjson": 3687,
      "altern": 3688,
      "ane": 3689,
      "response2": 3690,
      "most": 3691,
      "s_path": 3692,
      "conf": 3693,
      "test_body_": 3694,
      "test_session_": 3695,
      "unchanged": 3696,
      "contact": 3697,
      "person": 3698,
      "per_user": 3699,
      "force": 3700,
      "FastAPIDeprecationWarning": 3701,
      "Refer": 3702,
      "get_query_": 3703,
      "get_cookie_": 3704,
      "ResponseValidationError": 3705,
      "sets": 3706,
      "_alias_by_name": 3707,
      "_buil": 3708,
      "_blocks": 3709,
      "upper": 3710,
      "makes": 3711,
      "://{": 3712,
      "Documentation": 3713,
      "ows": 3714,
      "configure": 3715,
      "webhooks": 3716,
      "timezone": 3717,
      "button": 3718,
      "url_value_": 3719,
      "items_per_user": 3720,
      "funcs": 3721,
      "_normali": 3722,
      "wait_to_": 3723,
      "FormData": 3724,
      "secret_name": 3725,
      "finali": 3726,
      "find_": 3727,
      "close_event": 3728,
      "AuthorizationCode": 3729,
      "on_startup": 3730,
      "before_": 3731,
      "header_params": 3732,
      "_functions": 3733,
      "placeholder": 3734,
      "Image": 3735,
      "Tags": 3736,
      "api_route": 3737,
      "handle_": 3738,
      "signals": 3739,
      "recorded": 3740,
      "Markdown": 3741,
      "DependencyError": 3742,
      "Parameters": 3743,
      "others": 3744,
      "charset_normali": 3745,
      "nested_models": 3746,
      "hinx": 3747,
      "explicit": 3748,
      "absolute": 3749,
      "frontend": 3750,
      "depends_": 3751,
      "test_security_http_basic": 3752,
      "_cv_app": 3753,
      "realm": 3754,
      "ScriptInfo": 3755,
      "TODO": 3756,
      "issues": 3757,
      "coerce": 3758,
      "NotImplementedError": 3759,
      "url_value_preprocessor": 3760,
      "wait_to_close_event": 3761,
      "charset_normalizer": 3762,
      "#{": 3763,
      "'{\"": 3764,
      "2F": 3765,
      "Could": 3766,
      "DI": 3767,
      "Di": 3768,
      "ITH": 3769,
      "Min": 3770,
      "OS": 3771,
      "UU": 3772,
      "_scheme": 3773,
      "_template": 3774,
      "_validations": 3775,
      "_compat": 3776,
      "bigger": 3777,
      "ged_": 3778,
      "gzip": 3779,
      "jwt": 3780,
      "jessica": 3781,
      "rand": 3782,
      "scre": 3783,
      "well": 3784,
      "x_token": 3785,
      "onth": 3786,
      "dev": 3787,
      "decl": 3788,
      "erved": 3789,
      "appcontext_": 3790,
      "ement": 3791,
      "ather": 3792,
      "()}": 3793,
      "path3": 3794,
      "test_valid": 3795,
      "astack": 3796,
      "ceholder": 3797,
      "again": 3798,
      "then": 3799,
      "FastAPIError": 3800,
      "user_": 3801,
      "license": 3802,
      "Transl": 3803,
      "tutorial01": 3804,
      "``'": 3805,
      "footo": 3806,
      "trans": 3807,
      "kenbar": 3808,
      "router2_": 3809,
      "read_optional_list": 3810,
      "raise_for_": 3811,
      "wrong": 3812,
      "current_block": 3813,
      "files__post": 3814,
      "what": 3815,
      "disable": 3816,
      "DefaultPla": 3817,
      "allow_redirects": 3818,
      "_annotation_model2_": 3819,
      "debugger": 3820,
      "calar": 3821,
      "204": 3822,
      "test_required_validation_alias": 3823,
      "params_numeric": 3824,
      "custom_generate_unique_id": 3825,
      "_post_router": 3826,
      "_override_router": 3827,
      "test_security_http_": 3828,
      "session_open": 3829,
      "ConnectionError": 3830,
      "exclude_defaults": 3831,
      "Ordered": 3832,
      "Streaming": 3833,
      "return_invalid_model": 3834,
      "EnvironBuil": 3835,
      "ClassInstance": 3836,
      "catch_": 3837,
      "store": 3838,
      "standard": 3839,
      "as_view": 3840,
      "tutorial006_py310": 3841,
      "category_id": 3842,
      "arbitrary": 3843,
      "frozenset": 3844,
      "return_same_model": 3845,
      "NamedSession": 3846,
      "Reference": 3847,
      "UUID": 3848,
      "screen": 3849,
      "footokenbar": 3850,
      "raise_for_status": 3851,
      "DefaultPlaceholder": 3852,
      "params_numeric_validations": 3853,
      "OrderedDict": 3854,
      "EnvironBuilder": 3855,
      "':": 3856,
      "(?": 3857,
      ".\\": 3858,
      "Ab": 3859,
      "NO": 3860,
      "OM": 3861,
      "PLA": 3862,
      "_not": 3863,
      "_example": 3864,
      "ais": 3865,
      "bel": 3866,
      "cj": 3867,
      "dcb": 3868,
      "gor": 3869,
      "js": 3870,
      "lon": 3871,
      "pur": 3872,
      "ruct": 3873,
      "rather": 3874,
      "yml": 3875,
      "attach": 3876,
      "end_": 3877,
      "insert": 3878,
      "orrect": 3879,
      "sty": 3880,
      "algor": 3881,
      "ped_": 3882,
      "partit": 3883,
      "test_no_": 3884,
      "astruct": 3885,
      "unit": 3886,
      "comp": 3887,
      "APP": 3888,
      "datastruct": 3889,
      "ithm": 3890,
      "suf": 3891,
      "chain": 3892,
      "dist": 3893,
      "shutil": 3894,
      "get_current_": 3895,
      "ResponseMessage": 3896,
      "works": 3897,
      "Int": 3898,
      "ctionary": 3899,
      "contextlib": 3900,
      "ends": 3901,
      "BaseModelWith": 3902,
      "Dependant": 3903,
      "_sl": 3904,
      "_scalar": 3905,
      "_me": 3906,
      "OpenIdConnect": 3907,
      "custom_encoder": 3908,
      "cookielib": 3909,
      "FlaskClient": 3910,
      "run_simple": 3911,
      "override5": 3912,
      "wrappers": 3913,
      "SessionMixin": 3914,
      "ConfigDict": 3915,
      "_with_context": 3916,
      "month": 3917,
      "OAuth2AuthorizationCode": 3918,
      "first_field": 3919,
      "on_event": 3920,
      "Provi": 3921,
      "AppException": 3922,
      "WebSocketDis": 3923,
      "NoAppException": 3924,
      "dump_": 3925,
      "Counter": 3926,
      "_bypass_": 3927,
      "spam": 3928,
      "existing": 3929,
      "correctly": 3930,
      "serialize_": 3931,
      "abcd": 3932,
      "categories": 3933,
      "threadpool": 3934,
      "structure": 3935,
      "SSLError": 3936,
      "seek": 3937,
      "good": 3938,
      "total_": 3939,
      "goes": 3940,
      "_instal": 3941,
      "registration": 3942,
      "test_query_params_str_validations_q": 3943,
      "mixed_": 3944,
      "MAX_": 3945,
      "Register": 3946,
      "DEFAULT_": 3947,
      "advanced_configuration": 3948,
      "provide_automatic_options": 3949,
      "isoformat": 3950,
      "Dictionary": 3951,
      "StreamingResponse": 3952,
      "catch_warnings": 3953,
      "dcba": 3954,
      "algorithm": 3955,
      "partition": 3956,
      "datastructures": 3957,
      "BaseModelWithConfig": 3958,
      "OAuth2AuthorizationCodeBearer": 3959,
      "WebSocketDisconnect": 3960,
      "24": 3961,
      "78": 3962,
      "ADER": 3963,
      "F401": 3964,
      "FOO": 3965,
      "Mock": 3966,
      "Pool": 3967,
      "UNA": 3968,
      "_raise": 3969,
      "_endpoint": 3970,
      "ave": 3971,
      "bundle": 3972,
      "caf": 3973,
      "gger": 3974,
      "js_url": 3975,
      "ll": 3976,
      "ru": 3977,
      "rest": 3978,
      "ving": 3979,
      "}]": 3980,
      "ded_": 3981,
      "amp": 3982,
      "appro": 3983,
      "exclu": 3984,
      "type_annotation": 3985,
      "test_dependency_": 3986,
      "ely": 3987,
      "top": 3988,
      "tool": 3989,
      "perts": 3990,
      "for_": 3991,
      "things": 3992,
      "though": 3993,
      "dated": 3994,
      "intain": 3995,
      "get_by_": 3996,
      "ply": 3997,
      "_alias_schema": 3998,
      "_alias_by_alias": 3999,
      "fold": 4000,
      "node": 4001,
      "Dead": 4002,
      "term": 4003,
      "error_str": 4004,
      "_bench": 4005,
      "options_": 4006,
      "py39": 4007,
      "pr_": 4008,
      "Conver": 4009,
      "ed_result": 4010,
      "read_item": 4011,
      "tured": 4012,
      "_month": 4013,
      "Author": 4014,
      "JSONTag": 4015,
      "should_bypass_": 4016,
      "way": 4017,
      "SessionDep": 4018,
      "SessionInterface": 4019,
      "Static": 4020,
      "ServerError": 4021,
      "warns": 4022,
      "OAuthF": 4023,
      "certs": 4024,
      "dep_b": 4025,
      "Level2": 4026,
      "SET": 4027,
      "201": 4028,
      "on_shutdown": 4029,
      "Setup": 4030,
      "1000": 4031,
      "_line": 4032,
      "_link": 4033,
      "_exceptions": 4034,
      "level1a": 4035,
      "level1b": 4036,
      "teardown_app": 4037,
      "HEADER": 4038,
      "Without": 4039,
      "ORIZE": 4040,
      "sync_playwright": 4041,
      "Dependencies": 4042,
      "Markup": 4043,
      "Incorrect": 4044,
      "chunks": 4045,
      "_request_funcs": 4046,
      "write_bytes": 4047,
      "traceparent": 4048,
      "HTTPBasicCredentials": 4049,
      "captured": 4050,
      "mkdocs": 4051,
      "main_mod": 4052,
      "additional_responses": 4053,
      "Playwright": 4054,
      "LOAD": 4055,
      "save_data": 4056,
      "Scope": 4057,
      "CEP": 4058,
      "vides": 4059,
      "(\"./": 4060,
      "SQLModel": 4061,
      "remains": 4062,
      "UTHORIZE": 4063,
      "screenshot": 4064,
      "UNAUTHORIZE": 4065,
      "caffold": 4066,
      "exclusive": 4067,
      "should_bypass_proxies": 4068,
      "UNAUTHORIZED": 4069,
      "60": 4070,
      "BA": 4071,
      "Bool": 4072,
      "Lif": 4073,
      "RGE": 4074,
      "SD": 4075,
      "Spec": 4076,
      "Sponsor": 4077,
      "Tra": 4078,
      "]]:": 4079,
      "_an": 4080,
      "_keys": 4081,
      "cannot": 4082,
      "city": 4083,
      "ever": 4084,
      "ip_": 4085,
      "mut": 4086,
      "shell": 4087,
      "win": 4088,
      "who": 4089,
      "}),": 4090,
      "sections": 4091,
      "atable": 4092,
      "atform": 4093,
      "attempt": 4094,
      "enabled": 4095,
      "ree": 4096,
      "ary_": 4097,
      "utes": 4098,
      "testapp": 4099,
      "testserver": 4100,
      "()`)": 4101,
      "test_module": 4102,
      "test_translation_fixer": 4103,
      "code_blocks": 4104,
      "Rece": 4105,
      "open_": 4106,
      "get_session": 4107,
      "platform": 4108,
      "cursive": 4109,
      "atever": 4110,
      "reset": 4111,
      "call_count": 4112,
      "meta": 4113,
      "generation": 4114,
      "context_a": 4115,
      "versions": 4116,
      "RequestException": 4117,
      "ween": 4118,
      "library": 4119,
      "comments": 4120,
      "whatever": 4121,
      "_list_of": 4122,
      "httpbin_": 4123,
      "actual": 4124,
      "synchronous": 4125,
      "127": 4126,
      "translatable": 4127,
      "max_content": 4128,
      "NotFound": 4129,
      "IDs": 4130,
      "security_scopes": 4131,
      "SecuritySco": 4132,
      "named": 4133,
      "stream_with_context": 4134,
      "Callback1": 4135,
      "multiple_params": 4136,
      "Comput": 4137,
      "render": 4138,
      "Body_foo": 4139,
      "Body_login_": 4140,
      "users_db": 4141,
      "fake_users_db": 4142,
      "InvalidURL": 4143,
      "inside": 4144,
      "Subclass": 4145,
      "level2a": 4146,
      "level2b": 4147,
      "redoc_": 4148,
      "en_doc": 4149,
      "includes": 4150,
      "Chil": 4151,
      "complex": 4152,
      "x_tag": 4153,
      "HTTP_401_": 4154,
      "execute": 4155,
      "TextResponse": 4156,
      "callback1__get": 4157,
      "test_override_in_": 4158,
      "between": 4159,
      "blueval": 4160,
      "silent": 4161,
      "Http": 4162,
      "dt_field": 4163,
      "active_user": 4164,
      "sleep": 4165,
      "PlainTextResponse": 4166,
      "OSError": 4167,
      "longer": 4168,
      "suffix": 4169,
      "Provider": 4170,
      "SecurityScopes": 4171,
      "''": 4172,
      "(*,": 4173,
      "15": 4174,
      "Ks": 4175,
      "MIN": 4176,
      "QUE": 4177,
      "Simple": 4178,
      "_B": 4179,
      "`:": 4180,
      "cs": 4181,
      "cwd": 4182,
      "hing": 4183,
      "mu": 4184,
      "mask": 4185,
      "pal": 4186,
      "ring": 4187,
      "rul": 4188,
      "won": 4189,
      "atar": 4190,
      "indi": 4191,
      "lement": 4192,
      "anner": 4193,
      "apped": 4194,
      "que": 4195,
      "edge": 4196,
      "ote_": 4197,
      "isn": 4198,
      "ismatch": 4199,
      "issue": 4200,
      "is_scalar": 4201,
      "py_file": 4202,
      "construct": 4203,
      "thing": 4204,
      "content_path": 4205,
      "poss": 4206,
      "Validations": 4207,
      "temp": 4208,
      "sha": 4209,
      "url_map": 4210,
      "urlencoded": 4211,
      "get_args": 4212,
      "accessed": 4213,
      "pler": 4214,
      "HTTPBase": 4215,
      "value1": 4216,
      "cludes": 4217,
      "Decim": 4218,
      "validation_error": 4219,
      "reserved": 4220,
      "prepen": 4221,
      "Firul": 4222,
      "_includes": 4223,
      "tutorial009": 4224,
      "read_users": 4225,
      "_swagger": 4226,
      "_mismatch": 4227,
      "PathLike": 4228,
      "customize": 4229,
      "current_object": 4230,
      "expect_": 4231,
      "app_testing": 4232,
      "app_template_filter": 4233,
      "app_template_test": 4234,
      "redirect_": 4235,
      "has_": 4236,
      "create_item_items_": 4237,
      "mean": 4238,
      "raising": 4239,
      "avatar": 4240,
      "505": 4241,
      "is_sequence": 4242,
      "Partial": 4243,
      "envvar": 4244,
      "End": 4245,
      "SecurityBase": 4246,
      "Applic": 4247,
      "minLength": 4248,
      "Callback2": 4249,
      "Callback3": 4250,
      "Callbacks": 4251,
      "Comments": 4252,
      "tearing_": 4253,
      "SchemaOr": 4254,
      "Customize": 4255,
      "test_security_oauth2_": 4256,
      "my_get_stuff": 4257,
      "class__": 4258,
      "level3a": 4259,
      "level3b": 4260,
      "test_query_params_str_validations": 4261,
      "counterpart": 4262,
      "lite_": 4263,
      "LARGE": 4264,
      "ashes": 4265,
      "popped": 4266,
      "record_": 4267,
      "en_docs_path": 4268,
      "read_model_required": 4269,
      "read_model_optional": 4270,
      "anchor": 4271,
      "permalink": 4272,
      "test_required_list_alias_and_validation_alias": 4273,
      "InternalServerError": 4274,
      "Output": 4275,
      "traceback": 4276,
      "item_items__item_id__get": 4277,
      "_get_current_object": 4278,
      "JsonSchema": 4279,
      "reference": 4280,
      "handling_errors": 4281,
      "named_session": 4282,
      "times": 4283,
      "255": 4284,
      "normal": 4285,
      "Serializer": 4286,
      "modified_text": 4287,
      "simpler": 4288,
      "callback2__get": 4289,
      "callback3__get": 4290,
      "global_state": 4291,
      "flashes": 4292,
      "InvoiceEvent": 4293,
      "sqlite_": 4294,
      "translated_doc_number": 4295,
      "schema_extra_example": 4296,
      "Person": 4297,
      "JsonApiError": 4298,
      "assignment": 4299,
      "solved_result": 4300,
      "_build_": 4301,
      "Minimum": 4302,
      "unittest": 4303,
      "SDKs": 4304,
      "HTTP_401_UNAUTHORIZED": 4305,
      "much": 4306,
      "Decimal": 4307,
      "Firulais": 4308,
      "create_item_items__post": 4309,
      "avatarUrl": 4310,
      "tearing_down": 4311,
      "SchemaOrBool": 4312,
      "my_get_stuff_custom_name": 4313,
      ":\\": 4314,
      "ASGI": 4315,
      "Awesome": 4316,
      "CLI": 4317,
      "Glob": 4318,
      "Look": 4319,
      "Missing": 4320,
      "PRE": 4321,
      "Sup": 4322,
      "ST_": 4323,
      "Tit": 4324,
      "UP": 4325,
      "Valid": 4326,
      "_required": 4327,
      "_response_model": 4328,
      "_stuff": 4329,
      "_uuid": 4330,
      "_py39": 4331,
      "aa": 4332,
      "cm": 4333,
      "cent": 4334,
      "eval": 4335,
      "fs": 4336,
      "got": 4337,
      "gues": 4338,
      "might": 4339,
      "public": 4340,
      "escap": 4341,
      "enc": 4342,
      "leport": 4343,
      "alchem": 4344,
      "core": 4345,
      "appcontext": 4346,
      "apply": 4347,
      "qui": 4348,
      "expo": 4349,
      "stra": 4350,
      "one_": 4351,
      "rick": 4352,
      "test_token": 4353,
      "test_async_": 4354,
      "test_router_": 4355,
      "to_n": 4356,
      "__iter": 4357,
      "sually": 4358,
      "pos": 4359,
      "prop": 4360,
      "tutorial0": 4361,
      "``\"": 4362,
      "=\"{": 4363,
      "default5": 4364,
      "_bad": 4365,
      "AnyStr": 4366,
      "tutorial007": 4367,
      "session_id": 4368,
      "_exclude_": 4369,
      "annotated_": 4370,
      "_message": 4371,
      "JSONProvider": 4372,
      "exception_handler": 4373,
      "module_name": 4374,
      "maximum": 4375,
      "_next": 4376,
      "later": 4377,
      "than_": 4378,
      "vars": 4379,
      "Prod": 4380,
      "authenticate_": 4381,
      "specify": 4382,
      "github_re": 4383,
      "rendered": 4384,
      "test_tutorial004": 4385,
      "tmp_": 4386,
      "builder": 4387,
      "socks": 4388,
      "existent": 4389,
      "cached_": 4390,
      "hashes": 4391,
      "test_path_operation_": 4392,
      "converting": 4393,
      "tutorial003_an_py310": 4394,
      "ansio": 4395,
      "order_by": 4396,
      "link_": 4397,
      "_unwrapped_call": 4398,
      "8080": 4399,
      "render_template_string": 4400,
      "redoc_html": 4401,
      "Make": 4402,
      "specification": 4403,
      "aborter": 4404,
      "use_cache": 4405,
      "merge_": 4406,
      "set_cookie": 4407,
      "overload": 4408,
      "sqlalchem": 4409,
      "opment": 4410,
      "development": 4411,
      "follow_redirects": 4412,
      "idna": 4413,
      "previous": 4414,
      "Types": 4415,
      "buf": 4416,
      "seconds": 4417,
      "BytesIO": 4418,
      "BuildError": 4419,
      "cleanup_stuff": 4420,
      "captured_exception": 4421,
      "Computed": 4422,
      "Child": 4423,
      "possible": 4424,
      "Title": 4425,
      "__iter__": 4426,
      "03": 4427,
      "22": 4428,
      "88": 4429,
      "='": 4430,
      ">`.": 4431,
      "Cho": 4432,
      "Mor": 4433,
      "Public": 4434,
      "Rule": 4435,
      "SH": 4436,
      "UN": 4437,
      "Y_": 4438,
      "_with": 4439,
      "_param_": 4440,
      "_ui": 4441,
      "_comment": 4442,
      "_VALID": 4443,
      "_astack": 4444,
      "ay": 4445,
      "b64": 4446,
      "false": 4447,
      "gre": 4448,
      "jpe": 4449,
      "mt": 4450,
      "ntax": 4451,
      "}\\": 4452,
      "only_": 4453,
      "section": 4454,
      "delet": 4455,
      "ended": 4456,
      "although": 4457,
      "test2": 4458,
      "occur": 4459,
      "typed_": 4460,
      "ries": 4461,
      "test_add_": 4462,
      "extern": 4463,
      "docstring": 4464,
      "val_list": 4465,
      "user_dict": 4466,
      "provides": 4467,
      "list_": 4468,
      "ResponseReturn": 4469,
      "setitem": 4470,
      "\"]),": 4471,
      "Trans": 4472,
      "post_": 4473,
      "asynchronous": 4474,
      "Decl": 4475,
      "LETE": 4476,
      "viol": 4477,
      "resh": 4478,
      "read_users_": 4479,
      "credenti": 4480,
      "created_": 4481,
      "callback_url": 4482,
      "annotation_model2": 4483,
      "sense": 4484,
      "ators": 4485,
      "body_params": 4486,
      "QueryParams": 4487,
      "items_db": 4488,
      "override3": 4489,
      "maxsize": 4490,
      "[]).": 4491,
      "T_route": 4492,
      "path_params_numeric_validations": 4493,
      "domains": 4494,
      "504": 4495,
      "is_redirect": 4496,
      "iter_data": 4497,
      "environ_": 4498,
      "debugging": 4499,
      "site": 4500,
      "deplo": 4501,
      "openapi_schemas": 4502,
      "Level4": 4503,
      "decorator_": 4504,
      "_model_fields": 4505,
      "DELETE": 4506,
      "auto_re": 4507,
      "test_security_api_": 4508,
      "fake_items_db": 4509,
      "invoices": 4510,
      "send_file": 4511,
      "wrapped_class_instance_": 4512,
      "converter": 4513,
      "static_host": 4514,
      "_matching_": 4515,
      "make_not_": 4516,
      "APIKeyQuery": 4517,
      "APIKeyHeader": 4518,
      "APIKeyCookie": 4519,
      "authenticated_error": 4520,
      "path5a": 4521,
      "path5b": 4522,
      "path5_default_": 4523,
      "path5_override_router": 4524,
      "separate_openapi_schemas": 4525,
      "Loader": 4526,
      "get_stuff_1": 4527,
      "preserv": 4528,
      "greater_": 4529,
      "internal_": 4530,
      "key_val_list": 4531,
      "character": 4532,
      "Serialization": 4533,
      "000000": 4534,
      "BadRequest": 4535,
      "_PATH": 4536,
      "UserInDB": 4537,
      "_specific": 4538,
      "response_model_none_annotation_": 4539,
      "response_model_model1_annotation_model2_": 4540,
      "MethodView": 4541,
      "456": 4542,
      "AllDiscussions": 4543,
      "favicon_url": 4544,
      "computed_field": 4545,
      "Fake": 4546,
      "ative_string": 4547,
      "alternative": 4548,
      "Translated": 4549,
      "style": 4550,
      "get_current_active_user": 4551,
      "_installed_": 4552,
      "Lifespan": 4553,
      "whole": 4554,
      "_swagger_ui": 4555,
      "Endpoint": 4556,
      "to_native_string": 4557,
      "propag": 4558,
      "github_repository": 4559,
      "Morty": 4560,
      "jpeg": 4561,
      "ResponseReturnValue": 4562,
      "credential": 4563,
      "created_at": 4564,
      "test_security_api_key_": 4565,
      "make_not_authenticated_error": 4566,
      "path5_default_router4": 4567,
      "path5_override_router4": 4568,
      "'``": 4569,
      ")),": 4570,
      "36": 4571,
      "77": 4572,
      "95": 4573,
      ":]": 4574,
      "=(": 4575,
      "=(\"": 4576,
      "Await": 4577,
      "ATE": 4578,
      "Cannot": 4579,
      "Div": 4580,
      "Map": 4581,
      "Numb": 4582,
      "PUT": 4583,
      "Rem": 4584,
      "Using": 4585,
      "Zero": 4586,
      "\\*\\": 4587,
      "_4": 4588,
      "_int": 4589,
      "_print": 4590,
      "_password": 4591,
      "_ST": 4592,
      "_adapter": 4593,
      "_translation": 4594,
      "_counter": 4595,
      "_parts": 4596,
      "_stack": 4597,
      "bo": 4598,
      "b_py310": 4599,
      "blocks": 4600,
      "dy": 4601,
      "fall": 4602,
      "hi": 4603,
      "jor": 4604,
      "lstrip": 4605,
      "sample": 4606,
      "six": 4607,
      "sansio": 4608,
      "vary": 4609,
      "at_": 4610,
      "isionError": 4611,
      "theme": 4612,
      "s_exception": 4613,
      "parti": 4614,
      "test_json": 4615,
      "test_encode": 4616,
      "test_read_items": 4617,
      "test_sync_": 4618,
      "test_cli_": 4619,
      "ads_": 4620,
      "004": 4621,
      "unquot": 4622,
      "ilar": 4623,
      "[\"--": 4624,
      "__class__": 4625,
      "ract": 4626,
      "successful": 4627,
      "behin": 4628,
      "openssl": 4629,
      "get_token": 4630,
      "get_origin": 4631,
      "get_adapter": 4632,
      "HTTPError": 4633,
      "outdated": 4634,
      "openapi_schema": 4635,
      "defaultdict": 4636,
      "Model1": 4637,
      "reading": 4638,
      "ready_": 4639,
      "uman": 4640,
      "d_a_": 4641,
      "major": 4642,
      "_index": 4643,
      "endswith": 4644,
      "docs_dir": 4645,
      "read_item_items__item_id__get": 4646,
      "raise_": 4647,
      "token_type": 4648,
      "load_app": 4649,
      "own_oauth_scopes": 4650,
      "overrider_": 4651,
      "handles": 4652,
      "/\").": 4653,
      "run_command": 4654,
      "exception_handlers": 4655,
      "request_form": 4656,
      "slash": 4657,
      "body_nested_models": 4658,
      "template_name": 4659,
      "AliasPath": 4660,
      "AliasCho": 4661,
      "})\"": 4662,
      "typing_": 4663,
      "_names": 4664,
      "dirname": 4665,
      "allowed_": 4666,
      "iterator": 4667,
      "Enable": 4668,
      "exc_class": 4669,
      "Scheme": 4670,
      "Note": 4671,
      "Process": 4672,
      "ParamTypes": 4673,
      "header_permalinks": 4674,
      "cookie_params": 4675,
      "special": 4676,
      "1234": 4677,
      "Generic": 4678,
      "excluded": 4679,
      "new_context": 4680,
      "ORJSONResponse": 4681,
      "converted": 4682,
      "lifespan_context": 4683,
      "sub_items": 4684,
      "TION_": 4685,
      "signal": 4686,
      "level4a": 4687,
      "level4b": 4688,
      "test_optional_list_validation_alias": 4689,
      "test_optional_list_str": 4690,
      "last_": 4691,
      "lastname": 4692,
      "Allow": 4693,
      "LICA": 4694,
      "databases": 4695,
      "UnionType": 4696,
      "RedirectResponse": 4697,
      "merged_": 4698,
      "target_": 4699,
      "some_cookie": 4700,
      "mock_print": 4701,
      "mkdir": 4702,
      "consumed": 4703,
      "registry": 4704,
      "global_context": 4705,
      "updated_at": 4706,
      "product": 4707,
      "Filtering": 4708,
      "_EX": 4709,
      "_sequence_annotation": 4710,
      "_nonable": 4711,
      "epub_": 4712,
      "SecretStr": 4713,
      "below": 4714,
      "compact": 4715,
      "APPLICA": 4716,
      "test_query_params_str_validations_q_": 4717,
      "_bench_get": 4718,
      "httpbin_secure": 4719,
      "pallets": 4720,
      "Support": 4721,
      "guess_": 4722,
      "cached_property": 4723,
      "green": 4724,
      "Declare": 4725,
      "violation": 4726,
      "auto_reload": 4727,
      "Awaitable": 4728,
      "DivisionError": 4729,
      "Number": 4730,
      "ZeroDivisionError": 4731,
      "behind_a_": 4732,
      "AliasChoices": 4733,
      "APPLICATION_": 4734,
      "behind_a_proxy": 4735,
      "43": 4736,
      "?)": 4737,
      "CI": 4738,
      "CHE": 4739,
      "Ed": 4740,
      "Element": 4741,
      "Github": 4742,
      "LIN": 4743,
      "Main": 4744,
      "Sp": 4745,
      "Us": 4746,
      "UST": 4747,
      "Wind": 4748,
      "_r": 4749,
      "_no": 4750,
      "_headers": 4751,
      "_other": 4752,
      "_cache": 4753,
      "_pool": 4754,
      "_hook": 4755,
      "_delta": 4756,
      "_utf8": 4757,
      "_HEADER": 4758,
      "actions": 4759,
      "bla": 4760,
      "css": 4761,
      "did": 4762,
      "gent": 4763,
      "hoc": 4764,
      "lru": 4765,
      "nd": 4766,
      "qp": 4767,
      "rf": 4768,
      "rstrip": 4769,
      "si": 4770,
      "smar": 4771,
      "te_": 4772,
      "uv": 4773,
      "ured": 4774,
      "}.": 4775,
      "seen": 4776,
      "deli": 4777,
      "rev": 4778,
      "recomm": 4779,
      "replac": 4780,
      "lict": 4781,
      "itz": 4782,
      "est_app": 4783,
      "estamp": 4784,
      "leg": 4785,
      "service": 4786,
      "appname": 4787,
      "strip_": 4788,
      "strrev": 4789,
      "oci": 4790,
      "rict": 4791,
      "test_app_": 4792,
      "test_incorrect": 4793,
      "contract": 4794,
      "associ": 4795,
      "these": 4796,
      "requests_to_": 4797,
      "valent": 4798,
      "\"/{": 4799,
      "\"/\",": 4800,
      "openIdConnect": 4801,
      "get_username": 4802,
      "get_flat": 4803,
      "acility": 4804,
      "\"](": 4805,
      "outside": 4806,
      "keep": 4807,
      "_best_app": 4808,
      "fileb": 4809,
      "refresh": 4810,
      "readable": 4811,
      "First": 4812,
      "fields_from_": 4813,
      "read_user": 4814,
      "read_required_list": 4815,
      "configured": 4816,
      "submit": 4817,
      "lang_paths": 4818,
      "teleport": 4819,
      "response_handler": 4820,
      "server_error": 4821,
      "runn": 4822,
      "request_files": 4823,
      "url_adapter": 4824,
      "redirectresponse": 4825,
      "create_engine": 4826,
      "needy": 4827,
      "maxlength": 4828,
      "db_": 4829,
      "_error_": 4830,
      "_with_response_model": 4831,
      "addr": 4832,
      "secrets": 4833,
      "Advanc": 4834,
      "coverage": 4835,
      "Callback4": 4836,
      "Callback5": 4837,
      "dependency_with_": 4838,
      "IsList": 4839,
      "IsPartial": 4840,
      "param_details": 4841,
      "skip_": 4842,
      "neth": 4843,
      "test_tutorial005": 4844,
      "_body_position": 4845,
      "discussions": 4846,
      "my_boolean": 4847,
      "Dog": 4848,
      "compatible": 4849,
      "LANG": 4850,
      "HeroPublic": 4851,
      "InvalidHeader": 4852,
      "Address": 4853,
      "Otherwise": 4854,
      "proxy_manager": 4855,
      "not_found": 4856,
      "ProxyError": 4857,
      "route_class": 4858,
      "labels": 4859,
      "router_startup": 4860,
      "router_shutdown": 4861,
      "read_model_optional_list": 4862,
      "read_model_required_list": 4863,
      "my_reverse_custom_name": 4864,
      "background": 4865,
      "compute_": 4866,
      "file_files__post": 4867,
      "test_required_list_validation_alias": 4868,
      "test_required_list_str": 4869,
      "condition": 4870,
      "dep_session": 4871,
      "ights": 4872,
      "hronous_": 4873,
      "boundary": 4874,
      "remove_": 4875,
      "Sends": 4876,
      "modified_since": 4877,
      "sponsors": 4878,
      "expires_delta": 4879,
      "Wrapped": 4880,
      "find_best_app": 4881,
      "BadParameter": 4882,
      "_level2_": 4883,
      "similar": 4884,
      "pool_kwargs": 4885,
      "sub_router_startup": 4886,
      "sub_router_shutdown": 4887,
      "verify_password": 4888,
      "if_modified_since": 4889,
      "callback4__get": 4890,
      "callback5__get": 4891,
      "AttributeError": 4892,
      "in_code_block3": 4893,
      "in_code_block4": 4894,
      "EmailStr": 4895,
      "Multiple": 4896,
      "should_strip_": 4897,
      "TEMPLA": 4898,
      "swagger_ui_oauth2_redirect_url": 4899,
      "random": 4900,
      "declared": 4901,
      "get_by_role": 4902,
      "teardown_appcontext": 4903,
      "fspath": 4904,
      "socks5": 4905,
      "external_": 4906,
      "credentials_exception": 4907,
      "Usage": 4908,
      "Windows": 4909,
      "lru_cache": 4910,
      "smart": 4911,
      "requests_to_handle": 4912,
      "get_flat_model": 4913,
      "Advanced": 4914,
      "IsPartialDict": 4915,
      "my_boolean_custom_name": 4916,
      "should_strip_auth": 4917,
      "TEMPLATE": 4918,
      "\"``": 4919,
      "\"',": 4920,
      "'.": 4921,
      ",\"": 4922,
      "4e": 4923,
      "6b": 4924,
      "<!": 4925,
      "Access": 4926,
      "Agent": 4927,
      "CH": 4928,
      "CT": 4929,
      "C_": 4930,
      "Don": 4931,
      "FC": 4932,
      "FF": 4933,
      "How": 4934,
      "Lim": 4935,
      "Larg": 4936,
      "MO": 4937,
      "NT_": 4938,
      "RFC": 4939,
      "Ski": 4940,
      "Sho": 4941,
      "UM": 4942,
      "_im": 4943,
      "_async": 4944,
      "_dependency": 4945,
      "_raises": 4946,
      "_tuple": 4947,
      "_unicode": 4948,
      "_BU": 4949,
      "_pool_": 4950,
      "_anchor": 4951,
      "`-": 4952,
      "bot": 4953,
      "bold": 4954,
      "book": 4955,
      "dDict": 4956,
      "either": 4957,
      "mat": 4958,
      "mapping": 4959,
      "memb": 4960,
      "prefer": 4961,
      "r1": 4962,
      "sDep": 4963,
      "usually": 4964,
      "ws_": 4965,
      "year": 4966,
      "}\"}": 4967,
      "determin": 4968,
      "en_path": 4969,
      "reply": 4970,
      "step": 4971,
      "ited": 4972,
      "hex": 4973,
      "enter": 4974,
      "alone": 4975,
      "amples": 4976,
      "utc": 4977,
      "serve": 4978,
      "served": 4979,
      "roken": 4980,
      "exact": 4981,
      "ctype": 4982,
      "-----": 4983,
      "(\"\",": 4984,
      "is_bytes": 4985,
      "iscoroutine": 4986,
      "\")):": 4987,
      "s_results": 4988,
      "name_with_": 4989,
      "test_config": 4990,
      "test_dependencies": 4991,
      "test_custom_": 4992,
      "param2": 4993,
      "param_model": 4994,
      "param_model_": 4995,
      "(\"/<": 4996,
      "compan": 4997,
      "assum": 4998,
      "Tests": 4999,
      "urls": 5000,
      "plug": 5001,
      "ModelV1": 5002,
      "Delete": 5003,
      "response_model_no_annotation_": 5004,
      "errors_": 5005,
      "atebook": 5006,
      "_init": 5007,
      "_include_": 5008,
      "_incorrect_": 5009,
      "BaseException": 5010,
      "modify": 5011,
      "generic": 5012,
      "Examples": 5013,
      "subscription": 5014,
      "bypass": 5015,
      "templating": 5016,
      "TypedDict": 5017,
      "_sp": 5018,
      "_sponsor": 5019,
      "igh": 5020,
      "currently": 5021,
      "extra_models": 5022,
      "FlaskGroup": 5023,
      "body_multiple_params": 5024,
      "url_scheme": 5025,
      "line_b": 5026,
      "create_user": 5027,
      "template_context_processor": 5028,
      "maxLength": 5029,
      "Strict": 5030,
      "_error_handler": 5031,
      "is_uploadfile": 5032,
      "generate_clients": 5033,
      "allows": 5034,
      "changes": 5035,
      "iter_content": 5036,
      "matches": 5037,
      "ources": 5038,
      "ified_": 5039,
      "operation_ids": 5040,
      "parent_oauth_scopes": 5041,
      "Keyword": 5042,
      "namic": 5043,
      "Proper": 5044,
      "to_json": 5045,
      "dependency_async_wrapper": 5046,
      "github_token": 5047,
      "model_optional": 5048,
      "BlueprintSetup": 5049,
      "TES": 5050,
      "Body_baz": 5051,
      "Body_update_item_items__item_id__put": 5052,
      "301": 5053,
      "extract_": 5054,
      "WithComputed": 5055,
      "_no_credentials": 5056,
      "make_context": 5057,
      "_in_threadpool": 5058,
      "hidden_path": 5059,
      "fixed_doc_lines": 5060,
      "compute": 5061,
      "Load": 5062,
      "ssl_context": 5063,
      "zipped_": 5064,
      "cookiejar_from": 5065,
      "swagger_ui_html": 5066,
      "dep_a": 5067,
      "set_debug_flag": 5068,
      "complete": 5069,
      "DBUser": 5070,
      "Iterable": 5071,
      "syntax": 5072,
      "save": 5073,
      "stored": 5074,
      "better": 5075,
      "NDLE": 5076,
      "_response_server": 5077,
      "path_operation_advanced_configuration": 5078,
      "dunder_call": 5079,
      "cryptography": 5080,
      "finalized": 5081,
      "open_resource": 5082,
      "call_counts": 5083,
      "_list_of_model": 5084,
      "Body_foo_post_root": 5085,
      "tutorial007_py310": 5086,
      "\\*\\*": 5087,
      "dynamic": 5088,
      "test_cli_runner": 5089,
      "uvicorn": 5090,
      "Large": 5091,
      "Skip": 5092,
      "_impartial": 5093,
      "_BUNDLE": 5094,
      "iscoroutinefunction": 5095,
      "company_": 5096,
      "BlueprintSetupState": 5097,
      "WithComputedField": 5098,
      "cookiejar_from_dict": 5099,
      "'\\": 5100,
      "']}": 5101,
      "06": 5102,
      "90": 5103,
      "900": 5104,
      "AUT": 5105,
      "Git": 5106,
      "Greater": 5107,
      "Hub": 5108,
      "Human": 5109,
      "Less": 5110,
      "Label": 5111,
      "Me": 5112,
      "Mon": 5113,
      "Non": 5114,
      "PY": 5115,
      "Patch": 5116,
      "Pull": 5117,
      "ROO": 5118,
      "XY": 5119,
      "[^": 5120,
      "]),": 5121,
      "_to": 5122,
      "_tag": 5123,
      "_state": 5124,
      "_results": 5125,
      "_async_wrapper": 5126,
      "_MIN": 5127,
      "_databases": 5128,
      "bb": 5129,
      "bas": 5130,
      "blog": 5131,
      "cy": 5132,
      "cDep": 5133,
      "cases": 5134,
      "d3": 5135,
      "gs": 5136,
      "plicit": 5137,
      "rglob": 5138,
      "uce": 5139,
      "vnd": 5140,
      "xml": 5141,
      "yes": 5142,
      "yout": 5143,
      "}},": 5144,
      "}})": 5145,
      "ately": 5146,
      "deo": 5147,
      "rem": 5148,
      "lite": 5149,
      "itself": 5150,
      "estring": 5151,
      "serving": 5152,
      "(\"<": 5153,
      "(\"*.": 5154,
      "ocab": 5155,
      "ish": 5156,
      "mod_": 5157,
      "imported": 5158,
      "test_form": 5159,
      "test_read_items_": 5160,
      "test_custom_response": 5161,
      "adhoc": 5162,
      "aster": 5163,
      "retries": 5164,
      "return_model1": 5165,
      "tocol": 5166,
      "param_m": 5167,
      "unch": 5168,
      "tity": 5169,
      "e_header": 5170,
      "Errors": 5171,
      "thir": 5172,
      "__repr": 5173,
      "y_safe": 5174,
      "text_type": 5175,
      "ection": 5176,
      "opened": 5177,
      "openid": 5178,
      "get_a": 5179,
      "get_b": 5180,
      "get_settings": 5181,
      "get_named_": 5182,
      "\"](\"": 5183,
      "out_path": 5184,
      "ModelName": 5185,
      "asyncio": 5186,
      "_banner": 5187,
      "video": 5188,
      "call_next": 5189,
      "://\",": 5190,
      "authori": 5191,
      "key1": 5192,
      "args_": 5193,
      "flaskenv": 5194,
      "read_main": 5195,
      "raise_server": 5196,
      "_middleware": 5197,
      "logo": 5198,
      "instance_re": 5199,
      "dent": 5200,
      "current_dependencies": 5201,
      "body_content": 5202,
      "body_fields": 5203,
      "T_teardown": 5204,
      "sync_sync": 5205,
      ")))": 5206,
      "connect_args": 5207,
      "is_pydantic_v1": 5208,
      "Retry": 5209,
      "PydanticUndefined": 5210,
      "PydanticV1": 5211,
      "async_callable_": 5212,
      "NotSupport": 5213,
      "to_python": 5214,
      "to_key_val_list": 5215,
      "minor": 5216,
      "track": 5217,
      "dummy": 5218,
      "test_tutorial006": 5219,
      "INVALID": 5220,
      "case_in": 5221,
      "prepare_request": 5222,
      "send_file_": 5223,
      "languages": 5224,
      "language_": 5225,
      "myapp": 5226,
      "myview": 5227,
      "_review": 5228,
      "Connection": 5229,
      "interactive": 5230,
      "IOError": 5231,
      "sequence_value": 5232,
      "gen_dep": 5233,
      "websocket_route": 5234,
      "structures": 5235,
      "pydantic_settings": 5236,
      "ge_module": 5237,
      "RegEx": 5238,
      "_REQUE": 5239,
      "conditional": 5240,
      "discussion_number": 5241,
      "Extract": 5242,
      "union_": 5243,
      "duplicate_": 5244,
      "sql_databases": 5245,
      "timestamp": 5246,
      "SwaggerUI": 5247,
      "test_path_param_lt": 5248,
      "test_path_param_le_": 5249,
      "related": 5250,
      "require": 5251,
      "launch": 5252,
      "CommonQueryParams": 5253,
      "following": 5254,
      "sqlite": 5255,
      "google": 5256,
      "_SCHE": 5257,
      "misc": 5258,
      "xxx": 5259,
      "wards": 5260,
      "package_path": 5261,
      "noop_wrap_async": 5262,
      "field_annotation_is_scalar": 5263,
      "path_operation_configuration": 5264,
      "FuncDep": 5265,
      "contributors": 5266,
      "user_agent": 5267,
      "purge_module": 5268,
      "_slashes": 5269,
      "serialize_sequence_value": 5270,
      "Trace": 5271,
      "winreg": 5272,
      "max_content_length": 5273,
      "HttpUrl": 5274,
      "Applications": 5275,
      "test_security_oauth2_password_": 5276,
      "_build_error": 5277,
      "than_equal": 5278,
      "sqlalchemy_safe": 5279,
      "b64encode": 5280,
      "Transfer": 5281,
      "EndpointContext": 5282,
      "Remo": 5283,
      "APPLICATION_ROO": 5284,
      "Edge": 5285,
      "external_docs": 5286,
      "_split": 5287,
      "AUTO": 5288,
      "GitHub": 5289,
      "basestring": 5290,
      "mod_path": 5291,
      "__repr__": 5292,
      "raise_server_exceptions": 5293,
      "instance_relat": 5294,
      "PydanticV1NotSupport": 5295,
      "APPLICATION_ROOT": 5296,
      "PydanticV1NotSupportedError": 5297,
      "!\")": 5298,
      "((\"": 5299,
      ")\\": 5300,
      "418": 5301,
      "960": 5302,
      "></": 5303,
      "AS": 5304,
      "EX": 5305,
      "Each": 5306,
      "Equi": 5307,
      "Full": 5308,
      "IT": 5309,
      "MUST": 5310,
      "NE": 5311,
      "Num": 5312,
      "Pure": 5313,
      "Too": 5314,
      "TCH": 5315,
      "Used": 5316,
      "_string": 5317,
      "_cookie_": 5318,
      "_ok": 5319,
      "_location": 5320,
      "_loader": 5321,
      "_param_name": 5322,
      "_applications": 5323,
      "_PRO": 5324,
      "_tracker": 5325,
      "dang": 5326,
      "dings": 5327,
      "eb": 5328,
      "ep_": 5329,
      "fet": 5330,
      "fatebook": 5331,
      "ium": 5332,
      "ial_": 5333,
      "lers": 5334,
      "mp": 5335,
      "master": 5336,
      "ns": 5337,
      "nan": 5338,
      "past": 5339,
      "tl": 5340,
      "tz": 5341,
      "v4": 5342,
      "zes": 5343,
      "ze_": 5344,
      "\":\"": 5345,
      "enable": 5346,
      "reload": 5347,
      "lish": 5348,
      "erous": 5349,
      "height": 5350,
      "already_": 5351,
      "codings": 5352,
      "appen": 5353,
      "expr": 5354,
      "emory_": 5355,
      "strang": 5356,
      "(\".\")": 5357,
      "(\"{{": 5358,
      "s_from": 5359,
      "s_in_": 5360,
      "import_path": 5361,
      "test_json_": 5362,
      "test_create_item": 5363,
      "test_python_types": 5364,
      "romium": 5365,
      "perform": 5366,
      "permis": 5367,
      "forward": 5368,
      "thre": 5369,
      "and_route": 5370,
      "chall": 5371,
      "chromium": 5372,
      "classes": 5373,
      "get_items": 5374,
      "get_app_": 5375,
      "get_netrc": 5376,
      "get_flas": 5377,
      "get_redoc_html": 5378,
      "=\"$": 5379,
      "no_body_": 5380,
      "locate_": 5381,
      "ModelDefaults": 5382,
      "validation_exception_handler": 5383,
      "cursor": 5384,
      "_bp": 5385,
      "ItemOut": 5386,
      "backend": 5387,
      "flaskr": 5388,
      "read_root": 5389,
      "subname": 5390,
      "docs_src_path": 5391,
      "annotated": 5392,
      "ReadTimeout": 5393,
      "TypeModel": 5394,
      "_sock": 5395,
      "_memory_": 5396,
      "dence": 5397,
      "request_context": 5398,
      "request_and_route": 5399,
      "app_import_path": 5400,
      "items_with_": 5401,
      "with_categories": 5402,
      "with_appcontext": 5403,
      "template_test_": 5404,
      "take": 5405,
      "ContextManager": 5406,
      "[])": 5407,
      "actually": 5408,
      "staticmethod": 5409,
      "default_hooks": 5410,
      "play": 5411,
      "blueprintapp": 5412,
      "Creating": 5413,
      "translated": 5414,
      "upload_files": 5415,
      "environ_base": 5416,
      "Admin": 5417,
      "decorated": 5418,
      "decorating": 5419,
      "SEND": 5420,
      "called_": 5421,
      "streaming": 5422,
      "header_value": 5423,
      "author_id": 5424,
      "model_validate": 5425,
      "_model_field": 5426,
      "ffect": 5427,
      "from_object": 5428,
      "patterns": 5429,
      "303": 5430,
      "Copy": 5431,
      "update_wrapper": 5432,
      "sphinx": 5433,
      "_override_": 5434,
      "_override5_get": 5435,
      "cache_": 5436,
      "session_interface": 5437,
      "ORS": 5438,
      "test_path_operation": 5439,
      "separate": 5440,
      "OtherDependencyError": 5441,
      "Submodel": 5442,
      "headless": 5443,
      "_item_id__get": 5444,
      "PATCH": 5445,
      "stripped": 5446,
      "websocket_endpoint": 5447,
      "all_tracker": 5448,
      "day": 5449,
      "authorization_": 5450,
      "authorizationUrl": 5451,
      "MyModel": 5452,
      "hed_messages": 5453,
      "SSLContext": 5454,
      "InternalError": 5455,
      "tutorial004_an_py310": 5456,
      "wraps": 5457,
      "discussion_edges": 5458,
      "exit__": 5459,
      "_default5_get": 5460,
      "archive": 5461,
      "bp_options": 5462,
      "process_items": 5463,
      "chunk_size": 5464,
      "netrc_path": 5465,
      "window": 5466,
      "_path_param_": 5467,
      "LinkInfo": 5468,
      "_from_url": 5469,
      "installed_": 5470,
      "OAuth2PasswordRequestFormStrict": 5471,
      "DEFAULT": 5472,
      "googall_tracker": 5473,
      "HTTPDigestAuth": 5474,
      "lookup": 5475,
      "too_short": 5476,
      "CODE": 5477,
      "_signals": 5478,
      "max_form_parts": 5479,
      "max_form_memory_": 5480,
      "flashed": 5481,
      "bigger_applications": 5482,
      "current_block_": 5483,
      "Abort": 5484,
      "789": 5485,
      "intainer": 5486,
      "OAuthFlow": 5487,
      "CEPTIONS": 5488,
      "exclusiveMinimum": 5489,
      "Product": 5490,
      "delete_": 5491,
      "ads_id": 5492,
      "overrider_dependency_with_": 5493,
      "rfc": 5494,
      "associated": 5495,
      "Limit": 5496,
      "Equivalent": 5497,
      "_PROXY": 5498,
      "dangerous": 5499,
      "fatebook_tracker": 5500,
      "get_app_client": 5501,
      "get_netrc_auth": 5502,
      "get_flashed_messages": 5503,
      "max_form_memory_size": 5504,
      "overrider_dependency_with_sub": 5505,
      "\"`": 5506,
      "(...": 5507,
      "({})": 5508,
      ")(": 5509,
      "-{": 5510,
      "300": 5511,
      "9a": 5512,
      ":%": 5513,
      ":=": 5514,
      ">\",": 5515,
      "Af": 5516,
      "A_BUNDLE": 5517,
      "Bigger": 5518,
      "Cat": 5519,
      "Dum": 5520,
      "Either": 5521,
      "FO": 5522,
      "FR": 5523,
      "GOR": 5524,
      "Met": 5525,
      "Morsel": 5526,
      "Ow": 5527,
      "Pon": 5528,
      "SION": 5529,
      "TS": 5530,
      "WITH": 5531,
      "_json": 5532,
      "_param": 5533,
      "_description": 5534,
      "_time": 5535,
      "_cert": 5536,
      "_lt": 5537,
      "_session_": 5538,
      "_parsing": 5539,
      "_context_processor": 5540,
      "_commenters": 5541,
      "_find_": 5542,
      "_store": 5543,
      "_consumed": 5544,
      "ai": 5545,
      "bg": 5546,
      "ble": 5547,
      "cf": 5548,
      "cks": 5549,
      "d1": 5550,
      "dra": 5551,
      "duration": 5552,
      "fon": 5553,
      "fish": 5554,
      "glish": 5555,
      "href": 5556,
      "miter": 5557,
      "ob": 5558,
      "q_foo": 5559,
      "rules": 5560,
      "sess": 5561,
      "sames": 5562,
      "scaffold": 5563,
      "tb": 5564,
      "tain": 5565,
      "tables": 5566,
      "tensions": 5567,
      "yet": 5568,
      "}',": 5569,
      "}.\"": 5570,
      "seg": 5571,
      "device": 5572,
      "ences": 5573,
      "encodings": 5574,
      "repository": 5575,
      "light": 5576,
      "inel": 5577,
      "erate": 5578,
      "stor": 5579,
      "etag": 5580,
      "row": 5581,
      "experts": 5582,
      "getElement": 5583,
      "ots__": 5584,
      "\")}": 5585,
      "\")]):": 5586,
      "s_commenters": 5587,
      "path2": 5588,
      "test_strict": 5589,
      "test_router_a": 5590,
      "test_additional_responses": 5591,
      "return_model": 5592,
      "return_model2": 5593,
      "cedence": 5594,
      "toml": 5595,
      "to_encode": 5596,
      "nothing": 5597,
      "apiKey": 5598,
      "param_functions": 5599,
      "unwrapped_call": 5600,
      "request_body_": 5601,
      "__sl": 5602,
      "200_": 5603,
      "classmethod": 5604,
      "url_matching_": 5605,
      "get_valid": 5606,
      "get_validation_alias": 5607,
      "get_encoding": 5608,
      "get_users_": 5609,
      "get_route_handler": 5610,
      "acro": 5611,
      "ModelB": 5612,
      "response_model_": 5613,
      "object_test": 5614,
      "_bg": 5615,
      "_bar": 5616,
      "_bool": 5617,
      "precedence": 5618,
      "authtype": 5619,
      "Fight": 5620,
      "keyset": 5621,
      "keyPatch": 5622,
      "are_": 5623,
      "_path_override": 5624,
      "Extensions": 5625,
      "../": 5626,
      "version_info": 5627,
      "install": 5628,
      "RequestCallable": 5629,
      "byte": 5630,
      "------": 5631,
      "Calls": 5632,
      "tags_": 5633,
      "bar_post_router": 5634,
      "UserOut": 5635,
      "response_field": 5636,
      "no_query": 5637,
      "server_name": 5638,
      "run_in_threadpool": 5639,
      "slug": 5640,
      "app_template_global": 5641,
      "create_access_token": 5642,
      "query_items": 5643,
      "disconnect": 5644,
      "prefix_router": 5645,
      "T_error_handler": 5646,
      "Cookies": 5647,
      ".../": 5648,
      "...]": 5649,
      "hero_db": 5650,
      "parameterless_": 5651,
      "uploadfiles": 5652,
      "add_task": 5653,
      "python_multipart": 5654,
      "Entity": 5655,
      "English": 5656,
      "Added": 5657,
      "dep1": 5658,
      "eyJ": 5659,
      "parent_name": 5660,
      "expected_json": 5661,
      "SecurityScheme": 5662,
      "header_examples": 5663,
      "header_param_models": 5664,
      "grand": 5665,
      "_content_consumed": 5666,
      "jinja2": 5667,
      "configurations": 5668,
      "dependency_cache": 5669,
      "IsInt": 5670,
      "WebSocketException": 5671,
      "model_optional_list": 5672,
      "model_dump": 5673,
      "network": 5674,
      "Comp": 5675,
      "from_directory": 5676,
      "skipif": 5677,
      "ive_dict": 5678,
      "psf": 5679,
      "translation_review": 5680,
      "poolmanager": 5681,
      "send_from_directory": 5682,
      "sentinel": 5683,
      "---------------------": 5684,
      "static_dir": 5685,
      "_CA_BUNDLE": 5686,
      "Tagged": 5687,
      "uniqueItems": 5688,
      "Decorate": 5689,
      "ing_else": 5690,
      "ById": 5691,
      "image01": 5692,
      "SubItem": 5693,
      "Subscription": 5694,
      "subclasses": 5695,
      "subclassing": 5696,
      "hidden_header": 5697,
      "hidden_cookie": 5698,
      "sensitive_dict": 5699,
      "ALGOR": 5700,
      "regexquery": 5701,
      "Logger": 5702,
      "expire": 5703,
      "login_post": 5704,
      "VERSION": 5705,
      "merged": 5706,
      "ensure_": 5707,
      "common_object_test": 5708,
      "x_key": 5709,
      "named_session_open": 5710,
      "class_instance_wrapped_": 5711,
      "class_instance_async_wrapped_": 5712,
      "timed": 5713,
      "some_value": 5714,
      "content_type_level": 5715,
      "_uploadfile__post": 5716,
      "enumerate": 5717,
      "expired": 5718,
      "tutorial005_an_py310": 5719,
      "something_else": 5720,
      "_PAR": 5721,
      "router_b_override": 5722,
      "Role": 5723,
      "says": 5724,
      "test_override_with_": 5725,
      "TIC_": 5726,
      "cli_group": 5727,
      "test_query_params_str_validations_no_query": 5728,
      "Body_create_file_files__post": 5729,
      "CommonHeaders": 5730,
      "_or_nonable": 5731,
      "_response_handler": 5732,
      "tutorial008_py310": 5733,
      "rewindable": 5734,
      "SESSION_COOKIE_": 5735,
      "_validator": 5736,
      "previous_": 5737,
      "celery": 5738,
      "upload_file_uploadfile__post": 5739,
      "test_post_body_form": 5740,
      "removable_paths": 5741,
      "dunder_unwrapped_call": 5742,
      "router_b_a_c": 5743,
      "explicitly": 5744,
      "depends_q_foo": 5745,
      "DIRE": 5746,
      "ITHM": 5747,
      "license_info": 5748,
      "transaction": 5749,
      "router2_override": 5750,
      "test_security_http_digest": 5751,
      "test_security_http_bearer": 5752,
      "ClassInstanceAsync": 5753,
      "total_length": 5754,
      "FOO_": 5755,
      "llm": 5756,
      "for_access_token": 5757,
      "Converter": 5758,
      "attempts": 5759,
      "Receiv": 5760,
      "test_override_in_items_with_": 5761,
      "LARGE_": 5762,
      "sqlite_url": 5763,
      "Lookup": 5764,
      "exposed": 5765,
      "annotated_doc": 5766,
      "buffer": 5767,
      "environ_proxies": 5768,
      "preserve_": 5769,
      "unquote_": 5770,
      "enter__": 5771,
      "Properties": 5772,
      "MonkeyPatch": 5773,
      "case_insensitive_dict": 5774,
      "fetch": 5775,
      "strange_header": 5776,
      "challen": 5777,
      "After": 5778,
      "Dummy": 5779,
      "FROM": 5780,
      "Pond": 5781,
      "samesite": 5782,
      "getElementById": 5783,
      "test_strict_": 5784,
      "__slots__": 5785,
      "Fighters": 5786,
      "ALGORITHM": 5787,
      "$\",": 5788,
      "$\")": 5789,
      "'<": 5790,
      ")[": 5791,
      ".,": 5792,
      "/<": 5793,
      "/\"),": 5794,
      "31": 5795,
      "98": 5796,
      "AR": 5797,
      "Broken": 5798,
      "CT_": 5799,
      "Ctx": 5800,
      "Cache": 5801,
      "Fin": 5802,
      "FOR": 5803,
      "HO": 5804,
      "ITE": 5805,
      "Many": 5806,
      "Obj": 5807,
      "Popen": 5808,
      "Sh": 5809,
      "Te": 5810,
      "TING": 5811,
      "_FILE": 5812,
      "_sub": 5813,
      "_items_": 5814,
      "_on_": 5815,
      "_credentials": 5816,
      "_class_": 5817,
      "_context_": 5818,
      "_proxy_": 5819,
      "_empty": 5820,
      "_langs": 5821,
      "_service": 5822,
      "_called_": 5823,
      "ef": 5824,
      "effect": 5825,
      "flow": 5826,
      "goto": 5827,
      "hT": 5828,
      "happen": 5829,
      "iling": 5830,
      "ked": 5831,
      "late": 5832,
      "mb": 5833,
      "map": 5834,
      "poo": 5835,
      "sig": 5836,
      "toc": 5837,
      "uction": 5838,
      "xn": 5839,
      "zero": 5840,
      "}}\")": 5841,
      "seem": 5842,
      "deep": 5843,
      "enctype": 5844,
      "report": 5845,
      "eriali": 5846,
      "stder": 5847,
      "ites": 5848,
      "it_stack": 5849,
      "alt": 5850,
      "utable": 5851,
      "teststr": 5852,
      "imi": 5853,
      "\"\").": 5854,
      "getproxies": 5855,
      "is_body_": 5856,
      "five": 5857,
      "s_of": 5858,
      "()))": 5859,
      "ched": 5860,
      "pyfile": 5861,
      "pyopenssl": 5862,
      "ulary": 5863,
      "delattr": 5864,
      "test_content": 5865,
      "test_header": 5866,
      "test_body": 5867,
      "test_websocket": 5868,
      "test_filter": 5869,
      "test_basic": 5870,
      "test_no_response_model_annotation_": 5871,
      "pending": 5872,
      "unless": 5873,
      "unwrapped": 5874,
      "codegen": 5875,
      "e_month": 5876,
      "percent": 5877,
      "__exit__": 5878,
      "status_codes": 5879,
      "user_me": 5880,
      "orig": 5881,
      "licy": 5882,
      "Recursive": 5883,
      "ship": 5884,
      "open_session": 5885,
      "get_item": 5886,
      "get_secret": 5887,
      "get_swagger_ui_html": 5888,
      "ResponseModel": 5889,
      "plane": 5890,
      "header_info": 5891,
      "ModelA": 5892,
      "async_ex": 5893,
      "response_model_union": 5894,
      "file_name": 5895,
      "1080": 5896,
      "resp_": 5897,
      "resources": 5898,
      "auth_from_url": 5899,
      "field_type": 5900,
      "words": 5901,
      "contextvars": 5902,
      "{}).": 5903,
      "Success": 5904,
      "illa": 5905,
      "validator": 5906,
      "properly": 5907,
      "_expect": 5908,
      "lying": 5909,
      "weak": 5910,
      "weights": 5911,
      "methods_": 5912,
      "formed": 5913,
      "ONTE": 5914,
      "_ssl": 5915,
      "tagged": 5916,
      "Offer": 5917,
      "init_": 5918,
      "init_db": 5919,
      "FlaskCliRunner": 5920,
      "webhook": 5921,
      "JSONSerializer": 5922,
      "no_duplicates": 5923,
      "redirect_slashes": 5924,
      "QueryValue": 5925,
      "hashed": 5926,
      "usage": 5927,
      "template_rendered": 5928,
      "override1": 5929,
      "needs": 5930,
      "start_line": 5931,
      "endpoint_path": 5932,
      "MessageEvent": 5933,
      "URI": 5934,
      "missing_paths": 5935,
      "null_session": 5936,
      "tutorial001_0": 5937,
      "_net": 5938,
      "secret_key": 5939,
      "Parent": 5940,
      "olve": 5941,
      "latin": 5942,
      "match_": 5943,
      "ureCookie": 5944,
      "env_name": 5945,
      "Local": 5946,
      "exc_class_": 5947,
      "dep3": 5948,
      "deps": 5949,
      "async_dep": 5950,
      "manag": 5951,
      "pair": 5952,
      "to_process": 5953,
      "stream_": 5954,
      "item_1": 5955,
      "AppGroup": 5956,
      "minimum": 5957,
      "_content_type": 5958,
      "checker": 5959,
      "param_required": 5960,
      "WebSocketRequestValidationError": 5961,
      "_envvar": 5962,
      "super_re": 5963,
      "\"])],": 5964,
      "ive_config": 5965,
      "filenames": 5966,
      "block_a": 5967,
      "new_page": 5968,
      "extract_cookies": 5969,
      "prepare_": 5970,
      "routing_exception": 5971,
      "swagger_js_url": 5972,
      "swagger_cs": 5973,
      "nonregexquery": 5974,
      "sync_api": 5975,
      "separated": 5976,
      "OtherItem": 5977,
      "PAM": 5978,
      "pets": 5979,
      "pet_type": 5980,
      "client_cert": 5981,
      "Maintainer": 5982,
      "LIC": 5983,
      "sort_keys": 5984,
      "AsMaintainer": 5985,
      "basic_response_server": 5986,
      "swagger_ui_parameters": 5987,
      "createdAt": 5988,
      "process_after": 5989,
      "chunked": 5990,
      "fails": 5991,
      "Manually": 5992,
      "pickled": 5993,
      "safe_": 5994,
      "stacklevel": 5995,
      "_instance": 5996,
      "abspath": 5997,
      "_environment": 5998,
      "WSGIEnvironment": 5999,
      "_auth_str": 6000,
      "SecureCookie": 6001,
      "oauth2_redirect_url": 6002,
      "start_datetime": 6003,
      "category_filter": 6004,
      "markdown_links": 6005,
      "advanced_middleware": 6006,
      "encoders": 6007,
      "_validate_": 6008,
      "trust_env": 6009,
      "resolve_redirects": 6010,
      "repeated": 6011,
      "controls": 6012,
      "field_annotation_is_sequence": 6013,
      "get_graphql_response": 6014,
      "terminate": 6015,
      "Function": 6016,
      "ForbiddenSubclass": 6017,
      "Result": 6018,
      "configure_swagger_ui": 6019,
      "placeholders": 6020,
      "current_block_lines": 6021,
      "end_datetime": 6022,
      "tools": 6023,
      "terms_of": 6024,
      "SETTING": 6025,
      "redoc_js_url": 6026,
      "ote_addr": 6027,
      "tempor": 6028,
      "tutorial009_py310": 6029,
      "record_once": 6030,
      "Globals": 6031,
      "evalu": 6032,
      "escape": 6033,
      "one_year": 6034,
      "tutorial010": 6035,
      "link_text": 6036,
      "occurred": 6037,
      "propagate": 6038,
      "six_month": 6039,
      "partial_": 6040,
      "typing_extensions": 6041,
      "legac": 6042,
      "test_incorrect_token": 6043,
      "running": 6044,
      "4e9a": 6045,
      "member": 6046,
      "name_with_age": 6047,
      "PullRequest": 6048,
      "remote_addr": 6049,
      "ocabulary": 6050,
      "instance_relative_config": 6051,
      "paste": 6052,
      "three_month": 6053,
      "locate_app": 6054,
      "Metadata": 6055,
      "TaggedJSONSerializer": 6056,
      "stderr": 6057,
      "get_secret_value": 6058,
      "async_exit_stack": 6059,
      "QueryValueEx": 6060,
      "super_reverse": 6061,
      "swagger_css_url": 6062,
      "terms_of_service": 6063,
      "SETTINGS": 6064,
      "4e9a06": 6065,
      "\"?": 6066,
      "\".\"": 6067,
      "%}": 6068,
      "'/": 6069,
      "'\",": 6070,
      "(.": 6071,
      "(`": 6072,
      "([]": 6073,
      "*\",": 6074,
      "28": 6075,
      "3b": 6076,
      "5d": 6077,
      "91": 6078,
      ":/": 6079,
      "<=": 6080,
      "AA": 6081,
      "Block": 6082,
      "Bundle": 6083,
      "Cor": 6084,
      "Col": 6085,
      "Click": 6086,
      "DA": 6087,
      "D_NAME": 6088,
      "FER": 6089,
      "Gr": 6090,
      "Gu": 6091,
      "Just": 6092,
      "MT": 6093,
      "Mk": 6094,
      "Mutable": 6095,
      "NI": 6096,
      "Oi": 6097,
      "Rect": 6098,
      "Sy": 6099,
      "Sum": 6100,
      "Save": 6101,
      "Scaffold": 6102,
      "SPAM": 6103,
      "SNI": 6104,
      "Tp": 6105,
      "Two": 6106,
      "Tear": 6107,
      "USER": 6108,
      "_one": 6109,
      "_option": 6110,
      "_app_": 6111,
      "_null": 6112,
      "_defaults": 6113,
      "_proxy": 6114,
      "_copy": 6115,
      "_methods": 6116,
      "_level4": 6117,
      "_lang_code": 6118,
      "_401_": 6119,
      "_MAX_": 6120,
      "_DEFAULT": 6121,
      "ale": 6122,
      "ber": 6123,
      "cone": 6124,
      "didn": 6125,
      "eps": 6126,
      "gu": 6127,
      "hes": 6128,
      "hrough": 6129,
      "ie_": 6130,
      "identi": 6131,
      "md_": 6132,
      "opa": 6133,
      "pem": 6134,
      "pret": 6135,
      "qop": 6136,
      "rt": 6137,
      "rco": 6138,
      "tpon": 6139,
      "ted_": 6140,
      "ts_results": 6141,
      "ual_": 6142,
      "vor": 6143,
      "zz": 6144,
      "}.{": 6145,
      "deque": 6146,
      "rec": 6147,
      "reloader": 6148,
      "recursive": 6149,
      "lies": 6150,
      "inher": 6151,
      "ord": 6152,
      "or_default": 6153,
      "erred": 6154,
      "\",\"": 6155,
      "sthrough": 6156,
      "estion": 6157,
      "estlers": 6158,
      "apsed": 6159,
      "alformed": 6160,
      "ets": 6161,
      "app0": 6162,
      "question": 6163,
      "()[": 6164,
      "pyAr": 6165,
      "test_string": 6166,
      "test_query": 6167,
      "test_router": 6168,
      "test_run": 6169,
      "test_items_": 6170,
      "test_login": 6171,
      "test_testing": 6172,
      "test_client_": 6173,
      "test_HTTP_": 6174,
      "adding": 6175,
      "from_mapping": 6176,
      "ceeded": 6177,
      "top_": 6178,
      "unpack": 6179,
      "unicorn": 6180,
      "(\"/?": 6181,
      "model2": 6182,
      "combin": 6183,
      "perts_results": 6184,
      "forwar": 6185,
      "__enter__": 6186,
      "httpon": 6187,
      "success": 6188,
      "user_in": 6189,
      "\"/\"": 6190,
      "within": 6191,
      "with_name": 6192,
      "_model_with_": 6193,
      "lists": 6194,
      "ReDoc": 6195,
      "Replace": 6196,
      "get_openapi": 6197,
      "get_access_token": 6198,
      "get_debug_flag": 6199,
      "get_typed_": 6200,
      "get_send_file_": 6201,
      "get_auth_from_url": 6202,
      "get_partial_": 6203,
      "aces": 6204,
      "\"]:": 6205,
      "default3": 6206,
      "post_form": 6207,
      "ModelNo": 6208,
      "Device": 6209,
      "ically": 6210,
      "erroring": 6211,
      "_b_override": 6212,
      "angle": 6213,
      "trap": 6214,
      "ofsil": 6215,
      "vised": 6216,
      "maid": 6217,
      "auth_header": 6218,
      "_incorrect": 6219,
      "AnyTh": 6220,
      "markup": 6221,
      "docs_url": 6222,
      "docs_dir_path": 6223,
      "instan": 6224,
      "read_list": 6225,
      "subrouter": 6226,
      "_expi": 6227,
      "token_": 6228,
      "token_data": 6229,
      "example1": 6230,
      "logic": 6231,
      "ouble": 6232,
      "These": 6233,
      "sender": 6234,
      "sending": 6235,
      "initiali": 6236,
      "OpenKey": 6237,
      "favor": 6238,
      "ml_models": 6239,
      "handler_results": 6240,
      "view_functions": 6241,
      "CallableGen": 6242,
      "CallableDependency": 6243,
      "request_validation_exception_handler": 6244,
      "html_type": 6245,
      "override_environ": 6246,
      "query_examples": 6247,
      "Uni": 6248,
      "Unable": 6249,
      "cancel": 6250,
      "URL_SCHE": 6251,
      "root_spec": 6252,
      "SessionFuncDep": 6253,
      "path_examples": 6254,
      "path_format": 6255,
      "static_file": 6256,
      "FileResponse": 6257,
      "Here": 6258,
      "_errors_": 6259,
      "default_config": 6260,
      "passthrough": 6261,
      "translate": 6262,
      "translators": 6263,
      "add_template_filter": 6264,
      "add_template_test": 6265,
      "max_retries": 6266,
      "changApp": 6267,
      "iteritems": 6268,
      "RED_": 6269,
      "Apache": 6270,
      "dep2": 6271,
      "_and_": 6272,
      "final": 6273,
      "parent_": 6274,
      "first_dir": 6275,
      "security_schemes": 6276,
      "to_write": 6277,
      "AppOr": 6278,
      "header_part": 6279,
      "_content_length": 6280,
      "cookie_dict": 6281,
      "cookie_examples": 6282,
      "Setting": 6283,
      "Fixed": 6284,
      "author_name": 6285,
      "BlueprintKey": 6286,
      "GenDep": 6287,
      "from_pyfile": 6288,
      "custom_field": 6289,
      "custom_route_handler": 6290,
      "test_tutorial008": 6291,
      "base64": 6292,
      "translation_banner": 6293,
      "_missing_required": 6294,
      "exist_ok": 6295,
      "level1_level2_": 6296,
      "fake_database": 6297,
      "extractor": 6298,
      "supports": 6299,
      "hash_utf8": 6300,
      "test_get_items": 6301,
      "Does": 6302,
      "myitem": 6303,
      "test_post_with_": 6304,
      "static_files": 6305,
      "serializable": 6306,
      "HeroBase": 6307,
      "ConnectTimeout": 6308,
      "boolean_2": 6309,
      "link_info": 6310,
      "decode_unicode": 6311,
      "abc123": 6312,
      "01_py310": 6313,
      "without_": 6314,
      "route_with_": 6315,
      "yourapplication": 6316,
      "replace_": 6317,
      "gen_callable": 6318,
      "client_no": 6319,
      "redoc_url": 6320,
      "flat_fields_from_": 6321,
      "idea": 6322,
      "externalDocs": 6323,
      "en_doc_lines": 6324,
      "http_connection": 6325,
      "router_lifespan": 6326,
      "lowercase": 6327,
      "ModelOptionalAlias": 6328,
      "ModelOptionalStr": 6329,
      "ModelOptionalValidationAlias": 6330,
      "ModelOptionalAliasAndValidationAlias": 6331,
      "ModelRequiredAlias": 6332,
      "ModelRequiredStr": 6333,
      "ModelRequiredValidationAlias": 6334,
      "ModelRequiredAliasAndValidationAlias": 6335,
      "my_reverse_2": 6336,
      "nested_": 6337,
      "implemented_": 6338,
      "_to_cookie": 6339,
      "_to_jar": 6340,
      "file_obj": 6341,
      "Login": 6342,
      "get_stuff_2": 6343,
      "get_stuff_3": 6344,
      "_request_context": 6345,
      "Start": 6346,
      "Chimi": 6347,
      "_RELOAD": 6348,
      "DiscussionComment": 6349,
      "graphql_response": 6350,
      "basicConfig": 6351,
      "original_route_handler": 6352,
      "\"]}),": 6353,
      "discussion_nodes": 6354,
      "ENT_": 6355,
      "_get_flat_fields_from_": 6356,
      "referenc": 6357,
      "sqlmodel": 6358,
      "background_task": 6359,
      "S_AUTO": 6360,
      "closing": 6361,
      "Serialize": 6362,
      "additional_status_code": 6363,
      "everything": 6364,
      "_path_param": 6365,
      "Wrestlers": 6366,
      "old_content": 6367,
      "_install": 6368,
      "DocsConfig": 6369,
      "received_body": 6370,
      "morsel_to_cookie": 6371,
      "_basic_auth_str": 6372,
      "TIME": 6373,
      "------------------------------------------------": 6374,
      "permanent_": 6375,
      "mixed": 6376,
      "test_security_http_base": 6377,
      "HASH": 6378,
      "_SIZE": 6379,
      "arbitr": 6380,
      "state_try": 6381,
      "after_yield": 6382,
      "cert_loc": 6383,
      "TRAP": 6384,
      "get_path_param_lt": 6385,
      "ATA": 6386,
      "Multiline": 6387,
      "second_": 6388,
      "prompt_path": 6389,
      "461": 6390,
      "AGE_DEFAULT": 6391,
      "trigger": 6392,
      "representation": 6393,
      "tutorial011": 6394,
      "router2_default": 6395,
      "run_simple_mock": 6396,
      "mixed_dict": 6397,
      "DEFAULT_PO": 6398,
      "partitioned": 6399,
      "_endpoint_context": 6400,
      "appropri": 6401,
      "terms": 6402,
      "pr_nodes": 6403,
      "Special": 6404,
      "prepend": 6405,
      "InvoiceEventReceiv": 6406,
      "translated_doc_number_gt": 6407,
      "translated_doc_number_lt": 6408,
      "my_get_stuff_custom_name_2": 6409,
      "my_get_stuff_custom_name_3": 6410,
      "PREFER": 6411,
      "_VALIDAT": 6412,
      "read_users_me": 6413,
      "deploy": 6414,
      "greater_than": 6415,
      "FakeNum": 6416,
      "hik": 6417,
      "004461": 6418,
      "greenlet": 6419,
      "CII": 6420,
      "replacement": 6421,
      "openIdConnectUrl": 6422,
      "get_flat_models_from_": 6423,
      "TEMPLATES_AUTO": 6424,
      "ighlight": 6425,
      "sync_sync_raise": 6426,
      "SwaggerUIBundle": 6427,
      "Traceback": 6428,
      "ASCII": 6429,
      "permission": 6430,
      "TypeModelSet": 6431,
      "SEND_FILE": 6432,
      "cache_control": 6433,
      "fonts": 6434,
      "device_ids": 6435,
      "200_OK": 6436,
      "get_users_to_write": 6437,
      "SecuritySchemeType": 6438,
      "router_b_a_c_override": 6439,
      "DIRECT_": 6440,
      "challenge": 6441,
      "methods_dependency": 6442,
      "management": 6443,
      "extract_cookies_to_jar": 6444,
      "repeated_alias": 6445,
      "MkDocsConfig": 6446,
      "MutableMapping": 6447,
      "OiJ": 6448,
      "Rectangle": 6449,
      "Summary": 6450,
      "Teardown": 6451,
      "_MAX_AGE_DEFAULT": 6452,
      "alex": 6453,
      "coneofsil": 6454,
      "identifi": 6455,
      "md_file": 6456,
      "opaque": 6457,
      "rcobj": 6458,
      "pyArray": 6459,
      "httponly": 6460,
      "get_send_file_max_age": 6461,
      "ModelNoAlias": 6462,
      "AnyThing": 6463,
      "CallableGenDependency": 6464,
      "URL_SCHEME": 6465,
      "RED_URL_SCHEME": 6466,
      "AppOrBlueprintKey": 6467,
      "ChimichangApp": 6468,
      "_get_flat_fields_from_params": 6469,
      "InvoiceEventReceived": 6470,
      "PREFERRED_URL_SCHEME": 6471,
      "FakeNumpyArray": 6472,
      "TEMPLATES_AUTO_RELOAD": 6473,
      "SEND_FILE_MAX_AGE_DEFAULT": 6474,
      "coneofsilence": 6475,
      "$\"},": 6476,
      ",'": 6477,
      ",)": 6478,
      "29": 6479,
      "38": 6480,
      "55": 6481,
      "62": 6482,
      "70": 6483,
      "76": 6484,
      ">;": 6485,
      "ANG": 6486,
      "Bl": 6487,
      "BOM": 6488,
      "Cal": 6489,
      "Clean": 6490,
      "Giv": 6491,
      "Gzip": 6492,
      "GATE": 6493,
      "N80": 6494,
      "OLO": 6495,
      "PI": 6496,
      "Ren": 6497,
      "Respon": 6498,
      "Sync": 6499,
      "Sign": 6500,
      "Show": 6501,
      "Section": 6502,
      "Vary": 6503,
      "WHE": 6504,
      "WOR": 6505,
      "WS_": 6506,
      "Zip": 6507,
      "]*": 6508,
      "]},": 6509,
      "_w": 6510,
      "_result": 6511,
      "_host": 6512,
      "_connect": 6513,
      "_stream": 6514,
      "_App": 6515,
      "_thread": 6516,
      "_heroes": 6517,
      "_int_": 6518,
      "_LIN": 6519,
      "_sentinel": 6520,
      "bn": 6521,
      "bid": 6522,
      "cut": 6523,
      "cabc": 6524,
      "double": 6525,
      "eas": 6526,
      "eager": 6527,
      "fn": 6528,
      "medi": 6529,
      "pg": 6530,
      "rmt": 6531,
      "srcobj": 6532,
      "vate": 6533,
      "xff": 6534,
      "{%": 6535,
      "{'": 6536,
      "{\\": 6537,
      "}/{": 6538,
      "}}\"": 6539,
      "sequ": 6540,
      "really": 6541,
      "reviews": 6542,
      "reitz": 6543,
      "revised": 6544,
      "lio": 6545,
      "etim": 6546,
      "rop": 6547,
      "rows": 6548,
      "apps": 6549,
      "app_b": 6550,
      "getlist": 6551,
      "(\"-": 6552,
      "isbn": 6553,
      "\")[": 6554,
      "\")),": 6555,
      "s_query": 6556,
      "importing": 6557,
      "pyright": 6558,
      "requote_": 6559,
      "ulate": 6560,
      "const": 6561,
      "pares": 6562,
      "test_request": 6563,
      "test_file": 6564,
      "test_multi": 6565,
      "test_template_filter": 6566,
      "test_swagger_ui": 6567,
      "test_broken": 6568,
      "json_bytes": 6569,
      "elapsed": 6570,
      "notset": 6571,
      "extension": 6572,
      "unhandled": 6573,
      "unreserved": 6574,
      "unked": 6575,
      "codecs": 6576,
      "forbid": 6577,
      "requested": 6578,
      "documents": 6579,
      "contents": 6580,
      "user_data": 6581,
      "chal": 6582,
      "Repository": 6583,
      "get_app": 6584,
      "get_json": 6585,
      "get_data": 6586,
      "get_items_": 6587,
      "get_flat_dependant": 6588,
      "get_authorization_": 6589,
      "get_environ_proxies": 6590,
      "http_exception_handler": 6591,
      "setter": 6592,
      "set_environ": 6593,
      "=\"{{": 6594,
      "value_name": 6595,
      "no_alias": 6596,
      "Model3": 6597,
      "ical": 6598,
      "error_": 6599,
      "vely": 6600,
      "_bundle": 6601,
      "file2": 6602,
      "LECT": 6603,
      "ref2": 6604,
      "via": 6605,
      "maintain": 6606,
      "preview": 6607,
      "fight": 6608,
      "use_annotation": 6609,
      "prim": 6610,
      "press": 6611,
      "backwards": 6612,
      "keyfile": 6613,
      "Inactive": 6614,
      "kenneth": 6615,
      "contexts": 6616,
      "ed_large_": 6617,
      "External": 6618,
      "_exclude": 6619,
      "anyio": 6620,
      "TypeAdapter": 6621,
      "cors": 6622,
      ":`/": 6623,
      "_mer": 6624,
      "tag1": 6625,
      "tag2": 6626,
      "private": 6627,
      "lenet": 6628,
      "more_specific": 6629,
      "initial": 6630,
      "num_401_": 6631,
      "UserBase": 6632,
      "hosts": 6633,
      "response_content": 6634,
      "response_fields": 6635,
      "whites": 6636,
      "no_key": 6637,
      "shouldn": 6638,
      "updates": 6639,
      "app_an_py310": 6640,
      "create_file": 6641,
      "create_dependency": 6642,
      "items__get": 6643,
      "Forward": 6644,
      "BodyError": 6645,
      "query_param_models": 6646,
      "do_": 6647,
      "in_str": 6648,
      "attr_name": 6649,
      "Unrewindable": 6650,
      "ContextVar": 6651,
      "_urls": 6652,
      "_urllib3": 6653,
      "128": 6654,
      "is_async_": 6655,
      "is_coroutine": 6656,
      "allowing": 6657,
      "change_": 6658,
      "olved": 6659,
      "ca_bundle": 6660,
      "inject": 6661,
      "SELECT": 6662,
      "STS": 6663,
      "first_request": 6664,
      "invalid_id": 6665,
      "invalid_header": 6666,
      "item_2": 6667,
      "trailing": 6668,
      "cookie_param_models": 6669,
      "jinja_loader": 6670,
      "event_type": 6671,
      "werkzeug_version": 6672,
      "author_time": 6673,
      "github_event": 6674,
      "gt0": 6675,
      "netmask": 6676,
      "comment_id": 6677,
      "parse_url": 6678,
      "custom_request_and_route": 6679,
      "Body_bar_post_router": 6680,
      "users__get": 6681,
      "translations": 6682,
      "discussion_id": 6683,
      "test_security_api_key": 6684,
      "session_closed": 6685,
      "_no_response_model": 6686,
      "send_json": 6687,
      "send_static_file": 6688,
      "hashlib": 6689,
      "swagger_favicon_url": 6690,
      "}/\"": 6691,
      "tmpdir": 6692,
      "sync_context_b": 6693,
      "InvalidSchema": 6694,
      "InvalidProxy": 6695,
      "urllib3_version": 6696,
      "multipart_not": 6697,
      "multipart_incorrect": 6698,
      "OKEN": 6699,
      "proxy_auth": 6700,
      "proxy_bypass": 6701,
      ".\")]": 6702,
      "interpret": 6703,
      "CodeBlock": 6704,
      "PAGATE": 6705,
      "embedded_": 6706,
      "all_good": 6707,
      "http_proxy": 6708,
      "splitlines": 6709,
      "Vari": 6710,
      "RouteCallable": 6711,
      "last_month": 6712,
      "quoted": 6713,
      "scheme_param": 6714,
      "pydantic_core": 6715,
      "working": 6716,
      "Redirects": 6717,
      "Chat": 6718,
      "Chunked": 6719,
      "dep_c": 6720,
      "discussion_comment": 6721,
      "overwrite": 6722,
      "until": 6723,
      "process_response": 6724,
      "load_json_bytes": 6725,
      "receive_json": 6726,
      "get_user_me": 6727,
      "some_file_path": 6728,
      "256": 6729,
      "_COM": 6730,
      "main_dict": 6731,
      "DOC": 6732,
      "executes": 6733,
      "translated_sections": 6734,
      "wsgi_errors_": 6735,
      "EncodingError": 6736,
      "TemplateNotFound": 6737,
      "VALUE": 6738,
      "commit_": 6739,
      "payload_json_bytes": 6740,
      "CKS": 6741,
      "test_read_main": 6742,
      "test_path_bool": 6743,
      "TIANG": 6744,
      "mailto": 6745,
      "standar": 6746,
      "Body_create_upload_file_uploadfile__post": 6747,
      "start_process": 6748,
      "_TOKEN": 6749,
      "builtin_str": 6750,
      "~~~~~~~~~~~~": 6751,
      "rewind_body": 6752,
      "non_translated_sections": 6753,
      "cert_chain": 6754,
      "decimal_encoder": 6755,
      "PROPAGATE": 6756,
      "too_long": 6757,
      "pickleable": 6758,
      "_multipart_installed_": 6759,
      "least_one": 6760,
      "swagger_ui_oauth2_redirect_html": 6761,
      "system_ssl": 6762,
      "Arg": 6763,
      "tenders": 6764,
      "contributor": 6765,
      "string_too_short": 6766,
      "detection": 6767,
      "_signal": 6768,
      "cryptography_": 6769,
      "before_render_template": 6770,
      "appcontext_popped": 6771,
      "attachment": 6772,
      "test_no_token": 6773,
      "dist_path": 6774,
      "for_status_code": 6775,
      "Deadpoo": 6776,
      "Convert": 6777,
      "OAuthFlows": 6778,
      "BAR": 6779,
      "ary_types": 6780,
      "Receive": 6781,
      "translatable_langs": 6782,
      "Body_login_login_post": 6783,
      "redoc_favicon_url": 6784,
      "indic": 6785,
      "constructor": 6786,
      "counterpart_": 6787,
      "ASGIApp": 6788,
      "merge_setting": 6789,
      "only_required": 6790,
      "_installed_error": 6791,
      "test_security_api_key_no_key": 6792,
      "_STR": 6793,
      "at_least_one": 6794,
      "test_jsonify_": 6795,
      "request_form_models": 6796,
      "allowed_for_status_code": 6797,
      "_EXCEPTIONS": 6798,
      "blah": 6799,
      "Should": 6800,
      "determine": 6801,
      "plugin": 6802,
      "is_uploadfile_sequence_annotation": 6803,
      "LargeOut": 6804,
      "get_b_a": 6805,
      "test_path_param_le_ge_": 6806,
      "NETR": 6807,
      "TooMany": 6808,
      "forwardref": 6809,
      "Aborter": 6810,
      "Owner": 6811,
      "obtain": 6812,
      "grandchild": 6813,
      "test_post_body_form_no_": 6814,
      "test_strict_login_": 6815,
      "CtxGlobals": 6816,
      "Finis": 6817,
      "FORM": 6818,
      "is_body_allowed_for_status_code": 6819,
      "origin_": 6820,
      "resp_json": 6821,
      "_expected_large_": 6822,
      "ONTENT_": 6823,
      "LocalProxy": 6824,
      "tutorial010_py310": 6825,
      ":/.../": 6826,
      "ie_settings": 6827,
      "markupsafe": 6828,
      "_install_error": 6829,
      "arbitrary_types": 6830,
      "MultilineCodeBlock": 6831,
      "alexnet": 6832,
      "identifier": 6833,
      "Given": 6834,
      "N802": 6835,
      "Signature": 6836,
      "WHERE": 6837,
      "_AppCtxGlobals": 6838,
      "rmtree": 6839,
      "requote_uri": 6840,
      "get_authorization_scheme_param": 6841,
      "kennethreitz": 6842,
      "more_specific_prefix": 6843,
      "num_401_calls": 6844,
      "UnrewindableBodyError": 6845,
      "InvalidProxyURL": 6846,
      "multipart_not_installed_error": 6847,
      "multipart_incorrect_install_error": 6848,
      "ChunkedEncodingError": 6849,
      "wsgi_errors_stream": 6850,
      "TIANGOLO": 6851,
      "PROPAGATE_EXCEPTIONS": 6852,
      "Deadpoolio": 6853,
      "TooManyRedirects": 6854,
      "_expected_large_payload_json_bytes": 6855,
      "MultilineCodeBlockInfo": 6856,
      "!\"}": 6857,
      "!</": 6858,
      "\"%": 6859,
      "\"[": 6860,
      "%(": 6861,
      "'^": 6862,
      "(``": 6863,
      "('\"": 6864,
      ")},": 6865,
      ")}\"": 6866,
      "-.": 6867,
      "05": 6868,
      "09": 6869,
      "3_py310": 6870,
      "443": 6871,
      "59": 6872,
      "6e": 6873,
      "63b": 6874,
      "83": 6875,
      "8f": 6876,
      "800": 6877,
      "AI": 6878,
      "AME": 6879,
      "Actions": 6880,
      "Can": 6881,
      "Done": 6882,
      "Duplic": 6883,
      "DUM": 6884,
      "Facility": 6885,
      "GMT": 6886,
      "Hash": 6887,
      "IS": 6888,
      "Jane": 6889,
      "MY_": 6890,
      "Net": 6891,
      "Null": 6892,
      "Nib": 6893,
      "NTIC_": 6894,
      "Pas": 6895,
      "Page": 6896,
      "Please": 6897,
      "San": 6898,
      "Sel": 6899,
      "SITE": 6900,
      "UAGE": 6901,
      "UTES": 6902,
      "Whether": 6903,
      "YTE": 6904,
      "YLOAD": 6905,
      "\\'": 6906,
      "][": 6907,
      "]()": 6908,
      "]))": 6909,
      "_optional": 6910,
      "_requests": 6911,
      "_run": 6912,
      "_upload": 6913,
      "_parse": 6914,
      "_pattern": 6915,
      "_page": 6916,
      "_group": 6917,
      "_graphql": 6918,
      "_plain": 6919,
      "_allowed": 6920,
      "_conn": 6921,
      "_address": 6922,
      "_algorithm": 6923,
      "_flashes": 6924,
      "_PRE": 6925,
      "_got": 6926,
      "_internal_": 6927,
      "a6": 6928,
      "a_py310": 6929,
      "a_a": 6930,
      "bler": 6931,
      "c_py310": 6932,
      "fset": 6933,
      "flict": 6934,
      "facility": 6935,
      "gn": 6936,
      "ggs": 6937,
      "hint": 6938,
      "home": 6939,
      "ier": 6940,
      "ized": 6941,
      "men": 6942,
      "macro": 6943,
      "page_": 6944,
      "s2": 6945,
      "sResponse": 6946,
      "v_": 6947,
      "ved_": 6948,
      "yest": 6949,
      "zing": 6950,
      "}{": 6951,
      "sep": 6952,
      "ats": 6953,
      "assets": 6954,
      "rever": 6955,
      "rebuild_": 6956,
      "orCallable": 6957,
      "or_token": 6958,
      "erday": 6959,
      "steps": 6960,
      "ponent": 6961,
      "entry": 6962,
      "lead": 6963,
      "lements": 6964,
      "around": 6965,
      "ution": 6966,
      "app03": 6967,
      "urs": 6968,
      "ality": 6969,
      "ex_": 6970,
      "experts_results": 6971,
      "implicit": 6972,
      "get_model": 6973,
      "(\"'": 6974,
      "(\"\\": 6975,
      "isgenerator": 6976,
      "isasyncgen": 6977,
      "is_path_param": 6978,
      "s_post": 6979,
      "s_experts": 6980,
      "()}\")": 6981,
      "()`.": 6982,
      "item__": 6983,
      "item_b": 6984,
      "itemId": 6985,
      "concur": 6986,
      "path1": 6987,
      "test_url": 6988,
      "test_no": 6989,
      "test_root": 6990,
      "test_security": 6991,
      "test_default_": 6992,
      "test_blueprint": 6993,
      "test_settings": 6994,
      "test_route_": 6995,
      "test_empty": 6996,
      "test_super_len": 6997,
      "test_code_blocks": 6998,
      "return_annotation": 6999,
      "unparse": 7000,
      "comes": 7001,
      "ago": 7002,
      "idict": 7003,
      "veral": 7004,
      "ily": 7005,
      "__html": 7006,
      "schema_from": 7007,
      "ultidict": 7008,
      "content_": 7009,
      "lices": 7010,
      "Testing": 7011,
      "fastapi_in": 7012,
      "fastapi_annotation": 7013,
      "protocol": 7014,
      "chdir": 7015,
      "with_info": 7016,
      "urlunparse": 7017,
      "get_post": 7018,
      "get_missing": 7019,
      "get_wrapped_": 7020,
      "get_repo": 7021,
      "get_schema_from": 7022,
      "http_exception": 7023,
      "httpx_": 7024,
      "\"]).": 7025,
      "header1": 7026,
      "HTTPStatus": 7027,
      "=\"<": 7028,
      "=\"^": 7029,
      "please": 7030,
      "asyncgen_": 7031,
      "asynchronous_": 7032,
      "objectlist": 7033,
      "d_scheme_": 7034,
      "resnet": 7035,
      "res_line": 7036,
      "prevent": 7037,
      "call_args": 7038,
      "://%": 7039,
      ":///": 7040,
      "dict_": 7041,
      "dicts": 7042,
      "fields_to_": 7043,
      "425": 7044,
      "foo_options": 7045,
      "BaseResponse": 7046,
      "BaseUser": 7047,
      "BaseLoader": 7048,
      "AnyUrl": 7049,
      "query1": 7050,
      "tutorial002": 7051,
      "general": 7052,
      "Conflict": 7053,
      "docs_content": 7054,
      "docs_ui": 7055,
      "ed_params": 7056,
      "ed_env": 7057,
      "{}])": 7058,
      "RequestDep": 7059,
      "RequestRedirect": 7060,
      "creates": 7061,
      "creating": 7062,
      "subitem": 7063,
      "sub_annotation": 7064,
      "validated": 7065,
      "validlist": 7066,
      "function_scope": 7067,
      "istent": 7068,
      "_sql": 7069,
      "username_bytes": 7070,
      "hours": 7071,
      "Offset": 7072,
      "Path3": 7073,
      "sends": 7074,
      "bar_options": 7075,
      "files_files": 7076,
      "lang_path_": 7077,
      "lang_links": 7078,
      "password_bytes": 7079,
      "customer": 7080,
      "UserWarning": 7081,
      "UserDB": 7082,
      "cookie1": 7083,
      "response_headers": 7084,
      "current_response_class": 7085,
      "current_request_context": 7086,
      "no_equals": 7087,
      "runs": 7088,
      "_encoding": 7089,
      "messageText": 7090,
      "request_hooks": 7091,
      "app_a_py310": 7092,
      "body_schema": 7093,
      "QueryModelOptionalList": 7094,
      "QueryModelRequiredList": 7095,
      "has_default_": 7096,
      "has_level": 7097,
      "has_request_context": 7098,
      "create_db": 7099,
      "create_upload_file": 7100,
      "index2": 7101,
      "override2": 7102,
      "unix": 7103,
      "BodyFieldInfo": 7104,
      "BodyModelOptionalList": 7105,
      "BodyModelRequiredList": 7106,
      "module_": 7107,
      "start_response": 7108,
      "prefixed_env": 7109,
      "Unicorn": 7110,
      "statuscode": 7111,
      "ContextProcess": 7112,
      "hav": 7113,
      "T_before_request": 7114,
      "T_url_defaults": 7115,
      "T_after_request": 7116,
      "T_url_value_preprocessor": 7117,
      "T_template_context_processor": 7118,
      "SessionsDep": 7119,
      "SessionRequestDep": 7120,
      "func_session": 7121,
      "_request_exception": 7122,
      "__getitem__": 7123,
      "HeaderModelOptionalList": 7124,
      "HeaderModelRequiredList": 7125,
      "trying": 7126,
      "DefaultType": 7127,
      "DefaultJSONProvider": 7128,
      "is_open": 7129,
      "is_file": 7130,
      "is_correct_": 7131,
      "CookieConflict": 7132,
      "letter": 7133,
      "Values": 7134,
      "}\"'": 7135,
      "ner_astack": 7136,
      "Format": 7137,
      "FormModelOptionalList": 7138,
      "FormModelRequiredList": 7139,
      "Parse": 7140,
      "filter_query": 7141,
      "add_command": 7142,
      "add_api_route": 7143,
      "add_app_template_filter": 7144,
      "add_app_template_test": 7145,
      "appendChild": 7146,
      "REF": 7147,
      "RE_MIN": 7148,
      "cert_file": 7149,
      "Encode": 7150,
      "Adding": 7151,
      "decorated_": 7152,
      "vant": 7153,
      "vanilla": 7154,
      "_and_template": 7155,
      "openapi_prefix": 7156,
      "_dict_header": 7157,
      "security_definitions": 7158,
      "Project": 7159,
      "copyright": 7160,
      "to_args": 7161,
      "item_a": 7162,
      "item_c": 7163,
      "sendall": 7164,
      "sendMessage": 7165,
      "before_request_funcs": 7166,
      "minutes": 7167,
      "travel": 7168,
      "Updat": 7169,
      "={},": 7170,
      "somevalue": 7171,
      "github_sponsor": 7172,
      "github_graphql": 7173,
      "model_required": 7174,
      "model_field": 7175,
      "model_required_list": 7176,
      "model_dump_": 7177,
      "written": 7178,
      "parse_dict_header": 7179,
      "from_prefixed_env": 7180,
      "rency": 7181,
      "SchemaType": 7182,
      "INFO": 7183,
      "ive_to": 7184,
      "HTMLLink": 7185,
      "basename": 7186,
      "update_content": 7187,
      "update_existing": 7188,
      "autouse": 7189,
      "auto_fix": 7190,
      "autocomplete": 7191,
      "SS_TOKEN": 7192,
      "presets": 7193,
      "existing_": 7194,
      "fake_decode": 7195,
      "PasswordHash": 7196,
      "new_headers": 7197,
      "cached": 7198,
      "level3_level4": 7199,
      "session_transaction": 7200,
      "test_query_int_": 7201,
      "TokenError": 7202,
      "TokenData": 7203,
      "test_get_users": 7204,
      "test_get_invalid": 7205,
      "ORY": 7206,
      "ORS_": 7207,
      "itsdangerous": 7208,
      "tutorial003_0": 7209,
      "nonexistent": 7210,
      "_token_post": 7211,
      "InvalidTokenError": 7212,
      "make_app": 7213,
      "simple_include": 7214,
      "simple_exclude_": 7215,
      "simple_include_": 7216,
      "simple_exclude": 7217,
      "sub_description": 7218,
      "ERR": 7219,
      "factory_": 7220,
      "access_token_expi": 7221,
      "heads": 7222,
      "RequiredParam": 7223,
      "without_response_model": 7224,
      "ProxyManager": 7225,
      "]}})": 7226,
      "sequence_types": 7227,
      "Prepares": 7228,
      "flat_sub": 7229,
      "job": 7230,
      "all_docs_content": 7231,
      "_typeshed": 7232,
      "lower_items": 7233,
      "days": 7234,
      "test_tutorial001_": 7235,
      "Also": 7236,
      "OPEN": 7237,
      "message_": 7238,
      "Chang": 7239,
      "preserve": 7240,
      "Assets": 7241,
      "Router2": 7242,
      "_form__post": 7243,
      "relative_to": 7244,
      "original_links": 7245,
      "received_params": 7246,
      "dep_counter": 7247,
      "return_large_": 7248,
      "convertor": 7249,
      "copy_current_request_context": 7250,
      "repos": 7251,
      "settings_": 7252,
      "StarletteHTTPException": 7253,
      "json_utf": 7254,
      "plain_password": 7255,
      "Wrap": 7256,
      "old_parsed": 7257,
      "_PAYLOAD": 7258,
      "router_a_a": 7259,
      "router_a_b_override": 7260,
      "early": 7261,
      "say_": 7262,
      "errno": 7263,
      "warnings_": 7264,
      "CESS_TOKEN": 7265,
      "dispatching": 7266,
      "callback_router3": 7267,
      "implementation_version": 7268,
      "tutorial006_an_py310": 7269,
      "broken_": 7270,
      "async_raise_other": 7271,
      "search_location": 7272,
      "verify_key": 7273,
      "verify_token": 7274,
      "Instead": 7275,
      "chardet_version": 7276,
      "build_response": 7277,
      "check_order": 7278,
      "Registered": 7279,
      "themes": 7280,
      "if_needed": 7281,
      "additionalProperties": 7282,
      "google_": 7283,
      "']}\"": 7284,
      "_SAME": 7285,
      "state__": 7286,
      "projects": 7287,
      "after_called": 7288,
      "extracted_path": 7289,
      "FilterParams": 7290,
      "SESSION_COOKIE_SAME": 7291,
      "_is_open": 7292,
      "encoded_instance": 7293,
      "encoded_jwt": 7294,
      "celery_": 7295,
      "underlying": 7296,
      "less_than_equal": 7297,
      "repeat_": 7298,
      "parse_options_": 7299,
      "PetDB": 7300,
      "bad_": 7301,
      "test_put_only_required": 7302,
      "ACH": 7303,
      "ACCESS_TOKEN": 7304,
      "conflict": 7305,
      "test_body_nested_models": 7306,
      "before_called": 7307,
      "url_value_preprocessors": 7308,
      "2Fsocket": 7309,
      "2Frun": 7310,
      "2Fvar": 7311,
      "appcontext_tearing_down": 7312,
      "ClassInstanceWrapped": 7313,
      "MAX_FORM": 7314,
      "advanced_configurations": 7315,
      "topic": 7316,
      "pr_edges": 7317,
      "StaticFiles": 7318,
      "Sponsorship": 7319,
      "mutable": 7320,
      "prepend_scheme_": 7321,
      "LARGE_PAYLOAD": 7322,
      "sqlite_file_name": 7323,
      "Global": 7324,
      "got_request_exception": 7325,
      "tutorial012": 7326,
      "_exclude_unset": 7327,
      "authenticate_user": 7328,
      "authenticate_value": 7329,
      "tmp_file": 7330,
      "test_path_operation_advanced_configurations": 7331,
      "_with_name": 7332,
      "_VALID_HEADER": 7333,
      "test_add_template_filter": 7334,
      "post_root": 7335,
      "deploy_": 7336,
      "path5_default_router4_default_": 7337,
      "path5_override_router4_default_": 7338,
      "_translation_": 7339,
      "successfully": 7340,
      "last_edge": 7341,
      "_EXPI": 7342,
      "guess_filename": 7343,
      "guess_json_utf": 7344,
      "Spam": 7345,
      "_HEADER_VALIDAT": 7346,
      "recommended": 7347,
      "db_hero": 7348,
      "LANGUAGE": 7349,
      "my_reverse_custom_name_3": 7350,
      "my_reverse_custom_name_4": 7351,
      "boundary2": 7352,
      "my_boolean_custom_name_2": 7353,
      "However": 7354,
      "MOD_NAME": 7355,
      "mater": 7356,
      "is_bytes_sequence_annotation": 7357,
      "assumed": 7358,
      "_init_oauth": 7359,
      "dynamic_cookie": 7360,
      "company_id": 7361,
      "PYDA": 7362,
      "param_min_": 7363,
      "third": 7364,
      "get_named_func_session": 7365,
      "ModelNameMap": 7366,
      "authorize": 7367,
      "INVALID_PATH": 7368,
      "language_names": 7369,
      "_REQUEST": 7370,
      "test_security_oauth2_password_bearer": 7371,
      "tls_": 7372,
      "performance": 7373,
      "template_test_with_name": 7374,
      "upload_files_upload": 7375,
      "draft": 7376,
      "url_matching_prefix": 7377,
      "translation_reviewers": 7378,
      "ensure_ascii": 7379,
      "_validator_function": 7380,
      "ClassInstanceAsyncWrapped": 7381,
      "FOO_SETTINGS": 7382,
      "for_access_token_token_post": 7383,
      "preserve_context": 7384,
      "_empty_dict": 7385,
      "RecursiveItem": 7386,
      "weakref": 7387,
      "exc_class_or": 7388,
      "ordin": 7389,
      "_and_tables": 7390,
      "get_flat_models_from_fields": 7391,
      "Render": 7392,
      "WS_100": 7393,
      "DOCTYPE": 7394,
      "Finished": 7395,
      "arbitrary_types_allowed": 7396,
      "DUMMY_": 7397,
      "Nibbler": 7398,
      "NTIC_VERSION": 7399,
      "Passed": 7400,
      "Self": 7401,
      "_plain_validator_function": 7402,
      "_got_": 7403,
      "_internal_utils": 7404,
      "yesterday": 7405,
      "reversed": 7406,
      "isgeneratorfunction": 7407,
      "isasyncgenfunction": 7408,
      "concurrency": 7409,
      "__html__": 7410,
      "fastapi_inner_astack": 7411,
      "with_info_plain_validator_function": 7412,
      "get_schema_from_model_field": 7413,
      "httpx_timeout": 7414,
      "fields_to_extract": 7415,
      "files_files__post": 7416,
      "lang_path_root": 7417,
      "has_default_factory_": 7418,
      "has_level_handler": 7419,
      "create_db_and_tables": 7420,
      "ContextProcessorCallable": 7421,
      "CookieConflictError": 7422,
      "RE_MINUTES": 7423,
      "github_graphql_url": 7424,
      "model_dump_json": 7425,
      "HTMLLinkAttribute": 7426,
      "fake_decode_token": 7427,
      "simple_exclude_dict": 7428,
      "simple_include_dict": 7429,
      "access_token_expires": 7430,
      "SESSION_COOKIE_SAMESITE": 7431,
      "repeat_at": 7432,
      "parse_options_header": 7433,
      "ACCESS_TOKEN_EXPI": 7434,
      "SponsorshipAsMaintainer": 7435,
      "prepend_scheme_if_needed": 7436,
      "_HEADER_VALIDATORS_": 7437,
      "PYDANTIC_VERSION": 7438,
      "upload_files_uploadfiles__post": 7439,
      "DUMMY_HASH": 7440,
      "ACCESS_TOKEN_EXPIRE_MINUTES": 7441,
      "\"')": 7442,
      "\"({": 7443,
      "$'\",": 7444,
      "($": 7445,
      "+?)": 7446,
      ",),": 7447,
      ".',": 7448,
      ".-.": 7449,
      "/--": 7450,
      "4w": 7451,
      "54": 7452,
      "5c": 7453,
      "69": 7454,
      "6c": 7455,
      "655": 7456,
      "8_": 7457,
      "9W": 7458,
      "=%": 7459,
      "=\\": 7460,
      "=\"\"": 7461,
      "?\",": 7462,
      "Aut": 7463,
      "Age": 7464,
      "Bo": 7465,
      "B004": 7466,
      "CL": 7467,
      "Clo": 7468,
      "CPython": 7469,
      "Clear": 7470,
      "Dat": 7471,
      "Dave": 7472,
      "FRE": 7473,
      "Goo": 7474,
      "Highlight": 7475,
      "Jav": 7476,
      "Ken": 7477,
      "K_RE": 7478,
      "Lang": 7479,
      "MI": 7480,
      "Match": 7481,
      "Names": 7482,
      "OD": 7483,
      "PER": 7484,
      "Push": 7485,
      "Qw": 7486,
      "Same": 7487,
      "Stag": 7488,
      "Size": 7489,
      "Tu": 7490,
      "Ten": 7491,
      "Tim": 7492,
      "Tot": 7493,
      "Will": 7494,
      "XV": 7495,
      "Xc": 7496,
      "[(\"": 7497,
      "_al": 7498,
      "_set": 7499,
      "_redirect": 7500,
      "_kwargs": 7501,
      "_connection": 7502,
      "_order": 7503,
      "_holder": 7504,
      "_loa": 7505,
      "_notification": 7506,
      "_options_": 7507,
      "aise": 7508,
      "aks": 7509,
      "awesome": 7510,
      "dQw": 7511,
      "e3": 7512,
      "elements": 7513,
      "f_name": 7514,
      "ftime": 7515,
      "gXc": 7516,
      "hack": 7517,
      "ire": 7518,
      "iet": 7519,
      "ively": 7520,
      "kg": 7521,
      "kp": 7522,
      "king": 7523,
      "kInfo": 7524,
      "native": 7525,
      "ops": 7526,
      "oai": 7527,
      "pically": 7528,
      "pkg": 7529,
      "r2": 7530,
      "rag": 7531,
      "sw": 7532,
      "sli": 7533,
      "tab": 7534,
      "table": 7535,
      "tree": 7536,
      "ube": 7537,
      "vents": 7538,
      "watch": 7539,
      "xr": 7540,
      "several": 7541,
      "deri": 7542,
      "enough": 7543,
      "asdict": 7544,
      "ascript": 7545,
      "rele": 7546,
      "replaces": 7547,
      "liter": 7548,
      "lips": 7549,
      "inet": 7550,
      "ert": 7551,
      "std": 7552,
      "stag": 7553,
      "itch": 7554,
      "apis": 7555,
      "aries": 7556,
      "defrag": 7557,
      "exinfo": 7558,
      "impro": 7559,
      "\"\".": 7560,
      "\"\"),": 7561,
      "\"\"})": 7562,
      "stract": 7563,
      "strftime": 7564,
      "(\"`": 7565,
      "assert_called_": 7566,
      "ing_model": 7567,
      "moved": 7568,
      "s_with_": 7569,
      "s_by_": 7570,
      "chez": 7571,
      "pypy": 7572,
      "name_prefix": 7573,
      "cons": 7574,
      "test_value": 7575,
      "test_requests": 7576,
      "test_custom": 7577,
      "test_create_": 7578,
      "test_param_": 7579,
      "test_union": 7580,
      "test_unicode": 7581,
      "test_events": 7582,
      "test_handling_errors": 7583,
      "test_model_optional": 7584,
      "retry": 7585,
      "from_envvar": 7586,
      "return_value": 7587,
      "notified_": 7588,
      "apirouter": 7589,
      "param_names": 7590,
      "unlink": 7591,
      "unquote": 7592,
      "redict": 7593,
      "compress": 7594,
      "agic": 7595,
      "__doc": 7596,
      "__len": 7597,
      "__module": 7598,
      "__attr": 7599,
      "__setitem": 7600,
      "crib": 7601,
      "y_request": 7602,
      "abase": 7603,
      "suhik": 7604,
      "begin": 7605,
      "Reitz": 7606,
      "opening": 7607,
      "urlencode": 7608,
      "urlparts": 7609,
      "\"}})": 7610,
      "get_mod": 7611,
      "get_dependant": 7612,
      "get_password_hash": 7613,
      "get_answer": 7614,
      "get_parameterless_": 7615,
      "get_name_with_age": 7616,
      "get_swagger_ui_oauth2_redirect_html": 7617,
      "get_cached": 7618,
      "https_": 7619,
      "ResponseLevel3": 7620,
      "\"]},": 7621,
      "\"](),": 7622,
      "\"]``.": 7623,
      "Try": 7624,
      "HTTPServer": 7625,
      "HTTPConnection": 7626,
      "``{": 7627,
      "post1": 7628,
      "post2": 7629,
      "no_body": 7630,
      "Decoding": 7631,
      "icro": 7632,
      "acklist": 7633,
      "FIX": 7634,
      "able_": 7635,
      "trim": 7636,
      "d_ref": 7637,
      "resolve": 7638,
      "made": 7639,
      "call_counter": 7640,
      "field_": 7641,
      "used_": 7642,
      "use_re": 7643,
      "foo_": 7644,
      "Init": 7645,
      "passing": 7646,
      "Expect": 7647,
      "read_own": 7648,
      "subapi": 7649,
      "sub_app": 7650,
      "inputs": 7651,
      "method_": 7652,
      "_si": 7653,
      "_slices": 7654,
      "example2": 7655,
      "Then": 7656,
      "bartenders": 7657,
      "helps": 7658,
      "starlet": 7659,
      "fakes": 7660,
      "current_tags": 7661,
      "current_callbacks": 7662,
      "current_generate_unique_id": 7663,
      "no_data": 7664,
      "view_args": 7665,
      "bind": 7666,
      "request_url": 7667,
      "request_started": 7668,
      "request_finished": 7669,
      "app_request": 7670,
      "url_default_": 7671,
      "hasn": 7672,
      "has_request": 7673,
      "create_cookie": 7674,
      "create_model_field": 7675,
      "Routing": 7676,
      "download": 7677,
      "URE": 7678,
      "test_tutorial01": 7679,
      "[]},": 7680,
      "oauth_scopes": 7681,
      "db_session": 7682,
      "Stand": 7683,
      "HeaderPer": 7684,
      "is_dir": 7685,
      "is_complex": 7686,
      "Before": 7687,
      "after_request_funcs": 7688,
      "bp2": 7689,
      "hero_heroes": 7690,
      "scope_counter": 7691,
      "implements": 7692,
      "life": 7693,
      "lifetime": 7694,
      "filtering_model": 7695,
      "add_middleware": 7696,
      "max_cookie_": 7697,
      "proxyOverride": 7698,
      "iter_lines": 7699,
      "iter_slices": 7700,
      "REDIRECT_": 7701,
      "latex_": 7702,
      "visited": 7703,
      "exc_type": 7704,
      "exc_value": 7705,
      "\"{$": 7706,
      "Detect": 7707,
      "register_": 7708,
      "register_error_handler": 7709,
      "2083": 7710,
      "STR": 7711,
      "STING": 7712,
      "mitted": 7713,
      "mitsuhik": 7714,
      "parenthes": 7715,
      "manual": 7716,
      "AppType": 7717,
      "_contents": 7718,
      "jinja_environment": 7719,
      "Fixing": 7720,
      "Issue": 7721,
      "WebSocketRoute": 7722,
      "somehow": 7723,
      "_encoded": 7724,
      "uide": 7725,
      "Compat": 7726,
      "TESTING": 7727,
      "from_file": 7728,
      "test_tutorial007": 7729,
      "pattern_mismatch": 7730,
      "IN_": 7731,
      "reqs": 7732,
      "308": 7733,
      "CustomError": 7734,
      "Coordin": 7735,
      "Options": 7736,
      "users__": 7737,
      "timeouts": 7738,
      "fileno": 7739,
      "presents": 7740,
      "teardown_request_funcs": 7741,
      "block_b": 7742,
      "test_security_oauth2": 7743,
      "new_parsed": 7744,
      "new_subscription": 7745,
      "cache_key": 7746,
      "class_tuples": 7747,
      "test_query_params": 7748,
      "_no_header": 7749,
      "test_request_form": 7750,
      "_code_includes": 7751,
      "counter_holder": 7752,
      "test_path_params": 7753,
      "full_": 7754,
      "ContentDecoding": 7755,
      "White": 7756,
      "flat_models": 7757,
      "HeroCreate": 7758,
      "HeroUpdate": 7759,
      "nonlocal": 7760,
      "TagDict": 7761,
      "Dispatch": 7762,
      "cidr": 7763,
      "no_response_model_no_annotation_": 7764,
      "color": 7765,
      "_blueprints": 7766,
      "globalns": 7767,
      "Subdomain": 7768,
      "proxy_headers": 7769,
      "01T": 7770,
      "_bytes_alias": 7771,
      "_bytes_validation_alias": 7772,
      "_bytes_alias_and_validation_alias": 7773,
      "ProxyOverride": 7774,
      "doesnt": 7775,
      "_servers": 7776,
      "MAN": 7777,
      "]}},": 7778,
      "generator_": 7779,
      "dotted": 7780,
      "swagger_ui_init_oauth": 7781,
      "APIKeyIn": 7782,
      "children": 7783,
      "Overrides": 7784,
      "authorizationCode": 7785,
      "DependencyWarning": 7786,
      "DependencyCache": 7787,
      "\"\\\\": 7788,
      "malinkInfo": 7789,
      "collect": 7790,
      "digest_auth": 7791,
      "use_sub_dependant": 7792,
      "use_debugger": 7793,
      "_to_everything": 7794,
      "computed": 7795,
      "file_1": 7796,
      "Log": 7797,
      "Priority": 7798,
      "ge_int": 7799,
      "offers": 7800,
      "discriminating": 7801,
      "_REFRE": 7802,
      "normali": 7803,
      "browsers": 7804,
      "key_file": 7805,
      "ENCO": 7806,
      "capture": 7807,
      "repos_": 7808,
      "bp_subdomain": 7809,
      "bp_url_prefix": 7810,
      "next_": 7811,
      "chunked_": 7812,
      "netrc_file": 7813,
      "StarletteUploadFile": 7814,
      "StarletteBackgroundTasks": 7815,
      "fakehashed": 7816,
      "_uploadfile_alias": 7817,
      "_uploadfile_validation_alias": 7818,
      "_uploadfile_alias_and_validation_alias": 7819,
      "wsgi_app": 7820,
      "Write": 7821,
      "test_put_missing_required": 7822,
      "SESSION_REFRE": 7823,
      "resolved_": 7824,
      "_html_links": 7825,
      "test_header_param_model_": 7826,
      "_multiline_": 7827,
      "layout": 7828,
      "_from_headers": 7829,
      "dataclasses_": 7830,
      "_TUP": 7831,
      "release_conn": 7832,
      "answer_to_everything": 7833,
      "if_not_found": 7834,
      "site_path": 7835,
      "HAS_": 7836,
      "FLASK_DEBUG": 7837,
      "encoders_by_": 7838,
      "invoice_notification": 7839,
      "Methods": 7840,
      "non_decorated_": 7841,
      "router4_override": 7842,
      "router4_default": 7843,
      "cert_reqs": 7844,
      "_cv_token": 7845,
      "999": 7846,
      "_EACH": 7847,
      "trusted": 7848,
      "provide_automatic_options_": 7849,
      ".*?)": 7850,
      "first_steps": 7851,
      "load_dotenv_defaults": 7852,
      "repeats": 7853,
      "inner1": 7854,
      "get_graphql_translation_": 7855,
      "test_optional_validation_alias_schema": 7856,
      "test_optional_validation_alias_missing": 7857,
      "test_optional_validation_alias_by_name": 7858,
      "test_optional_validation_alias_by_validation_alias": 7859,
      "computed_fields": 7860,
      "Failed": 7861,
      "select_proxy": 7862,
      "JsonApiResponse": 7863,
      "test_put_all": 7864,
      "ACCEP": 7865,
      "feed": 7866,
      "string_pattern_mismatch": 7867,
      "IPv4": 7868,
      "MarkdownLinkInfo": 7869,
      "test_security_http_basic_invalid": 7870,
      "charset_normalizer_version": 7871,
      "appcontext_pushed": 7872,
      "wrong_lang_code": 7873,
      "custom_generate_unique_id2": 7874,
      "custom_generate_unique_id3": 7875,
      "Abstract": 7876,
      "NO_PROXY": 7877,
      "exclusiveMaximum": 7878,
      "every_request": 7879,
      "max_content_size": 7880,
      "security_scopes_param_name": 7881,
      "tempfile": 7882,
      "sha1": 7883,
      "MissingWarning": 7884,
      "tmp_file_1": 7885,
      "test_path_operation_configurations": 7886,
      "8859": 7887,
      "SH_EACH": 7888,
      "read_users_users__get": 7889,
      "decorator_depends": 7890,
      "wrapped_class_instance_async_": 7891,
      "converters": 7892,
      "get_token_header": 7893,
      "raise_if_not_found": 7894,
      "target_version": 7895,
      "test_query_params_str_validations_q_fixedquery": 7896,
      "palletsprojects": 7897,
      "Sphinx": 7898,
      "delitem": 7899,
      "refreshUrl": 7900,
      "skip_repeats": 7901,
      "preferred": 7902,
      "param_model_invalid": 7903,
      "line_b_comment": 7904,
      "template_context_processors": 7905,
      "TEST_KEY": 7906,
      "extract_zipped_": 7907,
      "syntaxHighlight": 7908,
      "youtube": 7909,
      "RetryError": 7910,
      "test_path_param_lt_gt": 7911,
      "sqlite3": 7912,
      "Remove": 7913,
      "PurePath": 7914,
      "mp4": 7915,
      "already_notified_": 7916,
      "current_block_lang": 7917,
      "(...))": 7918,
      "WITH_": 7919,
      "request_body_oai": 7920,
      "llm_": 7921,
      "LookupDict": 7922,
      "fetchone": 7923,
      "AfterRequestCallable": 7924,
      "Short": 7925,
      "hTTp": 7926,
      "init_every_request": 7927,
      "_netrc": 7928,
      "latin1": 7929,
      "SecureCookieSessionInterface": 7930,
      "legacy_": 7931,
      "Coroutine": 7932,
      "SNIMissingWarning": 7933,
      "instanti": 7934,
      "favorite": 7935,
      "referenced": 7936,
      "DEFAULT_POO": 7937,
      "TracebackType": 7938,
      "permissions": 7939,
      "200_OK_": 7940,
      "TeardownCallable": 7941,
      "Blacklist": 7942,
      "Called": 7943,
      "WORD": 7944,
      "etimes": 7945,
      "Variable": 7946,
      "test_path_bool_": 7947,
      "standard_": 7948,
      "cryptography_version": 7949,
      "counterpart_found": 7950,
      "NETRC": 7951,
      "Sanchez": 7952,
      "leading": 7953,
      "UnicornException": 7954,
      "message_flashed": 7955,
      "google_fonts": 7956,
      "deploy_url": 7957,
      "4w9W": 7958,
      "65536": 7959,
      "Kenneth": 7960,
      "Langu": 7961,
      "Staging": 7962,
      "Tuple": 7963,
      "Tenders": 7964,
      "Total": 7965,
      "_algo": 7966,
      "_loaded_": 7967,
      "dQw4w9W": 7968,
      "gXcQ": 7969,
      "ietf": 7970,
      "lipsis": 7971,
      "__doc__": 7972,
      "__len__": 7973,
      "__module__": 7974,
      "__attrs__": 7975,
      "__setitem__": 7976,
      "get_cached_model_fields": 7977,
      "use_reloader": 7978,
      "starlette_": 7979,
      "fakesession": 7980,
      "url_default_functions": 7981,
      "HeaderPermalinkInfo": 7982,
      "max_cookie_size": 7983,
      "mitsuhiko": 7984,
      "parentheses": 7985,
      "Coordinate": 7986,
      "ContentDecodingError": 7987,
      "Whitelist": 7988,
      "DependencyCacheKey": 7989,
      "digest_auth_algo": 7990,
      "SESSION_REFRESH_EACH": 7991,
      "_TUPLE": 7992,
      "encoders_by_class_tuples": 7993,
      "extract_zipped_paths": 7994,
      "already_notified_comment": 7995,
      "dQw4w9WgXcQ": 7996,
      "SESSION_REFRESH_EACH_REQUEST": 7997,
      "\"*": 7998,
      "%%": 7999
    },
    "merges": [
      [
        "o",
        "n"
      ],
      [
        "e",
        "s"
      ],
      [
        "\"",
        ":"
      ],
      [
        "s",
        "e"
      ],
      [
        "a",
        "t"
      ],
      [
        "d",
        "e"
      ],
      [
        "e",
        "n"
      ],
      [
        "a",
        "s"
      ],
      [
        "r",
        "e"
      ],
      [
        "l",
        "i"
      ],
      [
        "i",
        "n"
      ],
      [
        "o",
        "r"
      ],
      [
        "e",
        "r"
      ],
      [
        "\"",
        ","
      ],
      [
        "i",
        "on"
      ],
      [
        "s",
        "t"
      ],
      [
        "i",
        "t"
      ],
      [
        "es",
        "t"
      ],
      [
        "a",
        "p"
      ],
      [
        "p",
        "on"
      ],
      [
        "h",
        "e"
      ],
      [
        "en",
        "t"
      ],
      [
        "=",
        "="
      ],
      [
        "es",
        "pon"
      ],
      [
        "l",
        "e"
      ],
      [
        "a",
        "r"
      ],
      [
        "a",
        "l"
      ],
      [
        "espon",
        "se"
      ],
      [
        "a",
        "m"
      ],
      [
        "e",
        "t"
      ],
      [
        "}",
        ","
      ],
      [
        "a",
        "n"
      ],
      [
        "u",
        "t"
      ],
      [
        "r",
        "esponse"
      ],
      [
        "se",
        "r"
      ],
      [
        "c",
        "o"
      ],
      [
        "r",
        "o"
      ],
      [
        "at",
        "ion"
      ],
      [
        "ap",
        "p"
      ],
      [
        "de",
        "f"
      ],
      [
        "t",
        "est"
      ],
      [
        "u",
        "r"
      ],
      [
        "a",
        "li"
      ],
      [
        "q",
        "u"
      ],
      [
        "li",
        "ent"
      ],
      [
        "e",
        "x"
      ],
      [
        "e",
        "m"
      ],
      [
        ")",
        ":"
      ],
      [
        "p",
        "e"
      ],
      [
        "{",
        "\""
      ],
      [
        "c",
        "t"
      ],
      [
        "i",
        "m"
      ],
      [
        "\"",
        "\""
      ],
      [
        "-",
        "-"
      ],
      [
        "g",
        "et"
      ],
      [
        "e",
        "d"
      ],
      [
        "st",
        "r"
      ],
      [
        "ser",
        "t"
      ],
      [
        "(",
        "\""
      ],
      [
        "as",
        "sert"
      ],
      [
        "t",
        "y"
      ],
      [
        "in",
        "g"
      ],
      [
        "o",
        "t"
      ],
      [
        "on",
        "e"
      ],
      [
        "o",
        "c"
      ],
      [
        "i",
        "s"
      ],
      [
        "or",
        "t"
      ],
      [
        "\"",
        ")"
      ],
      [
        "f",
        "i"
      ],
      [
        "p",
        "ort"
      ],
      [
        "p",
        "t"
      ],
      [
        "N",
        "one"
      ],
      [
        "am",
        "e"
      ],
      [
        "t",
        "he"
      ],
      [
        "c",
        "lient"
      ],
      [
        "at",
        "h"
      ],
      [
        "ty",
        "pe"
      ],
      [
        "m",
        "o"
      ],
      [
        "s",
        "_"
      ],
      [
        "(",
        ")"
      ],
      [
        "im",
        "port"
      ],
      [
        "c",
        "he"
      ],
      [
        "p",
        "y"
      ],
      [
        "re",
        "qu"
      ],
      [
        "n",
        "ame"
      ],
      [
        "r",
        "i"
      ],
      [
        "it",
        "em"
      ],
      [
        "pt",
        "ion"
      ],
      [
        "u",
        "l"
      ],
      [
        "c",
        "on"
      ],
      [
        "de",
        "l"
      ],
      [
        "p",
        "ar"
      ],
      [
        "che",
        "m"
      ],
      [
        "p",
        "ath"
      ],
      [
        "test",
        "_"
      ],
      [
        "r",
        "or"
      ],
      [
        "s",
        "on"
      ],
      [
        "s",
        "chem"
      ],
      [
        "a",
        "d"
      ],
      [
        "as",
        "t"
      ],
      [
        "j",
        "son"
      ],
      [
        "p",
        "en"
      ],
      [
        "re",
        "t"
      ],
      [
        "ro",
        "m"
      ],
      [
        "ali",
        "d"
      ],
      [
        "f",
        "rom"
      ],
      [
        "ur",
        "n"
      ],
      [
        "e",
        "l"
      ],
      [
        "0",
        "0"
      ],
      [
        "u",
        "e"
      ],
      [
        "ret",
        "urn"
      ],
      [
        "c",
        "l"
      ],
      [
        "c",
        "e"
      ],
      [
        "t",
        "o"
      ],
      [
        "n",
        "ot"
      ],
      [
        "ap",
        "i"
      ],
      [
        "par",
        "am"
      ],
      [
        "ex",
        "t"
      ],
      [
        "==",
        "=="
      ],
      [
        "u",
        "n"
      ],
      [
        "l",
        "o"
      ],
      [
        "t",
        "it"
      ],
      [
        "tit",
        "le"
      ],
      [
        "alid",
        "ation"
      ],
      [
        "co",
        "de"
      ],
      [
        "(\"",
        "/"
      ],
      [
        "con",
        "t"
      ],
      [
        "e",
        "_"
      ],
      [
        "st",
        "at"
      ],
      [
        "es",
        "s"
      ],
      [
        "]",
        ","
      ],
      [
        "mo",
        "del"
      ],
      [
        "\"\"",
        "\""
      ],
      [
        "re",
        "d"
      ],
      [
        "r",
        "ror"
      ],
      [
        "E",
        "rror"
      ],
      [
        "co",
        "m"
      ],
      [
        "A",
        "P"
      ],
      [
        "a",
        "g"
      ],
      [
        "AP",
        "I"
      ],
      [
        "ali",
        "as"
      ],
      [
        "as",
        "s"
      ],
      [
        "se",
        "l"
      ],
      [
        "p",
        "er"
      ],
      [
        "o",
        "o"
      ],
      [
        "i",
        "d"
      ],
      [
        "f",
        "or"
      ],
      [
        "sel",
        "f"
      ],
      [
        "t",
        "h"
      ],
      [
        "n",
        "c"
      ],
      [
        "v",
        "er"
      ],
      [
        "i",
        "l"
      ],
      [
        "d",
        "at"
      ],
      [
        "[",
        "\""
      ],
      [
        "requ",
        "est"
      ],
      [
        "\"",
        "},"
      ],
      [
        "an",
        "d"
      ],
      [
        "i",
        "f"
      ],
      [
        "_",
        "_"
      ],
      [
        "schem",
        "a"
      ],
      [
        "de",
        "r"
      ],
      [
        "d",
        "es"
      ],
      [
        "ul",
        "t"
      ],
      [
        "c",
        "ri"
      ],
      [
        "stat",
        "u"
      ],
      [
        "at",
        "ed"
      ],
      [
        "o",
        "d"
      ],
      [
        "A",
        "n"
      ],
      [
        "cri",
        "ption"
      ],
      [
        "al",
        "l"
      ],
      [
        "--",
        "-"
      ],
      [
        "r",
        "a"
      ],
      [
        "des",
        "cription"
      ],
      [
        "h",
        "t"
      ],
      [
        "in",
        "t"
      ],
      [
        "statu",
        "s_"
      ],
      [
        "d",
        "oc"
      ],
      [
        "i",
        "red"
      ],
      [
        "y",
        "_"
      ],
      [
        "it",
        "h"
      ],
      [
        "status_",
        "code"
      ],
      [
        "a",
        "b"
      ],
      [
        "v",
        "al"
      ],
      [
        "t",
        "i"
      ],
      [
        "item",
        "s"
      ],
      [
        "s",
        "u"
      ],
      [
        "F",
        "ast"
      ],
      [
        "Fast",
        "API"
      ],
      [
        "cont",
        "ent"
      ],
      [
        "u",
        "ser"
      ],
      [
        "2",
        "00"
      ],
      [
        "p",
        "o"
      ],
      [
        "requ",
        "ired"
      ],
      [
        "or",
        "i"
      ],
      [
        "V",
        "alidation"
      ],
      [
        "C",
        "lient"
      ],
      [
        "li",
        "c"
      ],
      [
        "\"",
        "/"
      ],
      [
        "(",
        "):"
      ],
      [
        "T",
        "est"
      ],
      [
        "f",
        "ast"
      ],
      [
        "a",
        "der"
      ],
      [
        ")",
        ","
      ],
      [
        "fast",
        "api"
      ],
      [
        "p",
        "ro"
      ],
      [
        "dat",
        "a"
      ],
      [
        "c",
        "h"
      ],
      [
        "t",
        "ext"
      ],
      [
        "cl",
        "ass"
      ],
      [
        "w",
        "ith"
      ],
      [
        "_",
        "model"
      ],
      [
        "t",
        "em"
      ],
      [
        "b",
        "e"
      ],
      [
        "d",
        "i"
      ],
      [
        "e",
        "ct"
      ],
      [
        "el",
        "d"
      ],
      [
        "li",
        "st"
      ],
      [
        "R",
        "e"
      ],
      [
        "Test",
        "Client"
      ],
      [
        "s",
        "h"
      ],
      [
        "o",
        "pen"
      ],
      [
        "ur",
        "l"
      ],
      [
        "\"",
        "}"
      ],
      [
        "ro",
        "ut"
      ],
      [
        "====",
        "===="
      ],
      [
        "y",
        "nc"
      ],
      [
        "str",
        "ing"
      ],
      [
        "get",
        "_"
      ],
      [
        "t",
        "p"
      ],
      [
        "py",
        "test"
      ],
      [
        "ht",
        "tp"
      ],
      [
        "a",
        "ult"
      ],
      [
        "a",
        "c"
      ],
      [
        "R",
        "esponse"
      ],
      [
        "H",
        "T"
      ],
      [
        "m",
        "ar"
      ],
      [
        "se",
        "t"
      ],
      [
        "ut",
        "h"
      ],
      [
        "app",
        "lic"
      ],
      [
        "\"",
        "]"
      ],
      [
        "T",
        "r"
      ],
      [
        "p",
        "l"
      ],
      [
        "applic",
        "ation"
      ],
      [
        "o",
        "m"
      ],
      [
        "_",
        "id"
      ],
      [
        "per",
        "ation"
      ],
      [
        "Tr",
        "ue"
      ],
      [
        "t",
        "ut"
      ],
      [
        "ori",
        "al"
      ],
      [
        "tut",
        "orial"
      ],
      [
        "he",
        "ader"
      ],
      [
        "T",
        "P"
      ],
      [
        "ent",
        "s"
      ],
      [
        "HT",
        "TP"
      ],
      [
        "`",
        "`"
      ],
      [
        "o",
        "ut"
      ],
      [
        "=",
        "\""
      ],
      [
        "as",
        "k"
      ],
      [
        "p",
        "le"
      ],
      [
        "o",
        "peration"
      ],
      [
        "open",
        "api"
      ],
      [
        "val",
        "ue"
      ],
      [
        "p",
        "ut"
      ],
      [
        "Validation",
        "Error"
      ],
      [
        "b",
        "j"
      ],
      [
        "An",
        "not"
      ],
      [
        "def",
        "ault"
      ],
      [
        "k",
        "e"
      ],
      [
        "o",
        "bj"
      ],
      [
        "_",
        "alias"
      ],
      [
        "f",
        "o"
      ],
      [
        "po",
        "st"
      ],
      [
        "M",
        "o"
      ],
      [
        "cl",
        "u"
      ],
      [
        "n",
        "o"
      ],
      [
        "Annot",
        "ated"
      ],
      [
        "l",
        "oc"
      ],
      [
        "Mo",
        "del"
      ],
      [
        "a",
        "se"
      ],
      [
        "param",
        "et"
      ],
      [
        "as",
        "ync"
      ],
[...]
