{
  "version": "1.0",
  "truncation": null,
  "padding": null,
  "added_tokens": [
    {
      "id": 0,
      "content": "<pad>",
      "single_word": false,
      "lstrip": false,
      "rstrip": false,
      "normalized": false,
      "special": true
    },
    {
      "id": 1,
      "content": "<unk>",
      "single_word": false,
      "lstrip": false,
      "rstrip": false,
      "normalized": false,
      "special": true
    },
    {
      "id": 2,
      "content": "<bos>",
      "single_word": false,
      "lstrip": false,
      "rstrip": false,
      "normalized": false,
      "special": true
    },
    {
      "id": 3,
      "content": "<eos>",
      "single_word": false,
      "lstrip": false,
      "rstrip": false,
      "normalized": false,
      "special": true
    }
  ],
  "normalizer": {
    "type": "NFKC"
  },
  "pre_tokenizer": {
    "type": "ByteLevel",
    "add_prefix_space": false,
    "trim_offsets": true,
    "use_regex": true
  },
  "post_processor": null,
  "decoder": {
    "type": "ByteLevel",
    "add_prefix_space": true,
    "trim_offsets": true,
    "use_regex": true
  },
  "model": {
    "type": "BPE",
    "dropout": null,
    "unk_token": "<unk>",
    "continuing_subword_prefix": null,
    "end_of_word_suffix": null,
    "fuse_unk": false,
    "byte_fallback": false,
    "ignore_merges": false,
    "vocab": {
      "<pad>": 0,
      "<unk>": 1,
      "<bos>": 2,
      "<eos>": 3,
      "!": 4,
      "\"": 5,
      "#": 6,
      "$": 7,
      "%": 8,
      "&": 9,
      "'": 10,
      "(": 11,
      ")": 12,
      "*": 13,
      "+": 14,
      ",": 15,
      "-": 16,
      ".": 17,
      "/": 18,
      "0": 19,
      "1": 20,
      "2": 21,
      "3": 22,
      "4": 23,
      "5": 24,
      "6": 25,
      "7": 26,
      "8": 27,
      "9": 28,
      ":": 29,
      ";": 30,
      "<": 31,
      "=": 32,
      ">": 33,
      "?": 34,
      "@": 35,
      "A": 36,
      "B": 37,
      "C": 38,
      "D": 39,
      "E": 40,
      "F": 41,
      "G": 42,
      "H": 43,
      "I": 44,
      "J": 45,
      "K": 46,
      "L": 47,
      "M": 48,
      "N": 49,
      "O": 50,
      "P": 51,
      "Q": 52,
      "R": 53,
      "S": 54,
      "T": 55,
      "U": 56,
      "V": 57,
      "W": 58,
      "X": 59,
      "Y": 60,
      "Z": 61,
      "[": 62,
      "\\": 63,
      "]": 64,
      "^": 65,
      "_": 66,
      "`": 67,
      "a": 68,
      "b": 69,
      "c": 70,
      "d": 71,
      "e": 72,
      "f": 73,
      "g": 74,
      "h": 75,
      "i": 76,
      "j": 77,
      "k": 78,
      "l": 79,
      "m": 80,
      "n": 81,
      "o": 82,
      "p": 83,
      "q": 84,
      "r": 85,
      "s": 86,
      "t": 87,
      "u": 88,
      "v": 89,
      "w": 90,
      "x": 91,
      "y": 92,
      "z": 93,
      "{": 94,
      "|": 95,
      "}": 96,
      "~": 97,
      "¡": 98,
      "¤": 99,
      "¥": 100,
      "¦": 101,
      "§": 102,
      "¨": 103,
      "©": 104,
      "«": 105,
      "¯": 106,
      "°": 107,
      "±": 108,
      "µ": 109,
      "¶": 110,
      "¸": 111,
      "º": 112,
      "»": 113,
      "¼": 114,
      "¾": 115,
      "¿": 116,
      "Â": 117,
      "Ã": 118,
      "Ä": 119,
      "Å": 120,
      "Ð": 121,
      "Ñ": 122,
      "â": 123,
      "ã": 124,
      "ç": 125,
      "è": 126,
      "ï": 127,
      "ð": 128,
      "Ċ": 129,
      "č": 130,
      "Ġ": 131,
      "Ģ": 132,
      "ģ": 133,
      "Ĥ": 134,
      "ĥ": 135,
      "ħ": 136,
      "Ī": 137,
      "ī": 138,
      "ĭ": 139,
      "Į": 140,
      "į": 141,
      "İ": 142,
      "ı": 143,
      "Ĳ": 144,
      "ĳ": 145,
      "ĵ": 146,
      "Ķ": 147,
      "ķ": 148,
      "Ĺ": 149,
      "ĺ": 150,
      "ļ": 151,
      "Ľ": 152,
      "ľ": 153,
      "Ŀ": 154,
      "Ł": 155,
      "ł": 156,
      "Ń": 157,
      "ĠĠ": 158,
      "ĠĠĠĠ": 159,
      "ĠĠĠĠĠĠĠĠ": 160,
      "čĊ": 161,
      "ĠĠĠ": 162,
      "ĠĠĠĠĠĠĠĠĠĠĠĠĠĠĠĠ": 163,
      "Ġ\"": 164,
      "on": 165,
      "ĠĠĠĠĠĠĠ": 166,
      "es": 167,
      "\":": 168,
      "se": 169,
      "at": 170,
      "de": 171,
      "en": 172,
      "as": 173,
      "re": 174,
      "li": 175,
      "in": 176,
      "or": 177,
      "er": 178,
      "ĠĠĠĠĠĠĠĠĠĠĠ": 179,
      "Ġ{": 180,
      "Ġ=": 181,
      "\",": 182,
      "ion": 183,
      "ĠĠĠĠĠĠĠĠĠĠĠĠĠĠĠ": 184,
      "st": 185,
      "Ġt": 186,
      "it": 187,
      "est": 188,
      "ap": 189,
      "pon": 190,
      "he": 191,
      "ent": 192,
      "espon": 193,
      "le": 194,
      "Ġ}": 195,
      "ar": 196,
      "al": 197,
      "Ġr": 198,
      "esponse": 199,
      "am": 200,
      "et": 201,
      "ĠĠĠĠĠĠĠĠĠĠĠĠĠĠĠĠĠĠĠĠĠĠĠĠĠĠĠĠĠĠĠĠ": 202,
      "Ġc": 203,
      "an": 204,
      "ut": 205,
      "ser": 206,
      "Ġi": 207,
      "ation": 208,
      "om": 209,
      "app": 210,
      "Ġf": 211,
      "def": 212,
      "ode": 213,
      "ur": 214,
      "Ġresponse": 215,
      "ali": 216,
      "qu": 217,
      "==": 218,
      "Ġas": 219,
      "lient": 220,
      "ex": 221,
      "em": 222,
      "):": 223,
      "pe": 224,
      "Ġ},": 225,
      "Ġre": 226,
      "ct": 227,
      "ĠĠĠĠĠĠĠĠĠĠĠĠĠĠĠĠĠĠĠĠĠĠĠĠĠĠĠĠĠĠĠ": 228,
      "ĠĠĠĠĠĠĠĠĠĠĠĠĠĠĠĠĠĠĠĠĠĠĠ": 229,
      "Ġp": 230,
      "--": 231,
      "get": 232,
      "ed": 233,
      "oc": 234,
      "ĠĠĠĠĠĠĠĠĠĠĠĠĠĠĠĠĠĠĠĠĠĠĠĠĠĠĠ": 235,
      "op": 236,
      "str": 237,
      "sert": 238,
      "(\"": 239,
      "Ġassert": 240,
      "ing": 241,
      "ot": 242,
      "one": 243,
      "ype": 244,
      "ort": 245,
      "mp": 246,
      "\")": 247,
      "Ġ{\"": 248,
      "sc": 249,
      "None": 250,
      "ame": 251,
      "Ġ==": 252,
      "ath": 253,
      "Ġthe": 254,
      "()": 255,
      "mport": 256,
      "Ġb": 257,
      "ri": 258,
      "Ġin": 259,
      "name": 260,
      "ĠT": 261,
      "ĠNone": 262,
      "tion": 263,
      "item": 264,
      "ul": 265,
      "type": 266,
      "hem": 267,
      "odel": 268,
      "\"}": 269,
      "ror": 270,
      "son": 271,
      "schem": 272,
      "test": 273,
      "Ġa": 274,
      "ast": 275,
      "Ġd": 276,
      "json": 277,
      "ĠF": 278,
      "rom": 279,
      "alid": 280,
      "fi": 281,
      "urn": 282,
      "ĠĠĠĠĠĠĠĠĠĠĠĠĠĠĠĠĠĠĠ": 283,
      "Ġ[": 284,
      "el": 285,
      "Ġs": 286,
      "00": 287,
      "od": 288,
      "ue": 289,
      "Ġimport": 290,
      "turn": 291,
      "path": 292,
      "ad": 293,
      "ont": 294,
      "oo": 295,
      "aram": 296,
      "Ġw": 297,
      "ce": 298,
      "lo": 299,
      "not": 300,
      "Ġtest": 301,
      "api": 302,
      "ext": 303,
      "Ġreturn": 304,
      "====": 305,
      "ption": 306,
      "Ġm": 307,
      "un": 308,
      "Ġdef": 309,
      "las": 310,
      "quest": 311,
      "Ġclient": 312,
      "\"\"": 313,
      "itle": 314,
      "from": 315,
      "alidation": 316,
      "ess": 317,
      "py": 318,
      "(\"/": 319,
      "ĠA": 320,
      "us": 321,
      "title": 322,
      "out": 323,
      "stat": 324,
      "],": 325,
      "rror": 326,
      "Error": 327,
      "code": 328,
      "il": 329,
      "PI": 330,
      "alias": 331,
      "red": 332,
      "ag": 333,
      "model": 334,
      "param": 335,
      "nc": 336,
      "__": 337,
      "sel": 338,
      "Ġ\"\"\"": 339,
      "self": 340,
      "Ġstr": 341,
      "ti": 342,
      "ver": 343,
      "Ġ)": 344,
      "ate": 345,
      "id": 346,
      "is": 347,
      "com": 348,
      "Ġto": 349,
      "API": 350,
      "\"},": 351,
      "and": 352,
      "schema": 353,
      "der": 354,
      "ated": 355,
      "Ġis": 356,
      "status": 357,
      "items": 358,
      "cont": 359,
      "ĠĠĠĠĠĠĠĠĠĠĠĠĠĠĠĠĠĠĠĠĠĠĠĠĠĠĠĠĠĠĠĠĠĠĠ": 360,
      "cri": 361,
      "pen": 362,
      "Ġ--": 363,
      "escri": 364,
      "all": 365,
      "escription": 366,
      "ĠR": 367,
      "Ġ---": 368,
      "ht": 369,
      "Ġ#": 370,
      "qui": 371,
      "oper": 372,
      "ult": 373,
      "ith": 374,
      "ata": 375,
      "quired": 376,
      "val": 377,
      "astAPI": 378,
      "Ġif": 379,
      "user": 380,
      "200": 381,
      "ori": 382,
      "ĠĠĠĠĠĠĠĠĠĠĠĠĠĠĠĠĠĠĠĠĠĠĠĠĠĠĠĠĠĠĠĠĠĠĠĠĠĠĠ": 383,
      "Validation": 384,
      "Ġ|": 385,
      "pr": 386,
      "lass": 387,
      "Ġfor": 388,
      "Client": 389,
      "description": 390,
      "Ġapp": 391,
      "ĠAn": 392,
      "lic": 393,
      "ost": 394,
      "Ġo": 395,
      "():": 396,
      "ĠI": 397,
      "content": 398,
      "ader": 399,
      "astapi": 400,
      "um": 401,
      "ac": 402,
      "ocs": 403,
      "ĠD": 404,
      "ĠTest": 405,
      "ect": 406,
      "required": 407,
      "eld": 408,
      "list": 409,
      "Ġ\"/": 410,
      "Ġ`": 411,
      "ĠTestClient": 412,
      "open": 413,
      "up": 414,
      "url": 415,
      "Ġth": 416,
      "========": 417,
      "ync": 418,
      "tp": 419,
      "http": 420,
      "ault": 421,
      "tem": 422,
      "client": 423,
      "ra": 424,
      "int": 425,
      "HT": 426,
      "Ġbe": 427,
      "set": 428,
      "ke": 429,
      "=\"": 430,
      "ody": 431,
      "uth": 432,
      "ery": 433,
      "\"]": 434,
      "rue": 435,
      "response": 436,
      "lication": 437,
      "class": 438,
      "ab": 439,
      "ĠĠĠĠĠĠĠĠĠĠĠĠĠĠĠĠĠĠĠĠĠĠĠĠĠĠĠĠĠĠĠĠĠĠĠĠĠĠĠĠĠĠĠĠĠĠĠ": 440,
      "Ġ(": 441,
      "ĠĠĠĠĠĠĠĠĠĠĠĠĠĠĠĠĠĠĠĠĠĠĠĠĠĠĠĠĠĠĠĠĠĠĠĠĠĠĠĠĠĠĠ": 442,
      "utori": 443,
      "utorial": 444,
      "header": 445,
      "request": 446,
      "ents": 447,
      "tutorial": 448,
      "TP": 449,
      "HTTP": 450,
      "Ġself": 451,
      "[\"": 452,
      "string": 453,
      "operation": 454,
      "openapi": 455,
      "value": 456,
      "mar": 457,
      "ch": 458,
      "Ġ-": 459,
      "text": 460,
      "put": 461,
      "Ġn": 462,
      "ValidationError": 463,
      "cl": 464,
      "bj": 465,
      "ter": 466,
      "ook": 467,
      "application": 468,
      "rout": 469,
      "ĠAnnot": 470,
      "Ġ200": 471,
      "pl": 472,
      "age": 473,
      "loc": 474,
      "ĠAnnotated": 475,
      "Model": 476,
      "ase": 477,
      "ĠFastAPI": 478,
      "ict": 479,
      "Ġfastapi": 480,
      "clu": 481,
      "Ġnot": 482,
      "schemas": 483,
      "lask": 484,
      "ack": 485,
      "validation": 486,
      "ic": 487,
      "ie": 488,
      "Ġex": 489,
      "ĠS": 490,
      "ponents": 491,
      "post": 492,
      "components": 493,
      "ail": 494,
      "Ġpy": 495,
      "ro": 496,
      "Ġwith": 497,
      "{\"": 498,
      "depen": 499,
      "bject": 500,
      "error": 501,
      "clude": 502,
      "Ġget": 503,
      "ield": 504,
      "vel": 505,
      "ang": 506,
      "LE": 507,
      "query": 508,
      "fo": 509,
      "option": 510,
      "Ġ[\"": 511,
      "sh": 512,
      "ILE": 513,
      "Ġ]": 514,
      "ĠFILE": 515,
      "Ġ->": 516,
      "Ġg": 517,
      "Ġit": 518,
      "able": 519,
      "ĠC": 520,
      "10": 521,
      "ref": 522,
      "ze": 523,
      "Ġh": 524,
      "Ġrequest": 525,
      "Ġ:": 526,
      "async": 527,
      "paramet": 528,
      "ĠP": 529,
      "Ġ],": 530,
      "ĠTrue": 531,
      "ub": 532,
      "//": 533,
      "ession": 534,
      "data": 535,
      "ĠO": 536,
      "ĠResponse": 537,
      "://": 538,
      "Ġ\"#": 539,
      "\"],": 540,
      "Ġdocs": 541,
      "import": 542,
      "sion": 543,
      "Ġ),": 544,
      "Ġand": 545,
      "th": 546,
      "Ġ*": 547,
      "42": 548,
      "Ġ\"#/": 549,
      "key": 550,
      "ers": 551,
      "me": 552,
      "ses": 553,
      "use": 554,
      "fig": 555,
      "ve": 556,
      "level": 557,
      "ass": 558,
      "onfig": 559,
      "ener": 560,
      "cur": 561,
      "ple": 562,
      "denc": 563,
      "310": 564,
      "}}": 565,
      "esponses": 566,
      "lin": 567,
      "Ġof": 568,
      "ception": 569,
      "ain": 570,
      "shot": 571,
      "arg": 572,
      "optional": 573,
      "Ġpytest": 574,
      "nap": 575,
      "napshot": 576,
      "Re": 577,
      "ĠU": 578,
      "cess": 579,
      "object": 580,
      "no": 581,
      "to": 582,
      ").": 583,
      "Base": 584,
      "Ġname": 585,
      "dependenc": 586,
      "eth": 587,
      "back": 588,
      "Ġ@": 589,
      "ken": 590,
      "ĠRe": 591,
      "ies": 592,
      "sg": 593,
      "headers": 594,
      "wor": 595,
      "ction": 596,
      "Ġdata": 597,
      "),": 598,
      "ookie": 599,
      "ock": 600,
      "alse": 601,
      "file": 602,
      "Ġde": 603,
      "rc": 604,
      "ust": 605,
      "ir": 606,
      "end": 607,
      "foo": 608,
      "Ġuse": 609,
      "Ġan": 610,
      "orm": 611,
      "HTTPValidationError": 612,
      "Ġ\"$": 613,
      "ful": 614,
      "responses": 615,
      "Ġv": 616,
      "default": 617,
      "Ġ.": 618,
      "mary": 619,
      "pre": 620,
      "msg": 621,
      "dan": 622,
      "422": 623,
      "ummary": 624,
      "rect": 625,
      "Ex": 626,
      "Ġcont": 627,
      "ĠDe": 628,
      "allback": 629,
      "ccess": 630,
      "tr": 631,
      "body": 632,
      "``": 633,
      "ile": 634,
      "docs": 635,
      "version": 636,
      "ĠDoc": 637,
      "Ġor": 638,
      "pytest": 639,
      "FastAPI": 640,
      "================": 641,
      "ity": 642,
      "ise": 643,
      "ool": 644,
      "},": 645,
      "ow": 646,
      "ds": 647,
      "Id": 648,
      "ill": 649,
      "Ġvalue": 650,
      "ample": 651,
      "essage": 652,
      "src": 653,
      "tail": 654,
      "uccess": 655,
      "Ġthat": 656,
      "ger": 657,
      "Ġfrom": 658,
      "ure": 659,
      "info": 660,
      "summary": 661,
      "router": 662,
      "Ġl": 663,
      "In": 664,
      "word": 665,
      "fix": 666,
      "uccessful": 667,
      "Ġlist": 668,
      "ist": 669,
      "atch": 670,
      "ĠĠĠĠĠĠĠĠĠĠĠĠĠĠĠĠĠĠĠĠĠĠĠĠĠĠĠĠĠĠĠĠĠĠĠĠĠĠĠĠĠĠĠĠĠĠĠĠĠĠĠ": 671,
      "https": 672,
      "unction": 673,
      "Ġwill": 674,
      "proper": 675,
      "par": 676,
      "Successful": 677,
      "Ġerror": 678,
      "BaseModel": 679,
      "oul": 680,
      "ould": 681,
      "ly": 682,
      "Ġres": 683,
      "auth": 684,
      "mod": 685,
      "operationId": 686,
      "curity": 687,
      "irect": 688,
      "Ġpath": 689,
      "Ġflask": 690,
      "Ġparam": 691,
      "ethod": 692,
      "args": 693,
      "ties": 694,
      "assword": 695,
      "Ġthis": 696,
      "input": 697,
      "by": 698,
      "mark": 699,
      "ance": 700,
      "Ġ_": 701,
      "properties": 702,
      "env": 703,
      "Ġsnapshot": 704,
      "Ġtests": 705,
      "load": 706,
      "read": 707,
      "ule": 708,
      "detail": 709,
      "ocket": 710,
      "Item": 711,
      "Ġe": 712,
      "Ġdefault": 713,
      "ax": 714,
      "Ġra": 715,
      ":`": 716,
      "Response": 717,
      "plate": 718,
      "tic": 719,
      "are": 720,
      "notation": 721,
      "Ġ``": 722,
      "----": 723,
      "ustom": 724,
      "reate": 725,
      "stance": 726,
      "with": 727,
      "ings": 728,
      "ON": 729,
      "eb": 730,
      "Ġy": 731,
      "ded": 732,
      "yp": 733,
      "fil": 734,
      "ĠFalse": 735,
      "ĠW": 736,
      "Ġoperation": 737,
      "si": 738,
      "={\"": 739,
      "ore": 740,
      "username": 741,
      "dantic": 742,
      "pt": 743,
      "lib": 744,
      "log": 745,
      "route": 746,
      "rent": 747,
      "over": 748,
      "valid": 749,
      "users": 750,
      "Ġgener": 751,
      "Ġread": 752,
      "Ġdict": 753,
      "Ġse": 754,
      "token": 755,
      "Ġurl": 756,
      "exclude": 757,
      "Ġraise": 758,
      "ĠThe": 759,
      "ĠB": 760,
      "Ġrv": 761,
      "Ġset": 762,
      "fastapi": 763,
      "sing": 764,
      "rize": 765,
      "parametrize": 766,
      "Ġsh": 767,
      "Ġitem": 768,
      "ks": 769,
      "ĠM": 770,
      "rice": 771,
      "oun": 772,
      "ĠItem": 773,
      "Of": 774,
      "ĠAny": 775,
      "ray": 776,
      "po": 777,
      "De": 778,
      "field": 779,
      "pends": 780,
      "te": 781,
      "ĠError": 782,
      "Ġ{}}": 783,
      "array": 784,
      "Request": 785,
      "Ġab": 786,
      "Ġ[{\"": 787,
      "andl": 788,
      "lue": 789,
      "Ġ1": 790,
      "dependency": 791,
      "parameters": 792,
      "context": 793,
      "Auth": 794,
      "print": 795,
      "ug": 796,
      "annotation": 797,
      "Ġpr": 798,
      "form": 799,
      "extra": 800,
      "Ġbool": 801,
      "params": 802,
      "config": 803,
      "line": 804,
      "dict": 805,
      "any": 806,
      "Ġjson": 807,
      "allable": 808,
      "ment": 809,
      "Ġmore": 810,
      "Ġfield": 811,
      "Ġ3": 812,
      "Ġat": 813,
      "Ġ'": 814,
      "Ġabout": 815,
      "his": 816,
      "cor": 817,
      "\"),": 818,
      "Ġon": 819,
      "lueprint": 820,
      "if": 821,
      "ĠHTTP": 822,
      "hel": 823,
      "ator": 824,
      "den": 825,
      "pect": 826,
      "40": 827,
      "olo": 828,
      "init": 829,
      "als": 830,
      "wr": 831,
      "Ġ__": 832,
      "ime": 833,
      "ĠRead": 834,
      "tiang": 835,
      "tiangolo": 836,
      "callback": 837,
      "Ġst": 838,
      "sub": 839,
      "nd": 840,
      "own": 841,
      "Ġ(\"": 842,
      "Ġby": 843,
      "Ġ2": 844,
      "ĠOpen": 845,
      "](": 846,
      "issing": 847,
      "True": 848,
      "Ġ..": 849,
      "im": 850,
      "Ġ0": 851,
      "instance": 852,
      "bar": 853,
      "/\")": 854,
      "ive": 855,
      "iew": 856,
      "Ġrequests": 857,
      "session": 858,
      "ctx": 859,
      "example": 860,
      "template": 861,
      "low": 862,
      "umb": 863,
      "ags": 864,
      "socket": 865,
      "ĠThis": 866,
      "anyOf": 867,
      "testclient": 868,
      "ig": 869,
      "Ġwh": 870,
      "Ġne": 871,
      "ay": 872,
      "andler": 873,
      "Exception": 874,
      "(\"/\")": 875,
      "Ġused": 876,
      "ride": 877,
      "JS": 878,
      "ĠOpenAPI": 879,
      "JSON": 880,
      "ld": 881,
      "security": 882,
      "Ġint": 883,
      "ĠDepends": 884,
      "missing": 885,
      "date": 886,
      "}\")": 887,
      "art": 888,
      "Ġpro": 889,
      "paths": 890,
      "Ġresult": 891,
      "/\",": 892,
      "exception": 893,
      "Ġad": 894,
      "ml": 895,
      "xy": 896,
      "dex": 897,
      "eng": 898,
      "Ġshould": 899,
      "state": 900,
      "Ġtype": 901,
      "Ġfile": 902,
      "ne": 903,
      "ull": 904,
      "Ġ#:": 905,
      "ou": 906,
      "server": 907,
      "password": 908,
      "tes": 909,
      "Cont": 910,
      "her": 911,
      "onn": 912,
      "Ġclass": 913,
      "Ġauth": 914,
      "pro": 915,
      "ake": 916,
      "An": 917,
      "prec": 918,
      "Ġtyp": 919,
      "ip": 920,
      "ol": 921,
      "sed": 922,
      "price": 923,
      "Ġ{}}},": 924,
      "cre": 925,
      "ebsocket": 926,
      "cookie": 927,
      "ĠPath": 928,
      "Qu": 929,
      "bin": 930,
      "zation": 931,
      "ture": 932,
      "Ġheaders": 933,
      "dependencies": 934,
      "Query": 935,
      "Ġmod": 936,
      "ulti": 937,
      "scheme": 938,
      "Ġ**": 939,
      "._": 940,
      "ues": 941,
      "Ġno": 942,
      "/{": 943,
      "ĠType": 944,
      "hello": 945,
      "ampl": 946,
      "Ġobject": 947,
      "amples": 948,
      "ory": 949,
      "html": 950,
      "Foo": 951,
      "kw": 952,
      "point": 953,
      "Any": 954,
      "sl": 955,
      "Ġfunction": 956,
      "uni": 957,
      "ength": 958,
      "onnect": 959,
      "encode": 960,
      "ally": 961,
      "Field": 962,
      "vi": 963,
      "Ġbody": 964,
      "kwargs": 965,
      "================================": 966,
      "host": 967,
      "uration": 968,
      "Ġcom": 969,
      "tings": 970,
      "pected": 971,
      "else": 972,
      "::": 973,
      "endpoint": 974,
      "ix": 975,
      "ĠModel": 976,
      "Ġtr": 977,
      "Ġsession": 978,
      "outer": 979,
      "precated": 980,
      "values": 981,
      "ĠAPI": 982,
      "ĠIf": 983,
      "function": 984,
      "add": 985,
      "ave": 986,
      "down": 987,
      "Ġlevel": 988,
      "Ġ422": 989,
      "return": 990,
      "`.": 991,
      "httpbin": 992,
      "Body": 993,
      "})": 994,
      "Ġ5": 995,
      "arn": 996,
      "include": 997,
      "method": 998,
      "Ġcan": 999,
      "__(": 1000,
      "isc": 1001,
      "que": 1002,
      "custom": 1003,
      "Ġelse": 1004,
      "lias": 1005,
      "ocess": 1006,
      "Ġcontext": 1007,
      "Message": 1008,
      "=[": 1009,
      "iron": 1010,
      "Ġparams": 1011,
      "gist": 1012,
      "Ġdescription": 1013,
      "ĠH": 1014,
      "tern": 1015,
      "Ġimportlib": 1016,
      "sync": 1017,
      "Ġrequired": 1018,
      "Ġpre": 1019,
      "cept": 1020,
      "ĠSe": 1021,
      "port": 1022,
      "Ġmethod": 1023,
      "update": 1024,
      "RL": 1025,
      "min": 1026,
      "Ġisinstance": 1027,
      "Ġkey": 1028,
      "urrent": 1029,
      "ĠIt": 1030,
      "ifi": 1031,
      "iali": 1032,
      "act": 1033,
      "unc": 1034,
      "handler": 1035,
      "Ġch": 1036,
      "Ġversion": 1037,
      "\"})": 1038,
      "gener": 1039,
      "led": 1040,
      "Ġgenerated": 1041,
      "files": 1042,
      "unique": 1043,
      "for": 1044,
      "Ġcode": 1045,
      "001": 1046,
      "Context": 1047,
      "message": 1048,
      "attr": 1049,
      "umber": 1050,
      "ace": 1051,
      "ĠĠĠĠĠĠĠĠĠĠĠĠĠĠĠĠĠĠĠĠĠĠĠĠĠĠĠĠĠĠĠĠĠĠĠĠĠĠĠĠĠĠĠĠĠĠĠĠĠĠĠĠĠĠĠ": 1052,
      "Ġare": 1053,
      "ello": 1054,
      "thon": 1055,
      "Ġ[]": 1056,
      "\"\"\"": 1057,
      "Hello": 1058,
      "ope": 1059,
      "ary": 1060,
      "Ġfil": 1061,
      "arer": 1062,
      "))": 1063,
      "eds": 1064,
      "oes": 1065,
      "Ġinline": 1066,
      "Ġpydantic": 1067,
      "ff": 1068,
      "per": 1069,
      "snapshot": 1070,
      "earer": 1071,
      "ome": 1072,
      "loat": 1073,
      "ib": 1074,
      "Ġal": 1075,
      "ookies": 1076,
      "]:": 1077,
      "static": 1078,
      "wrapp": 1079,
      "ĠG": 1080,
      "Type": 1081,
      "eger": 1082,
      "integer": 1083,
      "Ġyou": 1084,
      "Ġalias": 1085,
      "ĠJSON": 1086,
      "omain": 1087,
      "Input": 1088,
      "override": 1089,
      "ner": 1090,
      "--------": 1091,
      "Ġuser": 1092,
      "\"}]": 1093,
      "Ġ<": 1094,
      "Ġstatus": 1095,
      "null": 1096,
      "Ġcurrent": 1097,
      "module": 1098,
      "ises": 1099,
      "orization": 1100,
      "current": 1101,
      "lang": 1102,
      "Ġlog": 1103,
      "Ġsub": 1104,
      "redirect": 1105,
      "/#": 1106,
      "False": 1107,
      "res": 1108,
      "scope": 1109,
      "opes": 1110,
      "ĠPy": 1111,
      "denti": 1112,
      "mple": 1113,
      "environ": 1114,
      "Ġtyping": 1115,
      "cret": 1116,
      "fter": 1117,
      "ved": 1118,
      "ansl": 1119,
      "Ġinclude": 1120,
      "])": 1121,
      "eader": 1122,
      "Ġ/": 1123,
      "ait": 1124,
      "Ġexpected": 1125,
      "patch": 1126,
      "erver": 1127,
      "ET": 1128,
      "oute": 1129,
      "fault": 1130,
      "mit": 1131,
      "tx": 1132,
      "Ġen": 1133,
      "ĠN": 1134,
      "ĠFlask": 1135,
      "ĠRequest": 1136,
      "bytes": 1137,
      "gin": 1138,
      "dentials": 1139,
      "ĠQuery": 1140,
      "entic": 1141,
      "Ġ`/": 1142,
      "raises": 1143,
      "'t": 1144,
      "flask": 1145,
      "Callable": 1146,
      "oauth": 1147,
      "Ġun": 1148,
      "Ġparamet": 1149,
      "ify": 1150,
      "'s": 1151,
      "}\"": 1152,
      "ild": 1153,
      "Val": 1154,
      "tags": 1155,
      "ream": 1156,
      "Ġhave": 1157,
      "ĠUser": 1158,
      "Ġstate": 1159,
      "scopes": 1160,
      "__.": 1161,
      "Ġfloat": 1162,
      "Ġasync": 1163,
      "Ġcookie": 1164,
      "ĠURL": 1165,
      "alled": 1166,
      "but": 1167,
      "Ġpar": 1168,
      "Ġ+": 1169,
      "let": 1170,
      "Ġconfig": 1171,
      "lob": 1172,
      "Ġcreate": 1173,
      "upload": 1174,
      "12": 1175,
      "ĠBaseModel": 1176,
      "Ġwhen": 1177,
      "doc": 1178,
      "vent": 1179,
      "Ġvalues": 1180,
      "dant": 1181,
      "lif": 1182,
      "ck": 1183,
      "chem": 1184,
      "cod": 1185,
      "ĠL": 1186,
      "ert": 1187,
      "eturn": 1188,
      "ite": 1189,
      "seriali": 1190,
      "examples": 1191,
      "wait": 1192,
      "invalid": 1193,
      "func": 1194,
      "length": 1195,
      "generate": 1196,
      "util": 1197,
      "ible": 1198,
      "ST": 1199,
      "asic": 1200,
      "our": 1201,
      "process": 1202,
      "lock": 1203,
      "fixture": 1204,
      "wag": 1205,
      "Ġall": 1206,
      "pec": 1207,
      "origin": 1208,
      "Ġhas": 1209,
      "gister": 1210,
      "ging": 1211,
      "tri": 1212,
      "start": 1213,
      "options": 1214,
      "view": 1215,
      "prefix": 1216,
      "Ġtime": 1217,
      "append": 1218,
      "Ġcontent": 1219,
      "Ġfiles": 1220,
      "wagger": 1221,
      "other": 1222,
      "part": 1223,
      "Ġsup": 1224,
      "local": 1225,
      "En": 1226,
      "~~": 1227,
      "User": 1228,
      "main": 1229,
      "Ġhttpbin": 1230,
      "Ġtry": 1231,
      "bug": 1232,
      "multi": 1233,
      "ero": 1234,
      "ition": 1235,
      "`,": 1236,
      "Ġrun": 1237,
      "models": 1238,
      "comm": 1239,
      "uple": 1240,
      "dependant": 1241,
      "filter": 1242,
      "ER": 1243,
      "Ġdeprecated": 1244,
      "ced": 1245,
      "call": 1246,
      "Ġpass": 1247,
      "Ġwebsocket": 1248,
      "Bearer": 1249,
      "create": 1250,
      "ja": 1251,
      "lat": 1252,
      "Ġinst": 1253,
      "domain": 1254,
      "max": 1255,
      "oh": 1256,
      "pat": 1257,
      "ĠDefault": 1258,
      "Le": 1259,
      "ence": 1260,
      "Ġvis": 1261,
      ")):": 1262,
      "vo": 1263,
      "secret": 1264,
      "assed": 1265,
      "utf": 1266,
      "defaults": 1267,
      "size": 1268,
      "`).": 1269,
      "Read": 1270,
      "ĠPydantic": 1271,
      "db": 1272,
      "dle": 1273,
      "hed": 1274,
      "heck": 1275,
      "lose": 1276,
      "Ġlang": 1277,
      "ount": 1278,
      "Level": 1279,
      "*.": 1280,
      "ey": 1281,
      "van": 1282,
      "etime": 1283,
      "ĠConfig": 1284,
      "proxy": 1285,
      "Ġ40": 1286,
      "Ġserver": 1287,
      "apter": 1288,
      "ĠField": 1289,
      "bp": 1290,
      "opy": 1291,
      "\"}],": 1292,
      "={": 1293,
      "az": 1294,
      "inja": 1295,
      "Ġ{}": 1296,
      "ocation": 1297,
      "ound": 1298,
      "Ġvisible": 1299,
      "gen": 1300,
      "none": 1301,
      "number": 1302,
      "dir": 1303,
      "Ġq": 1304,
      "time": 1305,
      "Ġadded": 1306,
      "atetime": 1307,
      "Ġnew": 1308,
      "Key": 1309,
      "ind": 1310,
      "index": 1311,
      "Ġyield": 1312,
      "vanced": 1313,
      "Location": 1314,
      "The": 1315,
      "\\__": 1316,
      "kze": 1317,
      "Ġus": 1318,
      "erkze": 1319,
      "erkzeug": 1320,
      ".__": 1321,
      "Det": 1322,
      "Session": 1323,
      "\").": 1324,
      "Ġ{\"$": 1325,
      "root": 1326,
      "fore": 1327,
      "Ġonly": 1328,
      "ge": 1329,
      "iv": 1330,
      "Ġpassed": 1331,
      "Ġaut": 1332,
      "Server": 1333,
      "Un": 1334,
      "unset": 1335,
      "..": 1336,
      "cookies": 1337,
      "ma": 1338,
      "dep": 1339,
      "Ġlen": 1340,
      "Value": 1341,
      "utils": 1342,
      "run": 1343,
      "ty": 1344,
      "Ġawait": 1345,
      "Ġos": 1346,
      "Ġfields": 1347,
      "\"{": 1348,
      "',": 1349,
      "esp": 1350,
      "pp": 1351,
      "nore": 1352,
      "Detail": 1353,
      "Ġindex": 1354,
      "Ġmar": 1355,
      "ussion": 1356,
      "Ġstring": 1357,
      "login": 1358,
      "iscussion": 1359,
      "Ġopenapi": 1360,
      "Ġexcept": 1361,
      "corator": 1362,
      "direct": 1363,
      "md": 1364,
      "validations": 1365,
      "tribut": 1366,
      "Ġig": 1367,
      "Ġdoc": 1368,
      "ages": 1369,
      "Authorization": 1370,
      "onkey": 1371,
      "orld": 1372,
      "Ġwe": 1373,
      "Ġgenerate": 1374,
      "con": 1375,
      "Ġ4": 1376,
      "atic": 1377,
      "ĠIn": 1378,
      "wrapped": 1379,
      "kip": 1380,
      "xies": 1381,
      "Path": 1382,
      "Ġusername": 1383,
      "Ġmodel": 1384,
      "RE": 1385,
      "fer": 1386,
      "websocket": 1387,
      "advanced": 1388,
      "gro": 1389,
      "emplate": 1390,
      "ĠHTTPException": 1391,
      "Flask": 1392,
      "limit": 1393,
      "lean": 1394,
      "python": 1395,
      "output": 1396,
      "ithub": 1397,
      "Ġview": 1398,
      "coding": 1399,
      "lt": 1400,
      "send": 1401,
      "ine": 1402,
      "Ġblueprint": 1403,
      "ead": 1404,
      "Ġheader": 1405,
      "Ġendpoint": 1406,
      "ĠBody": 1407,
      "needs": 1408,
      "blueprint": 1409,
      "match": 1410,
      "email": 1411,
      "ĠReturn": 1412,
      "Ġparameter": 1413,
      "jinja": 1414,
      "ĠEx": 1415,
      "ĠSecurity": 1416,
      "/).": 1417,
      "ument": 1418,
      "settings": 1419,
      "onkeypatch": 1420,
      "01": 1421,
      "oe": 1422,
      "oot": 1423,
      "Ġcre": 1424,
      "/\":": 1425,
      "arlet": 1426,
      "002": 1427,
      "ĠConfiguration": 1428,
      "arlette": 1429,
      "02": 1430,
      "Socket": 1431,
      "agma": 1432,
      "transl": 1433,
      "Ġpragma": 1434,
      "exceptions": 1435,
      "ors": 1436,
      "ant": 1437,
      "ĠSt": 1438,
      "ĠOAuth": 1439,
      "Ġtags": 1440,
      "iddle": 1441,
      "Ġ\"/\":": 1442,
      "ebSocket": 1443,
      "Ġresults": 1444,
      "Alias": 1445,
      "GET": 1446,
      "Ġctx": 1447,
      "encoder": 1448,
      "Ġ...": 1449,
      "Dict": 1450,
      "Ġmatch": 1451,
      "ĠAlias": 1452,
      "chang": 1453,
      "ĠAPIR": 1454,
      ".{": 1455,
      "tax": 1456,
      "ates": 1457,
      "Ġcallback": 1458,
      "idden": 1459,
      "Ġover": 1460,
      "Ġinstead": 1461,
      "iddlew": 1462,
      "meth": 1463,
      "Ġseriali": 1464,
      "omatic": 1465,
      "Ġthan": 1466,
      "uploadfile": 1467,
      "Ġmarks": 1468,
      "**": 1469,
      ".\"\"\"": 1470,
      "())": 1471,
      "lick": 1472,
      "ĠWorld": 1473,
      "Ġignore": 1474,
      "WW": 1475,
      "ght": 1476,
      "ĠĠĠĠĠĠĠĠĠĠĠĠĠĠĠĠĠĠĠĠĠĠĠĠĠĠĠĠĠĠĠĠĠĠĠĠĠĠĠĠĠĠĠĠĠĠĠĠĠĠĠĠĠĠĠĠĠĠĠ": 1477,
      "Ġdirect": 1478,
      "und": 1479,
      "Ġvalid": 1480,
      "ui": 1481,
      "Ġdependencies": 1482,
      "ooks": 1483,
      "ared": 1484,
      "nal": 1485,
      "Ġcon": 1486,
      "Ġapplication": 1487,
      "fields": 1488,
      "Ġallow": 1489,
      "Fix": 1490,
      "close": 1491,
      "gr": 1492,
      "Ġvalidation": 1493,
      "Ġdoes": 1494,
      "ĠIs": 1495,
      "Ġexample": 1496,
      "Ġany": 1497,
      "ĠHeader": 1498,
      "Ġlogging": 1499,
      "iddleware": 1500,
      "Ġresp": 1501,
      "Ġadd": 1502,
      "cli": 1503,
      "jar": 1504,
      "some": 1505,
      "ump": 1506,
      "Ġmust": 1507,
      "ION": 1508,
      "has": 1509,
      "Ġone": 1510,
      "Ġresponses": 1511,
      "ĠForm": 1512,
      "\"])": 1513,
      "depends": 1514,
      "glob": 1515,
      "mo": 1516,
      "ĠFile": 1517,
      "lines": 1518,
      "onnection": 1519,
      "arnings": 1520,
      "ified": 1521,
      "]):": 1522,
      "Ġbut": 1523,
      "requests": 1524,
      "Ġcontain": 1525,
      "ific": 1526,
      "[[": 1527,
      "my": 1528,
      "irst": 1529,
      "oken": 1530,
      "chema": 1531,
      "ML": 1532,
      "Not": 1533,
      "rl": 1534,
      "Ġitems": 1535,
      "Ġcustom": 1536,
      "quence": 1537,
      "(),": 1538,
      "003": 1539,
      "__)": 1540,
      "Ġgiv": 1541,
      "original": 1542,
      "right": 1543,
      "=[\"": 1544,
      "TE": 1545,
      "\"))": 1546,
      "tureRequest": 1547,
      "FixtureRequest": 1548,
      "des": 1549,
      "Ġcall": 1550,
      "ĠCallable": 1551,
      "Ġcomm": 1552,
      "Cookie": 1553,
      "Callback": 1554,
      "IN": 1555,
      "Ġprovi": 1556,
      "ther": 1557,
      "ounter": 1558,
      "Ġtitle": 1559,
      "iter": 1560,
      "anag": 1561,
      "Ġwas": 1562,
      "itional": 1563,
      "requestBody": 1564,
      "Ġ[\"/": 1565,
      "Ġsend": 1566,
      "Create": 1567,
      "be": 1568,
      "Ġ):": 1569,
      "Ġmonkeypatch": 1570,
      "HTML": 1571,
      "prep": 1572,
      "parent": 1573,
      ".\"": 1574,
      "after": 1575,
      "changed": 1576,
      "uff": 1577,
      "raise": 1578,
      "ĠAPIRouter": 1579,
      "Ġdependency": 1580,
      "Ġscheme": 1581,
      "ardown": 1582,
      "Ġcalled": 1583,
      "Ġgiven": 1584,
      "File": 1585,
      "swagger": 1586,
      "Ġver": 1587,
      "tribute": 1588,
      "nt": 1589,
      "Ġpassword": 1590,
      "Ġmulti": 1591,
      "Ġ```": 1592,
      "world": 1593,
      "Ġauthentic": 1594,
      "Url": 1595,
      "ender": 1596,
      "Ġtemplate": 1597,
      "Ġfirst": 1598,
      "ĠWebSocket": 1599,
      "Unset": 1600,
      "espan": 1601,
      "({\"": 1602,
      "Str": 1603,
      "sp": 1604,
      "oolean": 1605,
      "Ġmax": 1606,
      "simple": 1607,
      "(__": 1608,
      "Ġarg": 1609,
      "here": 1610,
      "base": 1611,
      "ernal": 1612,
      "Ġsame": 1613,
      "odule": 1614,
      "ĠUn": 1615,
      "anager": 1616,
      "block": 1617,
      "typ": 1618,
      "igest": 1619,
      "Ġstart": 1620,
      "uct": 1621,
      "Ġexclude": 1622,
      "Ġexception": 1623,
      "Ġ*,": 1624,
      "arning": 1625,
      "Ġtuple": 1626,
      "Ġcover": 1627,
      "tial": 1628,
      "errors": 1629,
      "write": 1630,
      "ql": 1631,
      "wright": 1632,
      "Ġother": 1633,
      "debug": 1634,
      "like": 1635,
      "added": 1636,
      "aywright": 1637,
      "ak": 1638,
      "scri": 1639,
      "Ġdatetime": 1640,
      "Ġspec": 1641,
      "ĠID": 1642,
      "=\"/": 1643,
      "ĠItems": 1644,
      "Ġprep": 1645,
      "Ġversionadded": 1646,
      "command": 1647,
      "Ġrouter": 1648,
      "(\"/\",": 1649,
      "ach": 1650,
      "\"][\"": 1651,
      "extract": 1652,
      "Ġmethods": 1653,
      "Ġchar": 1654,
      "500": 1655,
      "PO": 1656,
      "baz": 1657,
      "github": 1658,
      "uild": 1659,
      "Ġpl": 1660,
      "ĠAd": 1661,
      "Ġexamples": 1662,
      "Ġerrors": 1663,
      "Ġproxy": 1664,
      "Ġtext": 1665,
      "Ġcheck": 1666,
      "andle": 1667,
      "ache": 1668,
      "nam": 1669,
      "of": 1670,
      "ys": 1671,
      "ĠId": 1672,
      "Ġbytes": 1673,
      "Ġautomatic": 1674,
      "dump": 1675,
      "etad": 1676,
      "Ġinstance": 1677,
      "link": 1678,
      "ĠModule": 1679,
      "Depends": 1680,
      "localhost": 1681,
      "ohn": 1682,
      "etadata": 1683,
      "copy": 1684,
      "Ġmessage": 1685,
      "links": 1686,
      "Ġneeds": 1687,
      "ValueError": 1688,
      "Ġcallbacks": 1689,
      "Name": 1690,
      "cert": 1691,
      "vail": 1692,
      "ating": 1693,
      "()[\"": 1694,
      "Ġafter": 1695,
      "Ġ50": 1696,
      "vailable": 1697,
      "You": 1698,
      "configuration": 1699,
      "AD": 1700,
      "les": 1701,
      "register": 1702,
      "Ġcould": 1703,
      "Ġbp": 1704,
      "ackage": 1705,
      "----------------": 1706,
      "lifespan": 1707,
      "\"):": 1708,
      "gt": 1709,
      "ice": 1710,
      "os": 1711,
      "sit": 1712,
      "testing": 1713,
      "ĠCookie": 1714,
      "format": 1715,
      "Ġprefix": 1716,
      "multipart": 1717,
      "Route": 1718,
      "count": 1719,
      "uage": 1720,
      "ename": 1721,
      "Ġroute": 1722,
      "Ġroot": 1723,
      "utdown": 1724,
      "Ġredirect": 1725,
      "``.": 1726,
      "callbacks": 1727,
      "123": 1728,
      "16": 1729,
      "ME": 1730,
      "}/": 1731,
      "Ġup": 1732,
      "Ġstatic": 1733,
      "Ġprint": 1734,
      "Header": 1735,
      "ding": 1736,
      "tag": 1737,
      "ĠHTML": 1738,
      "Ġvar": 1739,
      "Bar": 1740,
      "Ġ!": 1741,
      "Ġquery": 1742,
      ":`~": 1743,
      "Ġusing": 1744,
      "event": 1745,
      "hen": 1746,
      "skip": 1747,
      "ĠE": 1748,
      "asks": 1749,
      "exc": 1750,
      "Ġpost": 1751,
      "Ġwarnings": 1752,
      "Ġexc": 1753,
      "ĠCustom": 1754,
      "ctions": 1755,
      "ground": 1756,
      "non": 1757,
      "Ġcert": 1758,
      "place": 1759,
      "ixed": 1760,
      "Ġversionchanged": 1761,
      "startup": 1762,
      "types": 1763,
      "aut": 1764,
      "ep": 1765,
      "pass": 1766,
      "Ġoriginal": 1767,
      "Ġprice": 1768,
      "Ġavailable": 1769,
      "ceive": 1770,
      "vert": 1771,
      "Ġhost": 1772,
      "Ġdecorator": 1773,
      "Ġelif": 1774,
      "Ġsent": 1775,
      "Ġsuper": 1776,
      "Ġsupport": 1777,
      "Ġ!=": 1778,
      "ater": 1779,
      "ined": 1780,
      "Ġid": 1781,
      "ptional": 1782,
      "Ġtoken": 1783,
      "shutdown": 1784,
      "Ġmultiple": 1785,
      "Ġautomatically": 1786,
      "obj": 1787,
      "ĠEn": 1788,
      "apping": 1789,
      "emb": 1790,
      "Ġwould": 1791,
      "ĠSession": 1792,
      "Ġdetail": 1793,
      "sig": 1794,
      "Ġdocument": 1795,
      "DE": 1796,
      "OR": 1797,
      "Password": 1798,
      "SS": 1799,
      "fake": 1800,
      "ich": 1801,
      "Dep": 1802,
      "corated": 1803,
      "Basic": 1804,
      "LA": 1805,
      "hooks": 1806,
      "ous": 1807,
      "}\":": 1808,
      "Ġ>": 1809,
      "ĠFor": 1810,
      "Ġform": 1811,
      "Info": 1812,
      "imal": 1813,
      "result": 1814,
      "ternal": 1815,
      "Ġcredentials": 1816,
      "SE": 1817,
      "St": 1818,
      "lder": 1819,
      "Ġreq": 1820,
      "\"][": 1821,
      "ource": 1822,
      "Blueprint": 1823,
      "LI": 1824,
      "Param": 1825,
      "cimal": 1826,
      "Ġload": 1827,
      "004": 1828,
      "Ġwerkzeug": 1829,
      "verse": 1830,
      "Ġstarlette": 1831,
      "HE": 1832,
      "ize": 1833,
      "len": 1834,
      "var": 1835,
      "Ġ10": 1836,
      "Ġenviron": 1837,
      "stuff": 1838,
      "ard": 1839,
      "adapter": 1840,
      "abel": 1841,
      "Ġhandler": 1842,
      "overri": 1843,
      "Ġwhich": 1844,
      "ays": 1845,
      "proxies": 1846,
      "~~~~": 1847,
      "App": 1848,
      "List": 1849,
      "TION": 1850,
      "Token": 1851,
      "boolean": 1852,
      "ered": 1853,
      "pload": 1854,
      "Ġupdate": 1855,
      "deprecated": 1856,
      "stream": 1857,
      "aph": 1858,
      "external": 1859,
      "comment": 1860,
      "pendenc": 1861,
      "abc": 1862,
      "folder": 1863,
      "keys": 1864,
      "mplement": 1865,
      "Ad": 1866,
      "NA": 1867,
      "]]": 1868,
      "tra": 1869,
      "ĠYou": 1870,
      "ionary": 1871,
      "Ġremo": 1872,
      "404": 1873,
      "POST": 1874,
      "')": 1875,
      "av": 1876,
      "ia": 1877,
      "net": 1878,
      "Ġout": 1879,
      "Ġscope": 1880,
      "tests": 1881,
      "Ġso": 1882,
      "hero": 1883,
      "actory": 1884,
      "ĠExample": 1885,
      "before": 1886,
      "prepare": 1887,
      "Pro": 1888,
      "Ġhttp": 1889,
      "reg": 1890,
      "ettings": 1891,
      "ateg": 1892,
      "Ġannotation": 1893,
      "Content": 1894,
      "credentials": 1895,
      "peration": 1896,
      "ĠModuleType": 1897,
      "Form": 1898,
      "connect": 1899,
      "the": 1900,
      "ww": 1901,
      "lit": 1902,
      "head": 1903,
      "().": 1904,
      "Ġact": 1905,
      "uments": 1906,
      "iffer": 1907,
      "older": 1908,
      "Ġdirectly": 1909,
      "script": 1910,
      "John": 1911,
      "Ġle": 1912,
      "Ġ(\"/": 1913,
      "Ġmake": 1914,
      "Ġstream": 1915,
      "ploadFile": 1916,
      "400": 1917,
      "Data": 1918,
      "Run": 1919,
      "dated": 1920,
      "less": 1921,
      "rule": 1922,
      "Ġkwargs": 1923,
      "Ġcor": 1924,
      "Ġnam": 1925,
      "location": 1926,
      "ĠParam": 1927,
      "teardown": 1928,
      "gistered": 1929,
      "matching": 1930,
      "Ġverify": 1931,
      "Test": 1932,
      "Warning": 1933,
      "basic": 1934,
      "nly": 1935,
      "sure": 1936,
      "Ġ=================================": 1937,
      "Ġper": 1938,
      "strip": 1939,
      "Ġback": 1940,
      "Ġbefore": 1941,
      "arge": 1942,
      "====================": 1943,
      "====================================================": 1944,
      "ifferent": 1945,
      "Ġ=====================================================================================": 1946,
      ".\")": 1947,
      "Com": 1948,
      "callable": 1949,
      "Ġregister": 1950,
      "ĠApp": 1951,
      "Ġdebug": 1952,
      "50": 1953,
      "One": 1954,
      "uil": 1955,
      "Ġx": 1956,
      "encoding": 1957,
      "Ġport": 1958,
      "ules": 1959,
      "Ġmy": 1960,
      "Ġmode": 1961,
      "Ġsettings": 1962,
      "401": 1963,
      "ĠGener": 1964,
      "Length": 1965,
      "joh": 1966,
      "ls": 1967,
      "qa": 1968,
      "Ġopen": 1969,
      "Ġ42": 1970,
      "reverse": 1971,
      "Ġfound": 1972,
      "Ġpage": 1973,
      "Ġbase": 1974,
      "Ġsys": 1975,
      "ick": 1976,
      "ange": 1977,
      "ndoe": 1978,
      "Ġoverride": 1979,
      "ĠIsOne": 1980,
      "johndoe": 1981,
      "ĠIsOneOf": 1982,
      "Get": 1983,
      "cache": 1984,
      "factory": 1985,
      "hes": 1986,
      "ote": 1987,
      "help": 1988,
      "enticate": 1989,
      "Ġ+=": 1990,
      "split": 1991,
      "('": 1992,
      "OO": 1993,
      "zer": 1994,
      "zed": 1995,
      "Ġextract": 1996,
      "invo": 1997,
      "Ġ{},": 1998,
      "pons": 1999,
      "ark": 2000,
      "Ġcase": 2001,
      "Ġcookies": 2002,
      "Ġwant": 2003,
      "ĠInc": 2004,
      "ĠOperation": 2005,
      "ĠWhen": 2006,
      "Ġattribute": 2007,
      "Ġproxies": 2008,
      "Ġnoqa": 2009,
      "...": 2010,
      "Ġprovided": 2011,
      "embed": 2012,
      "Cre": 2013,
      "pool": 2014,
      "ĠĠĠĠĠ": 2015,
      "admin": 2016,
      "Ġreturned": 2017,
      "Ġmain": 2018,
      "txt": 2019,
      "Ġtimeout": 2020,
      "pattern": 2021,
      "translation": 2022,
      "ĠAdd": 2023,
      "TH": 2024,
      "bidden": 2025,
      "tuple": 2026,
      "allow": 2027,
      "Ġblock": 2028,
      "loader": 2029,
      "Ġmay": 2030,
      "Ġnumber": 2031,
      "Ġurllib": 2032,
      "Ġprocess": 2033,
      "Ġ'\"": 2034,
      "Ġ401": 2035,
      "IO": 2036,
      "ca": 2037,
      "Ġoptions": 2038,
      "sen": 2039,
      "lete": 2040,
      "expected": 2041,
      "Ġdefine": 2042,
      "Ġjsonable": 2043,
      "ight": 2044,
      "new": 2045,
      "graph": 2046,
      "Ġdoesn": 2047,
      "middleware": 2048,
      "spec": 2049,
      "inf": 2050,
      "Ġfoo": 2051,
      "Ġsummary": 2052,
      "child": 2053,
      "routing": 2054,
      "ling": 2055,
      "Ġdep": 2056,
      "``,": 2057,
      "andlers": 2058,
      "Authenticate": 2059,
      "imum": 2060,
      "umbus": 2061,
      "olle": 2062,
      "Ġparse": 2063,
      "overrides": 2064,
      "Jar": 2065,
      "jo": 2066,
      "ons": 2067,
      "Ġdis": 2068,
      "Required": 2069,
      "parate": 2070,
      "wrapper": 2071,
      "coratedCallable": 2072,
      "MA": 2073,
      "manager": 2074,
      "swith": 2075,
      "Ġline": 2076,
      "reater": 2077,
      "Ġcid": 2078,
      "Ġclick": 2079,
      "edia": 2080,
      "Ġdb": 2081,
      "ĠAsync": 2082,
      "access": 2083,
      "ĠOnly": 2084,
      "owner": 2085,
      "ffect": 2086,
      "Ġencoding": 2087,
      "WWW": 2088,
      "counter": 2089,
      "ually": 2090,
      "Ġscopes": 2091,
      "exist": 2092,
      "Ġiter": 2093,
      "image": 2094,
      "lower": 2095,
      "Ġmodule": 2096,
      "Ġparameters": 2097,
      "Ġ404": 2098,
      "100": 2099,
      "</": 2100,
      "PA": 2101,
      "].": 2102,
      "sock": 2103,
      "ĠValueError": 2104,
      "eser": 2105,
      "Ġfin": 2106,
      "Ġdifferent": 2107,
      "Ġwr": 2108,
      "__,": 2109,
      "ids": 2110,
      "ModelO": 2111,
      "Ġyour": 2112,
      "80": 2113,
      "Schema": 2114,
      "nat": 2115,
      "decorator": 2116,
      "Ġinte": 2117,
      "aces": 2118,
      "setdefault": 2119,
      "abled": 2120,
      "Ġhero": 2121,
      "Ġ100": 2122,
      "ugh": 2123,
      "Ġtransl": 2124,
      "lative": 2125,
      "Ġarguments": 2126,
      "dumps": 2127,
      "ted": 2128,
      "decode": 2129,
      "alin": 2130,
      "thread": 2131,
      "pendency": 2132,
      "Var": 2133,
      "ili": 2134,
      "metadata": 2135,
      "wn": 2136,
      "}\",": 2137,
      "Ġk": 2138,
      "Ġlike": 2139,
      "sequence": 2140,
      "ask": 2141,
      "ested": 2142,
      "Ġcli": 2143,
      "Ġcopy": 2144,
      "ans": 2145,
      "Ġfake": 2146,
      "Ġpackage": 2147,
      "Ġbro": 2148,
      "ValidationAlias": 2149,
      "ModelRequired": 2150,
      "ĠSchema": 2151,
      "Ġgetattr": 2152,
      "istory": 2153,
      "partial": 2154,
      "ready": 2155,
      "encoded": 2156,
      "ModelOptional": 2157,
      "Pl": 2158,
      "face": 2159,
      "malin": 2160,
      "nan": 2161,
      "its": 2162,
      "Ġrout": 2163,
      "empt": 2164,
      "Ġdictionary": 2165,
      "hash": 2166,
      "empty": 2167,
      "click": 2168,
      "rst": 2169,
      "ench": 2170,
      "ular": 2171,
      "pydantic": 2172,
      "Ġ30": 2173,
      "correct": 2174,
      "umbers": 2175,
      "methods": 2176,
      "ification": 2177,
      "sensit": 2178,
      "datetime": 2179,
      "flat": 2180,
      "make": 2181,
      "pop": 2182,
      "tmp": 2183,
      "werkzeug": 2184,
      "Ġhttps": 2185,
      "rimin": 2186,
      "Ġdomain": 2187,
      "Ġnon": 2188,
      "filename": 2189,
      "iscrimin": 2190,
      "lobal": 2191,
      "group": 2192,
      "ategory": 2193,
      "Hero": 2194,
      "No": 2195,
      "ose": 2196,
      "ting": 2197,
      "Ġschema": 2198,
      "Ġhtml": 2199,
      "delt": 2200,
      "Ġthey": 2201,
      "Ġac": 2202,
      "Ġdiscussion": 2203,
      "Ġobj": 2204,
      "plates": 2205,
      "Ġexp": 2206,
      "Ġcontin": 2207,
      "fixed": 2208,
      "Ġoperations": 2209,
      "redirects": 2210,
      "Ġinteger": 2211,
      "delta": 2212,
      "PTION": 2213,
      "large": 2214,
      "map": 2215,
      "spect": 2216,
      "uid": 2217,
      "Ġj": 2218,
      "ĠBase": 2219,
      "Ġcolle": 2220,
      "Ġrepr": 2221,
      "\")],": 2222,
      "Ġinter": 2223,
      "ĠServer": 2224,
      "Ġfunctions": 2225,
      "globals": 2226,
      "akes": 2227,
      "join": 2228,
      "sensitive": 2229,
      "fe": 2230,
      "ok": 2231,
      "zip": 2232,
      "ĠJ": 2233,
      "ĠValidation": 2234,
      "Ġ\"\"": 2235,
      "anch": 2236,
      "Ġbar": 2237,
      "Ġinspect": 2238,
      "first": 2239,
      "odes": 2240,
      "union": 2241,
      "verride": 2242,
      "parse": 2243,
      "Ġev": 2244,
      "vider": 2245,
      "multiple": 2246,
      "Proxy": 2247,
      "ility": 2248,
      "Ġcontinue": 2249,
      "(*": 2250,
      "With": 2251,
      "ged": 2252,
      "pdate": 2253,
      "sum": 2254,
      "sup": 2255,
      "wo": 2256,
      "ws": 2257,
      "qual": 2258,
      "Ġsock": 2259,
      "Ġsome": 2260,
      "Ġmin": 2261,
      "unk": 2262,
      "Ġtypes": 2263,
      "Ġincluded": 2264,
      "global": 2265,
      "OAuth": 2266,
      "URL": 2267,
      "View": 2268,
      "exit": 2269,
      "ped": 2270,
      "Ġpat": 2271,
      ":`.": 2272,
      "Ġsubprocess": 2273,
      "timeError": 2274,
      "Adapter": 2275,
      "NAME": 2276,
      "PTIONS": 2277,
      "GI": 2278,
      "pet": 2279,
      "ĠException": 2280,
      "Ġdependant": 2281,
      "rep": 2282,
      "receive": 2283,
      "Ġreg": 2284,
      "edirect": 2285,
      "\")]": 2286,
      "Ġaffect": 2287,
      "Ġthose": 2288,
      "abort": 2289,
      "routes": 2290,
      "parameter": 2291,
      "Ġuseful": 2292,
      "subdomain": 2293,
      "JSONResponse": 2294,
      "ĠName": 2295,
      "Return": 2296,
      "]}": 2297,
      "ived": 2298,
      "rtype": 2299,
      "render": 2300,
      "ts": 2301,
      "uuid": 2302,
      "ways": 2303,
      "Ġargs": 2304,
      "defined": 2305,
      "oth": 2306,
      "()):": 2307,
      "()]):": 2308,
      "Ġinclu": 2309,
      "Ġaccess": 2310,
      "Ġ[],": 2311,
      "ceived": 2312,
      "Ġreturns": 2313,
      "essages": 2314,
      "uplic": 2315,
      "Dependency": 2316,
      "heroes": 2317,
      "Ġsubdomain": 2318,
      "Ġparent": 2319,
      "processor": 2320,
      "Ġ400": 2321,
      "iscriminator": 2322,
      "!\"": 2323,
      "SGI": 2324,
      "dot": 2325,
      "fr": 2326,
      "fin": 2327,
      "uch": 2328,
      "org": 2329,
      "Ġfixed": 2330,
      "Ġdo": 2331,
      "005": 2332,
      "Ġglobal": 2333,
      "Ġhow": 2334,
      "author": 2335,
      "Ġsecurity": 2336,
      "ĠMark": 2337,
      "Ġtyper": 2338,
      "ĠSequence": 2339,
      "ĠGet": 2340,
      "Ġrunner": 2341,
      "Ġvari": 2342,
      "Credentials": 2343,
      "Ġpattern": 2344,
      "/\"": 2345,
      "SER": 2346,
      "VER": 2347,
      "build": 2348,
      "hr": 2349,
      "history": 2350,
      "ong": 2351,
      "Ġimplement": 2352,
      "Ġthere": 2353,
      "Ġwor": 2354,
      "very": 2355,
      "ĠStr": 2356,
      "ĠCom": 2357,
      "full": 2358,
      "Ġeach": 2359,
      "also": 2360,
      "Ġ500": 2361,
      "Ġconvert": 2362,
      "auto": 2363,
      "Ġenvironment": 2364,
      "Ġbrow": 2365,
      "19": 2366,
      "Event": 2367,
      "Out": 2368,
      "Schem": 2369,
      "ial": 2370,
      "tasks": 2371,
      "Ġlimit": 2372,
      "Ġhere": 2373,
      "Ġtmp": 2374,
      "Ġtag": 2375,
      "Ġregistered": 2376,
      "otal": 2377,
      "Ġinto": 2378,
      "comput": 2379,
      "andling": 2380,
      "umer": 2381,
      "roup": 2382,
      "errorhandler": 2383,
      "ĠUI": 2384,
      "startswith": 2385,
      "Ġcommand": 2386,
      "Ġauthenticated": 2387,
      "Runner": 2388,
      "Ġbrowser": 2389,
      ".\",": 2390,
      "Code": 2391,
      "ject": 2392,
      "}:": 2393,
      "Ġend": 2394,
      "Ġunique": 2395,
      "Ġ\"__": 2396,
      "recor": 2397,
      "lear": 2398,
      "Ġfunc": 2399,
      "urname": 2400,
      "Ġstrings": 2401,
      "ĠRouter": 2402,
      "\"]}": 2403,
      "ĠUploadFile": 2404,
      "ĠJSONResponse": 2405,
      "language": 2406,
      "Ġauto": 2407,
      "Ġcollections": 2408,
      "repared": 2409,
      "ĠString": 2410,
      "/?": 2411,
      "AU": 2412,
      "EN": 2413,
      "ces": 2414,
      "repo": 2415,
      "lied": 2416,
      "Ġconnection": 2417,
      "quote": 2418,
      "\")])": 2419,
      "rior": 2420,
      "under": 2421,
      "Ġnet": 2422,
      "Ġcompat": 2423,
      "ĠNo": 2424,
      "ĠInvalid": 2425,
      "reparedRequest": 2426,
      "Description": 2427,
      "Sub": 2428,
      "This": 2429,
      "`)": 2430,
      "discussion": 2431,
      "digest": 2432,
      "hidden": 2433,
      "holder": 2434,
      "page": 2435,
      "Ġjar": 2436,
      "ason": 2437,
      "liRunner": 2438,
      "ute": 2439,
      "Ġskip": 2440,
      "006": 2441,
      "ires": 2442,
      "property": 2443,
      "Ġevent": 2444,
      "ĠBy": 2445,
      "ĠPython": 2446,
      "ĠRequests": 2447,
      "Ġconfiguration": 2448,
      "voice": 2449,
      "translated": 2450,
      "scripts": 2451,
      "ĠIncEx": 2452,
      "hron": 2453,
      "riority": 2454,
      "\"<": 2455,
      ")],": 2456,
      "Other": 2457,
      "Price": 2458,
      "ci": 2459,
      "dis": 2460,
      "ec": 2461,
      "rary": 2462,
      "viron": 2463,
      "wise": 2464,
      "arch": 2465,
      "ocover": 2466,
      "redoc": 2467,
      "compat": 2468,
      "ĠRun": 2469,
      "Ġold": 2470,
      "setup": 2471,
      "classes": 2472,
      "Ġnocover": 2473,
      "playwright": 2474,
      "Ġexist": 2475,
      "ĠWith": 2476,
      "additional": 2477,
      "active": 2478,
      "Ġalready": 2479,
      "ĠList": 2480,
      "hronous": 2481,
      "Config": 2482,
      "ft": 2483,
      "ments": 2484,
      "nested": 2485,
      "orsel": 2486,
      "Ġtax": 2487,
      "lease": 2488,
      "Ġpart": 2489,
      "Ġinvalid": 2490,
      "\"}),": 2491,
      "Ġsrc": 2492,
      "extend": 2493,
      "Ġwithout": 2494,
      "try": 2495,
      "ĠBlueprint": 2496,
      "Ġneed": 2497,
      "Ġcomment": 2498,
      "ING": 2499,
      "Ġauthentication": 2500,
      "ĠUnion": 2501,
      ")]": 2502,
      "GE": 2503,
      "Lo": 2504,
      "connection": 2505,
      "Ġalso": 2506,
      "ension": 2507,
      "Ġapplied": 2508,
      "clients": 2509,
      "ables": 2510,
      "places": 2511,
      "ĠSettings": 2512,
      "side": 2513,
      "403": 2514,
      "subclass": 2515,
      "unicode": 2516,
      "Ġ</": 2517,
      "cond": 2518,
      "ll": 2519,
      "ress": 2520,
      "separate": 2521,
      "replace": 2522,
      "order": 2523,
      "ionError": 2524,
      "exp": 2525,
      "ĠFoo": 2526,
      "accept": 2527,
      "ĠUse": 2528,
      "Ġdefaults": 2529,
      "igits": 2530,
      "=[(\"": 2531,
      "espace": 2532,
      "dotenv": 2533,
      "([\"": 2534,
      "Doe": 2535,
      "RO": 2536,
      "da": 2537,
      "off": 2538,
      "ĠV": 2539,
      "incorrect": 2540,
      "eriali": 2541,
      "Ġfull": 2542,
      "ĠAuth": 2543,
      "raw": 2544,
      "Ġnumbers": 2545,
      "ĠAnnotation": 2546,
      "than": 2547,
      "validate": 2548,
      "formation": 2549,
      "generator": 2550,
      "tributes": 2551,
      "Ġcreated": 2552,
      "Ġserialize": 2553,
      "Ġdirectory": 2554,
      "Ġprovide": 2555,
      "Ġsupported": 2556,
      "HEAD": 2557,
      "...,": 2558,
      "graphql": 2559,
      "fixedquery": 2560,
      "Connect": 2561,
      "OD": 2562,
      "UI": 2563,
      "][\"": 2564,
      "bearer": 2565,
      "check": 2566,
      "ges": 2567,
      "Ġusers": 2568,
      "stem": 2569,
      "Ġrule": 2570,
      "eter": 2571,
      "appcontext": 2572,
      "Ġsi": 2573,
      "ĠDict": 2574,
      "Ġpython": 2575,
      "Ġge": 2576,
      "Ġhooks": 2577,
      "Ġorder": 2578,
      "modules": 2579,
      "Ġmodified": 2580,
      "timeout": 2581,
      "Ġuses": 2582,
      "runner": 2583,
      "\"\\": 2584,
      ")\"": 2585,
      "Ch": 2586,
      "rb": 2587,
      "ĠVal": 2588,
      "Ġemail": 2589,
      "Ġlink": 2590,
      "Ġlinks": 2591,
      "dered": 2592,
      "Ġte": 2593,
      "ures": 2594,
      "()],": 2595,
      "Ġinfo": 2596,
      "Ġdir": 2597,
      "ell": 2598,
      "comp": 2599,
      "locks": 2600,
      "Ġdecimal": 2601,
      "ĠDecoratedCallable": 2602,
      "wrap": 2603,
      "precation": 2604,
      "olve": 2605,
      "Ġ[]}": 2606,
      "filters": 2607,
      "ĠStream": 2608,
      "25": 2609,
      "Digest": 2610,
      "Pr": 2611,
      "ble": 2612,
      "cure": 2613,
      "mage": 2614,
      "ng": 2615,
      "png": 2616,
      "ssl": 2617,
      "ual": 2618,
      "Ġoptional": 2619,
      "repr": 2620,
      "ince": 2621,
      "Ġcls": 2622,
      "Ġinformation": 2623,
      "Ġsing": 2624,
      "008": 2625,
      "APIRoute": 2626,
      "Ġhandle": 2627,
      "ĠOverride": 2628,
      "Ġkeys": 2629,
      "CookieJar": 2630,
      "Ġcharact": 2631,
      "named": 2632,
      "sign": 2633,
      "PasswordBearer": 2634,
      "ĠGenerate": 2635,
      "invoke": 2636,
      "malinks": 2637,
      "enchmark": 2638,
      "super": 2639,
      ")]):": 2640,
      "72": 2641,
      "afe": 2642,
      "case": 2643,
      "ha": 2644,
      "hook": 2645,
      "js": 2646,
      "ranch": 2647,
      "warn": 2648,
      "inst": 2649,
      "err": 2650,
      "Ġclose": 2651,
      "ometh": 2652,
      "edges": 2653,
      "0000": 2654,
      "oding": 2655,
      "onth": 2656,
      "uples": 2657,
      "sgi": 2658,
      "parsing": 2659,
      "modified": 2660,
      "ĠMy": 2661,
      "Default": 2662,
      "lows": 2663,
      "Ġlanguage": 2664,
      "Ġserialization": 2665,
      "ĠEnum": 2666,
      "Ġactive": 2667,
      "Ġcorrect": 2668,
      "umeric": 2669,
      "record": 2670,
      "omething": 2671,
      "\".": 2672,
      ">\")": 2673,
      "CK": 2674,
      "[...,": 2675,
      "duplic": 2676,
      "label": 2677,
      "priority": 2678,
      "wind": 2679,
      "Ġexternal": 2680,
      "ĠĠĠĠĠĠĠĠĠ": 2681,
      "ink": 2682,
      "ions": 2683,
      "arget": 2684,
      "amb": 2685,
      "uri": 2686,
      "Ġpatch": 2687,
      "Ġbuil": 2688,
      "\"}},": 2689,
      "000": 2690,
      "Ġwhere": 2691,
      "cho": 2692,
      "aseIn": 2693,
      "roken": 2694,
      "Ġsee": 2695,
      "Ġauthor": 2696,
      "Ġlogin": 2697,
      "Ġplaywright": 2698,
      "Ġtranslation": 2699,
      "sensitiveDict": 2700,
      "Schemes": 2701,
      "precationWarning": 2702,
      "Ġ[]}],": 2703,
      "Ġsingle": 2704,
      "aseInsensitiveDict": 2705,
      ">>": 2706,
      "PE": 2707,
      "YPE": 2708,
      "aded": 2709,
      "digits": 2710,
      "eded": 2711,
      "handle": 2712,
      "istr": 2713,
      "man": 2714,
      "wner": 2715,
      "Ġscripts": 2716,
      "delete": 2717,
      "Ġrender": 2718,
      "Ġft": 2719,
      "struct": 2720,
      "Ġsort": 2721,
      "Ġman": 2722,
      "ncoding": 2723,
      "Ġ##": 2724,
      "plain": 2725,
      "ĠCont": 2726,
      "Ġdevel": 2727,
      "Invalid": 2728,
      "Ġpreser": 2729,
      "submodel": 2730,
      "securitySchemes": 2731,
      "provider": 2732,
      "ibility": 2733,
      "grant": 2734,
      "Ġdocumentation": 2735,
      "Ġ>>>": 2736,
      "www": 2737,
      "Ġnames": 2738,
      "SERVER": 2739,
      "Discussion": 2740,
      "IE": 2741,
      "LO": 2742,
      "Redirect": 2743,
      "Se": 2744,
      "['": 2745,
      "mock": 2746,
      "mapping": 2747,
      "ĠKey": 2748,
      "ĠĠĠĠĠĠ": 2749,
      "Ġcount": 2750,
      "scor": 2751,
      "mportError": 2752,
      "Ġbound": 2753,
      "codeError": 2754,
      "Ġstrict": 2755,
      "Ġnow": 2756,
      "Ġexpect": 2757,
      "ĠSo": 2758,
      "Example": 2759,
      "Ġlength": 2760,
      "imeout": 2761,
      "ixin": 2762,
      "forbidden": 2763,
      "Ġwere": 2764,
      "iteral": 2765,
      "Ġcharset": 2766,
      "BU": 2767,
      "CHE": 2768,
      "Gener": 2769,
      "Middleware": 2770,
      "lag": 2771,
      "same": 2772,
      "vents": 2773,
      "req": 2774,
      "ĠTag": 2775,
      "Ġsync": 2776,
      "Ġsure": 2777,
      "Ġapplic": 2778,
      "Ġthread": 2779,
      "ices": 2780,
      "rough": 2781,
      "iled": 2782,
      "ools": 2783,
      "Ġpathlib": 2784,
      "Ġequal": 2785,
      "logging": 2786,
      "vice": 2787,
      "ĠAPIKey": 2788,
      "ĠSee": 2789,
      "ĠNot": 2790,
      "views": 2791,
      "Ġvery": 2792,
      "SSION": 2793,
      "specific": 2794,
      "nature": 2795,
      "Ġjust": 2796,
      "setupmethod": 2797,
      "ambda": 2798,
      "Ġapplicable": 2799,
      "VA": 2800,
      "ailed": 2801,
      "bool": 2802,
      "float": 2803,
      "git": 2804,
      "Ġar": 2805,
      "Ġlocation": 2806,
      "det": 2807,
      "reen": 2808,
      "Ġtem": 2809,
      "Ġrelative": 2810,
      "edError": 2811,
      "().__": 2812,
      "ĠFil": 2813,
      "Ġmer": 2814,
      "Ġdefined": 2815,
      "lash": 2816,
      "using": 2817,
      "Ġnext": 2818,
      "Ġnorm": 2819,
      "Ġshow": 2820,
      "pos": 2821,
      "parts": 2822,
      "ĠStarlette": 2823,
      "Ġserialized": 2824,
      "Ġformat": 2825,
      "ponsors": 2826,
      "Ġincluding": 2827,
      "(**": 2828,
      "23": 2829,
      ">`": 2830,
      "CE": 2831,
      "Encoding": 2832,
      "Or": 2833,
      "Py": 2834,
      "ZE": 2835,
      "equ": 2836,
      "mail": 2837,
      "wsgi": 2838,
      "Ġ%": 2839,
      "Ġ\"\",": 2840,
      "esent": 2841,
      "remo": 2842,
      "Ġtra": 2843,
      "Ġcounter": 2844,
      "()]": 2845,
      "ĠTo": 2846,
      "Ġdon": 2847,
      "Ġsize": 2848,
      "loaded": 2849,
      "undle": 2850,
      "found": 2851,
      "foobar": 2852,
      "authorization": 2853,
      "ĠWSGI": 2854,
      "Ġobjects": 2855,
      "functions": 2856,
      "aceholder": 2857,
      "Ġfilename": 2858,
      "ĠLiteral": 2859,
      "Ġtimedelta": 2860,
      "Ġcontains": 2861,
      "OOK": 2862,
      "ponsor": 2863,
      ")}": 2864,
      "At": 2865,
      "Iter": 2866,
      "LT": 2867,
      "OPTIONS": 2868,
      "SK": 2869,
      "Set": 2870,
      "io": 2871,
      "mon": 2872,
      "month": 2873,
      "norm": 2874,
      "Ġom": 2875,
      "ĠClient": 2876,
      "Ġlifespan": 2877,
      "atus": 2878,
      "hether": 2879,
      "Ġfind": 2880,
      "Ġreceived": 2881,
      "Ġpos": 2882,
      "notated": 2883,
      "ĠImportError": 2884,
      "setenv": 2885,
      "ably": 2886,
      "ĠCliRunner": 2887,
      "ĠPl": 2888,
      "nown": 2889,
      "bypass": 2890,
      "loads": 2891,
      "Ġevery": 2892,
      "Requests": 2893,
      "Ġ35": 2894,
      "ĠHTTPBasic": 2895,
      "ternally": 2896,
      "168": 2897,
      "ĠRuntimeError": 2898,
      "Ġomit": 2899,
      "([": 2900,
      "202": 2901,
      "And": 2902,
      "By": 2903,
      "CA": 2904,
      "COOK": 2905,
      "IZE": 2906,
      "Settings": 2907,
      "bad": 2908,
      "clear": 2909,
      "lu": 2910,
      "pub": 2911,
      "package": 2912,
      "ss": 2913,
      "save": 2914,
      "sql": 2915,
      "warnings": 2916,
      "Ġloc": 2917,
      "Ġoutput": 2918,
      "erti": 2919,
      "Ġavo": 2920,
      "oog": 2921,
      "verify": 2922,
      "andled": 2923,
      "licit": 2924,
      "Ġgt": 2925,
      "Ġits": 2926,
      "ĠCaseInsensitiveDict": 2927,
      "ĠPR": 2928,
      "ĠOther": 2929,
      "IdConnect": 2930,
      "initions": 2931,
      "imet": 2932,
      "common": 2933,
      "blueprints": 2934,
      "ĠExtra": 2935,
      "sitory": 2936,
      "Ġremoved": 2937,
      "Ġannotations": 2938,
      "}:{": 2939,
      "ensions": 2940,
      "manent": 2941,
      "equals": 2942,
      "COOKIE": 2943,
      "ertifi": 2944,
      "(_": 2945,
      "Group": 2946,
      "KE": 2947,
      "Mixin": 2948,
      "Text": 2949,
      "bit": 2950,
      "bably": 2951,
      "called": 2952,
      "handlers": 2953,
      "handling": 2954,
      "ient": 2955,
      "rv": 2956,
      "respon": 2957,
      "surname": 2958,
      "ured": 2959,
      "we": 2960,
      "wer": 2961,
      "Ġet": 2962,
      "Ġ\"-": 2963,
      "\",',": 2964,
      "Ġcategory": 2965,
      "uture": 2966,
      "apps": 2967,
      "Ġfol": 2968,
      "Ġflat": 2969,
      "ĠTr": 2970,
      "Ġswagger": 2971,
      "commit": 2972,
      "\"]})": 2973,
      "cls": 2974,
      "ĠSub": 2975,
      "Ġgithub": 2976,
      "Ġhandlers": 2977,
      "ĠPro": 2978,
      "background": 2979,
      "Ġlast": 2980,
      "Internal": 2981,
      "Ġstill": 2982,
      "ayload": 2983,
      "portal": 2984,
      "Ġaliases": 2985,
      "Ġotherwise": 2986,
      "--------------------------------": 2987,
      "Ġupdated": 2988,
      "netrc": 2989,
      "Ġcorrespon": 2990,
      "cause": 2991,
      "Ġfinally": 2992,
      "192": 2993,
      "Ġcompatibility": 2994,
      "imetype": 2995,
      "\"'": 2996,
      "']": 2997,
      "64": 2998,
      "Ap": 2999,
      "Par": 3000,
      "TYPE": 3001,
      "ole": 3002,
      "too": 3003,
      "ward": 3004,
      "ystem": 3005,
      "}'": 3006,
      "\",),": 3007,
      "Ġinit": 3008,
      "Ġinternally": 3009,
      "Ġmedia": 3010,
      "lashes": 3011,
      "outine": 3012,
      "ackground": 3013,
      "ĠSet": 3014,
      "Exit": 3015,
      "Items": 3016,
      "Ġshown": 3017,
      "RequestForm": 3018,
      "Ġones": 3019,
      "igger": 3020,
      "Ġprobably": 3021,
      "Ġsubclass": 3022,
      "Ġunable": 3023,
      "ĠURLs": 3024,
      "Ġparsed": 3025,
      "codes": 3026,
      "ference": 3027,
      "Ġcommons": 3028,
      "String": 3029,
      "Ġstarted": 3030,
      "ĠHTMLResponse": 3031,
      "PasswordRequestForm": 3032,
      "LASK": 3033,
      "SESSION": 3034,
      "adapters": 3035,
      "ertific": 3036,
      "KEY": 3037,
      "Ġcorresponding": 3038,
      "14": 3039,
      "AT": 3040,
      "DB": 3041,
      "FAU": 3042,
      "FLASK": 3043,
      "TF": 3044,
      "\\\\": 3045,
      "cv": 3046,
      "events": 3047,
      "mis": 3048,
      "Ġoption": 3049,
      "Ġorigin": 3050,
      "apped": 3051,
      "Ġbet": 3052,
      "Ġsig": 3053,
      "idth": 3054,
      "issubclass": 3055,
      "cript": 3056,
      "Ġoauth": 3057,
      "Ġowner": 3058,
      "templates": 3059,
      "Ġnice": 3060,
      "acker": 3061,
      "asyncgen": 3062,
      "Ġlabel": 3063,
      "Ġraised": 3064,
      "DeprecationWarning": 3065,
      "DecodeError": 3066,
      "Ġadapter": 3067,
      "engine": 3068,
      "olved": 3069,
      "Ġchange": 3070,
      "Ġalways": 3071,
      "TypeVar": 3072,
      "Ġlenient": 3073,
      "AliasAnd": 3074,
      "Ġoverri": 3075,
      "**:": 3076,
      "Ġcontaining": 3077,
      "ĠUndefined": 3078,
      "5000": 3079,
      "Ġcertain": 3080,
      "~~~~~~~~": 3081,
      "Ġremove": 3082,
      "Ġroutes": 3083,
      "Ġeven": 3084,
      "front": 3085,
      "ĠClients": 3086,
      "Ġfollow": 3087,
      "FAULT": 3088,
      "AliasAndValidationAlias": 3089,
      "Con": 3090,
      "Json": 3091,
      "Link": 3092,
      "Tasks": 3093,
      "Update": 3094,
      "broken": 3095,
      "echo": 3096,
      "how": 3097,
      "mk": 3098,
      "media": 3099,
      "numeric": 3100,
      "pack": 3101,
      "ssert": 3102,
      "ensure": 3103,
      "orn": 3104,
      "Ġrequi": 3105,
      "Ġpool": 3106,
      "Ġsuch": 3107,
      "losed": 3108,
      "unwrapped": 3109,
      "ush": 3110,
      "__\",": 3111,
      "ished": 3112,
      "APIKey": 3113,
      "andard": 3114,
      "Ġbeen": 3115,
      "Ġbeing": 3116,
      "Ġbecause": 3117,
      "[\"/": 3118,
      "plumbus": 3119,
      "contextmanager": 3120,
      "Ġattributes": 3121,
      "isconnect": 3122,
      "Ġchang": 3123,
      "Ġcookiejar": 3124,
      "serialization": 3125,
      "AuthorizationCredentials": 3126,
      "cliapp": 3127,
      "[[],": 3128,
      "SSL": 3129,
      "trace": 3130,
      "helpers": 3131,
      "MAX": 3132,
      "Ġrouting": 3133,
      "Ġaffects": 3134,
      "Ġwork": 3135,
      "Ġteardown": 3136,
      "signals": 3137,
      "havi": 3138,
      "Ġavoid": 3139,
      "ackgroundTasks": 3140,
      "ssertionError": 3141,
      "03": 3142,
      "04": 3143,
      "172": 3144,
      "ND": 3145,
      "PRO": 3146,
      "Rick": 3147,
      "Tag": 3148,
      "qli": 3149,
      "}?": 3150,
      "Ġ6": 3151,
      "ĠĠĠĠĠĠĠĠĠĠ": 3152,
      "ases": 3153,
      "Ġfolder": 3154,
      "Ġreturning": 3155,
      "Ġmetadata": 3156,
      "agment": 3157,
      "Ġbehavi": 3158,
      "applications": 3159,
      "ModelField": 3160,
      "icorn": 3161,
      "ĠSwagger": 3162,
      "ĠPost": 3163,
      "ows": 3164,
      "without": 3165,
      "Ġwhile": 3166,
      "vious": 3167,
      "ĠModelField": 3168,
      "convert": 3169,
      "automatic": 3170,
      "ĠAppContext": 3171,
      "Ġimplementation": 3172,
      "cii": 3173,
      "duplicates": 3174,
      "Ġpreserved": 3175,
      "ertificate": 3176,
      "qlite": 3177,
      "11": 3178,
      "AP": 3179,
      "Async": 3180,
      "Custom": 3181,
      "Handler": 3182,
      "QL": 3183,
      "Tax": 3184,
      "blocks": 3185,
      "last": 3186,
      "site": 3187,
      "sys": 3188,
      "Ġser": 3189,
      "Ġloader": 3190,
      "Ġencoded": 3191,
      "Ġ\"_": 3192,
      "erify": 3193,
      "Ġtwo": 3194,
      "Ġtotal": 3195,
      "lect": 3196,
      "Ġcallable": 3197,
      "alice": 3198,
      "aliase": 3199,
      "except": 3200,
      "Ġreceive": 3201,
      "Ġreason": 3202,
      "Ġbre": 3203,
      "Ġbuild": 3204,
      "Ġboth": 3205,
      "ories": 3206,
      "urllib": 3207,
      "internal": 3208,
      "char": 3209,
      "Ġgreater": 3210,
      "Ġauthorization": 3211,
      "ĠTypeError": 3212,
      "Ġchunk": 3213,
      "\"}]}": 3214,
      "Ġhasattr": 3215,
      "Environ": 3216,
      "names": 3217,
      "regex": 3218,
      "Ġregex": 3219,
      "Ġparts": 3220,
      "Ġomitted": 3221,
      "lude": 3222,
      "bitrary": 3223,
      "aliased": 3224,
      "\"/": 3225,
      "*\\": 3226,
      "CR": 3227,
      "LS": 3228,
      "Node": 3229,
      "OK": 3230,
      "Timeout": 3231,
      "UploadFile": 3232,
      "WebSocket": 3233,
      "co": 3234,
      "flag": 3235,
      "ike": 3236,
      "monkeypatch": 3237,
      "messages": 3238,
      "safe": 3239,
      "task": 3240,
      "wt": 3241,
      "xx": 3242,
      "ascii": 3243,
      "ree": 3244,
      "relative": 3245,
      "Ġclean": 3246,
      "Ġreplace": 3247,
      "ople": 3248,
      "Ġboolean": 3249,
      "Ġbranch": 3250,
      "Ġwhether": 3251,
      "Ġtesting": 3252,
      "Ġmock": 3253,
      "comple": 3254,
      "Ġthrough": 3255,
      "abs": 3256,
      "ĠCh": 3257,
      "ĠCurrent": 3258,
      "ĠOne": 3259,
      "ĠOptional": 3260,
      "ĠRef": 3261,
      "Ġlt": 3262,
      "Ġless": 3263,
      "fixer": 3264,
      "Ġpaths": 3265,
      "img": 3266,
      "Ġnecess": 3267,
      "perts": 3268,
      "Ġlogger": 3269,
      "resp": 3270,
      "Ġpartic": 3271,
      "Username": 3272,
      "websockets": 3273,
      "umentation": 3274,
      "Ġconsum": 3275,
      "Ġallowed": 3276,
      "Ġcommon": 3277,
      "Ġspecific": 3278,
      "LID": 3279,
      "Ġhttpx": 3280,
      "Ġbackground": 3281,
      "ModelRequiredList": 3282,
      "ModelOptionalList": 3283,
      "Plumbus": 3284,
      "installed": 3285,
      "Ġsorted": 3286,
      "VALID": 3287,
      "!\",": 3288,
      "({": 3289,
      "56": 3290,
      "99": 3291,
      "Baz": 3292,
      "NG": 3293,
      "PreparedRequest": 3294,
      "TI": 3295,
      "blue": 3296,
      "category": 3297,
      "find": 3298,
      "ms": 3299,
      "mount": 3300,
      "next": 3301,
      "ough": 3302,
      "ren": 3303,
      "Ġ7": 3304,
      "Ġfun": 3305,
      "Ġfail": 3306,
      "uring": 3307,
      "ribut": 3308,
      "Ġinput": 3309,
      "\"}}": 3310,
      "Ġdiscriminator": 3311,
      "Ġme": 3312,
      "agent": 3313,
      "setattr": 3314,
      "should": 3315,
      "authentic": 3316,
      "envvar": 3317,
      "Ġgenerator": 3318,
      "Ġurlparse": 3319,
      "Deprecated": 3320,
      "hell": 3321,
      "(\"/\").": 3322,
      "hostname": 3323,
      "ĠHero": 3324,
      "ĠUserIn": 3325,
      "Ġprepared": 3326,
      "Ġ>=": 3327,
      "registr": 3328,
      "Ġexpires": 3329,
      "offset": 3330,
      "Ġcharacters": 3331,
      "Ġthreading": 3332,
      "Ġetc": 3333,
      "Ġparticular": 3334,
      "EX": 3335,
      "Sc": 3336,
      "Seriali": 3337,
      "Wr": 3338,
      "catch": 3339,
      "future": 3340,
      "sqlite": 3341,
      "uf": 3342,
      "zen": 3343,
      "Ġloaded": 3344,
      "Ġ\".": 3345,
      "Ġ\"\")": 3346,
      "secure": 3347,
      "stack": 3348,
      "Ġtrue": 3349,
      "amed": 3350,
      "Ġcertificate": 3351,
      "exact": 3352,
      "Ġrecor": 3353,
      "Ġthem": 3354,
      "009": 3355,
      "oduct": 3356,
      "Ġma": 3357,
      "verter": 3358,
      "iss": 3359,
      "ached": 3360,
      "ĠData": 3361,
      "ĠDoe": 3362,
      "icon": 3363,
      "rozen": 3364,
      "ĠUpdate": 3365,
      "nored": 3366,
      "Inter": 3367,
      "Ġsecret": 3368,
      "ĠHTTPAuthorizationCredentials": 3369,
      "Ġ26": 3370,
      "binary": 3371,
      "permalinks": 3372,
      "Ġunder": 3373,
      "Ġhashed": 3374,
      "Ġinstalled": 3375,
      "ĠDefaults": 3376,
      "Ġ{}),": 3377,
      "somequery": 3378,
      "ĠCookieJar": 3379,
      "DEFAULT": 3380,
      "results": 3381,
      "Stack": 3382,
      "Parameter": 3383,
      "uilder": 3384,
      "Ġinterface": 3385,
      "Ġvariables": 3386,
      "computed": 3387,
      "scores": 3388,
      "Inc": 3389,
      "Manager": 3390,
      "SL": 3391,
      "Some": 3392,
      "Template": 3393,
      "UE": 3394,
      "dat": 3395,
      "goog": 3396,
      "hin": 3397,
      "la": 3398,
      "nodes": 3399,
      "ry": 3400,
      "ryp": 3401,
      "vable": 3402,
      "Ġextra": 3403,
      "Ġlines": 3404,
      "Ġempty": 3405,
      "inner": 3406,
      "Ġ{})": 3407,
      "Ġtim": 3408,
      "Ġtuples": 3409,
      "aml": 3410,
      "ctools": 3411,
      "Ġpick": 3412,
      "(\".": 3413,
      "Ġtheir": 3414,
      "Ġag": 3415,
      "rompt": 3416,
      "Ġwait": 3417,
      "Ġmessages": 3418,
      "ither": 3419,
      "updated": 3420,
      "\"].": 3421,
      "ĠSSL": 3422,
      "ĠClass": 3423,
      "ends": 3424,
      "aximum": 3425,
      "Ġgenerating": 3426,
      "tokenUrl": 3427,
      "DecoratedCallable": 3428,
      "Ġattr": 3429,
      "Ġauthors": 3430,
      "Ġkeyword": 3431,
      "lets": 3432,
      "funcs": 3433,
      "Ġhash": 3434,
      "={})": 3435,
      "hashed": 3436,
      "avicon": 3437,
      "Ġaccount": 3438,
      "compute": 3439,
      "Ġbuilt": 3440,
      "Ġmanually": 3441,
      "Generator": 3442,
      "Ġbreak": 3443,
      "hinx": 3444,
      "13": 3445,
      "18": 3446,
      "Like": 3447,
      "[-": 3448,
      "bo": 3449,
      "cap": 3450,
      "css": 3451,
      "dden": 3452,
      "hing": 3453,
      "ler": 3454,
      "mixed": 3455,
      "source": 3456,
      "Ġhelp": 3457,
      "ĠĠĠĠĠĠĠĠĠĠĠĠĠ": 3458,
      "Ġ\"--": 3459,
      "decimal": 3460,
      "Ġtakes": 3461,
      "ames": 3462,
      "Ġio": 3463,
      "alizer": 3464,
      "strict": 3465,
      "Ġbenchmark": 3466,
      "Ġinternal": 3467,
      "schemes": 3468,
      "Ġduring": 3469,
      "=\"{": 3470,
      "ica": 3471,
      "ĠCallback": 3472,
      "Ġhook": 3473,
      "BaseRoute": 3474,
      "work": 3475,
      "ebhooks": 3476,
      "logger": 3477,
      "ĠBut": 3478,
      "ĠMapping": 3479,
      "ĠUsers": 3480,
      "Ġconfigs": 3481,
      "localdomain": 3482,
      "Ġmark": 3483,
      "Ġadditional": 3484,
      "Ġchardet": 3485,
      "Params": 3486,
      "ĠAdditional": 3487,
      "native": 3488,
      "Ġvariable": 3489,
      "underscores": 3490,
      "ĠVerify": 3491,
      "Ġdirty": 3492,
      "BUG": 3493,
      "Ġtemplates": 3494,
      "ExitStack": 3495,
      "Ġbehavior": 3496,
      "CRET": 3497,
      "ributors": 3498,
      "Ġparticularly": 3499,
      "/)": 3500,
      "39": 3501,
      "8000": 3502,
      "AR": 3503,
      "Fil": 3504,
      "[::": 3505,
      "]],": 3506,
      "ccept": 3507,
      "mer": 3508,
      "width": 3509,
      "Ġ\\": 3510,
      "Ġu": 3511,
      "ative": 3512,
      "ense": 3513,
      "Ġtarget": 3514,
      "leep": 3515,
      "alm": 3516,
      "Ġrange": 3517,
      "eta": 3518,
      "Ġfp": 3519,
      "people": 3520,
      "Ġrepo": 3521,
      "Ġremain": 3522,
      "007": 3523,
      "extensions": 3524,
      "ushed": 3525,
      "dataclass": 3526,
      "tograph": 3527,
      "Ġsen": 3528,
      "ĠBearer": 3529,
      "Ġonce": 3530,
      "402": 3531,
      "images": 3532,
      "Ġneeded": 3533,
      "vide": 3534,
      "Ġprevious": 3535,
      "Ġchild": 3536,
      "permanent": 3537,
      "REF": 3538,
      "TEM": 3539,
      "scription": 3540,
      "Ġprepare": 3541,
      "DEBUG": 3542,
      "commenters": 3543,
      "Ġextracted": 3544,
      "ĠInclude": 3545,
      "Ġdispatch": 3546,
      "ĠAsyncGenerator": 3547,
      "ĠAsyncExitStack": 3548,
      "CKING": 3549,
      "Ġdeveloper": 3550,
      "CHECKING": 3551,
      "Iterator": 3552,
      "2021": 3553,
      "Api": 3554,
      "Ġnecessary": 3555,
      "rozenset": 3556,
      "ryptograph": 3557,
      "\">": 3558,
      "((": 3559,
      ")])": 3560,
      ".*": 3561,
      "CT": 3562,
      "Implement": 3563,
      "XX": 3564,
      "[:": 3565,
      "ear": 3566,
      "favicon": 3567,
      "greater": 3568,
      "mimetype": 3569,
      "ood": 3570,
      "oint": 3571,
      "ps": 3572,
      "pages": 3573,
      "ton": 3574,
      "tach": 3575,
      "vid": 3576,
      "wes": 3577,
      "yield": 3578,
      "zone": 3579,
      "Ġ9": 3580,
      "only": 3581,
      "ended": 3582,
      "aring": 3583,
      "Ġcap": 3584,
      "Ġfr": 3585,
      "Ġfoot": 3586,
      "ortal": 3587,
      "lashed": 3588,
      "essica": 3589,
      "ĠAll": 3590,
      "__}": 3591,
      "Ġstruct": 3592,
      "idn": 3593,
      "Ġown": 3594,
      "ummy": 3595,
      "tempt": 3596,
      "setting": 3597,
      "termin": 3598,
      "ĠSend": 3599,
      "Ġgr": 3600,
      "ĠCode": 3601,
      "ĠPreparedRequest": 3602,
      "://{": 3603,
      "Ġdatabase": 3604,
      "tracker": 3605,
      "Instance": 3606,
      "Invoice": 3607,
      "parsed": 3608,
      "Ġresolve": 3609,
      "sive": 3610,
      "Ġseparate": 3611,
      "Ġ123": 3612,
      "Ġ'{": 3613,
      "ĠHTTPAdapter": 3614,
      "olute": 3615,
      "Ġsessions": 3616,
      "simplefilter": 3617,
      "Ġargument": 3618,
      "Ġdisabled": 3619,
      "exists": 3620,
      "existent": 3621,
      "ĠJinja": 3622,
      "Ġevts": 3623,
      "finished": 3624,
      "compile": 3625,
      "Discussions": 3626,
      "Ġnormally": 3627,
      "Ġconsume": 3628,
      "Interface": 3629,
      "[::-": 3630,
      "ryptography": 3631,
      "wesome": 3632,
      "32": 3633,
      ">\"": 3634,
      "AC": 3635,
      "Accept": 3636,
      "Host": 3637,
      "Method": 3638,
      "Option": 3639,
      "ba": 3640,
      "discriminator": 3641,
      "got": 3642,
      "john": 3643,
      "ring": 3644,
      "uess": 3645,
      "ving": 3646,
      "wd": 3647,
      "Ġoth": 3648,
      "dev": 3649,
      "enum": 3650,
      "reload": 3651,
      "erce": 3652,
      "Ġtri": 3653,
      "eters": 3654,
      "ane": 3655,
      "exec": 3656,
      "Ġredoc": 3657,
      "Ġpoint": 3658,
      "ĠToken": 3659,
      "ĠTOD": 3660,
      "ĠTLS": 3661,
      "Ġsocket": 3662,
      "Ġssl": 3663,
      "Ġmakes": 3664,
      "Ġmorsel": 3665,
      "Ġclients": 3666,
      "ĠRoot": 3667,
      "ookup": 3668,
      "role": 3669,
      "short": 3670,
      "refer": 3671,
      "Ġhandled": 3672,
      "authors": 3673,
      "ĠBackgroundTasks": 3674,
      "Ġproper": 3675,
      "Ġ202": 3676,
      "created": 3677,
      "ĠSecret": 3678,
      "commons": 3679,
      "AuthorizationCode": 3680,
      "ĠAPIRoute": 3681,
      "Ġcalls": 3682,
      "Ġnamed": 3683,
      "ĠParameters": 3684,
      "Ġknown": 3685,
      "answer": 3686,
      "Ġrepresent": 3687,
      "WithConfig": 3688,
      "Returns": 3689,
      "DependencyError": 3690,
      "Ġsimp": 3691,
      "Ġarbitrary": 3692,
      "Ġtrace": 3693,
      "normalizer": 3694,
      "criptInfo": 3695,
      "Ġagain": 3696,
      "ImplementedError": 3697,
      "Ġothers": 3698,
      "ĠTODO": 3699,
      "AL": 3700,
      "Builder": 3701,
      "CO": 3702,
      "Could": 3703,
      "DI": 3704,
      "HA": 3705,
      "ITH": 3706,
      "Portal": 3707,
      "Tags": 3708,
      "UT": 3709,
      "bigger": 3710,
      "fs": 3711,
      "jessica": 3712,
      "og": 3713,
      "something": 3714,
      "sleep": 3715,
      "}\\": 3716,
      "}]": 3717,
      "Ġuuid": 3718,
      "Ġerr": 3719,
      "once": 3720,
      "repe": 3721,
      "alar": 3722,
      "Ġconn": 3723,
      "ement": 3724,
      "Ġrepl": 3725,
      "Ġpop": 3726,
      "screen": 3727,
      "scalar": 3728,
      "ather": 3729,
      "Ġinvo": 3730,
      "astack": 3731,
      "jsonify": 3732,
      "Ġsource": 3733,
      "Ġwell": 3734,
      "notification": 3735,
      "license": 3736,
      "Ġthen": 3737,
      "about": 3738,
      "puted": 3739,
      "rol": 3740,
      "ĠReference": 3741,
      "Ġvs": 3742,
      "Ġlambda": 3743,
      "ĠWerkzeug": 3744,
      "ĠBar": 3745,
      "ĠBasic": 3746,
      "sessions": 3747,
      "cookiejar": 3748,
      "button": 3749,
      "started": 3750,
      "ĠFieldInfo": 3751,
      "Ġignored": 3752,
      "ĠInternal": 3753,
      "ĠStatus": 3754,
      "Ġmatching": 3755,
      "onnectionError": 3756,
      "okenbar": 3757,
      "Ġdecorators": 3758,
      "RuntimeError": 3759,
      "allowed": 3760,
      "Placeholder": 3761,
      "cessed": 3762,
      "disabled": 3763,
      "expires": 3764,
      "UID": 3765,
      "deredDict": 3766,
      "ĠFilter": 3767,
      "Bytes": 3768,
      "coerce": 3769,
      "Ġfunctools": 3770,
      "amedSession": 3771,
      "ĠClassInstance": 3772,
      "Ġfootokenbar": 3773,
      "':": 3774,
      "501": 3775,
      "Disconnect": 3776,
      "Found": 3777,
      "Open": 3778,
      "OST": 3779,
      "PLA": 3780,
      "aa": 3781,
      "cid": 3782,
      "cached": 3783,
      "cba": 3784,
      "dcba": 3785,
      "fset": 3786,
      "gor": 3787,
      "hind": 3788,
      "ire": 3789,
      "mode": 3790,
      "oformat": 3791,
      "ruct": 3792,
      "sponsors": 3793,
      "yml": 3794,
      "Ġlib": 3795,
      "Ġhello": 3796,
      "Ġembed": 3797,
      "review": 3798,
      "reason": 3799,
      "orrect": 3800,
      "Ġrather": 3801,
      "Ġcodes": 3802,
      "Ġimage": 3803,
      "definitions": 3804,
      "experts": 3805,
      "Ġref": 3806,
      "Ġpur": 3807,
      "ingResponse": 3808,
      "Ġbel": 3809,
      "Ġindirect": 3810,
      "astruct": 3811,
      "ĠFound": 3812,
      "Ġ[(": 3813,
      "elery": 3814,
      "Ġsomething": 3815,
      "Ġwarning": 3816,
      "Ġmiddleware": 3817,
      "ĠAt": 3818,
      "pendant": 3819,
      "ĠDocs": 3820,
      "keep": 3821,
      "HTTPException": 3822,
      "Ġexec": 3823,
      "ĠSQL": 3824,
      "Ġgoes": 3825,
      "ĠUTF": 3826,
      "now": 3827,
      "Ġdet": 3828,
      "Ġvi": 3829,
      "Ġ``'": 3830,
      "ĠBad": 3831,
      "Ġshutil": 3832,
      "ign": 3833,
      "ignore": 3834,
      "servers": 3835,
      "wrappers": 3836,
      "ĠRequestValidationError": 3837,
      "Ġunit": 3838,
      "Ġunchanged": 3839,
      "chemy": 3840,
      "serializer": 3841,
      "REQ": 3842,
      "prepared": 3843,
      "spam": 3844,
      "Ġredirects": 3845,
      "signal": 3846,
      "AppException": 3847,
      "abcd": 3848,
      "ategories": 3849,
      "Ġactual": 3850,
      "ĠGenerator": 3851,
      "Ġbased": 3852,
      "malink": 3853,
      "Ġ307": 3854,
      "Ġcommands": 3855,
      "Ġnetloc": 3856,
      "ĠStreamingResponse": 3857,
      "Ġcorrectly": 3858,
      "Pydantic": 3859,
      "frontend": 3860,
      "packages": 3861,
      "Ġrequires": 3862,
      "Ġcleanup": 3863,
      "issues": 3864,
      "datastruct": 3865,
      "Ġ2020": 3866,
      "AuthorizationCodeBearer": 3867,
      "gorith": 3868,
      "datastructures": 3869,
      "'\"": 3870,
      "(?": 3871,
      "201": 3872,
      "78": 3873,
      "=_": 3874,
      "AGE": 3875,
      "Bad": 3876,
      "DO": 3877,
      "FOO": 3878,
      "Gen": 3879,
      "Post": 3880,
      "Typ": 3881,
      "UTH": 3882,
      "bg": 3883,
      "bench": 3884,
      "closed": 3885,
      "equal": 3886,
      "ffo": 3887,
      "gger": 3888,
      "pull": 3889,
      "since": 3890,
      "true": 3891,
      "tured": 3892,
      "Ġenv": 3893,
      "Ġhead": 3894,
      "search": 3895,
      "rel": 3896,
      "registered": 3897,
      "release": 3898,
      "allets": 3899,
      "amp": 3900,
      "Ġfailed": 3901,
      "quot": 3902,
      "Ġbaz": 3903,
      "Ġage": 3904,
      "Ġdone": 3905,
      "ely": 3906,
      "loy": 3907,
      "Ġmissing": 3908,
      "unks": 3909,
      "usive": 3910,
      "Ġthings": 3911,
      "inter": 3912,
      "intain": 3913,
      "HTTPAdapter": 3914,
      "clusive": 3915,
      "show": 3916,
      "ĠCounter": 3917,
      "asynchronous": 3918,
      "ublic": 3919,
      "ĠOS": 3920,
      "ĠOr": 3921,
      "cursive": 3922,
      "}})": 3923,
      "ĠReg": 3924,
      "Ġdecode": 3925,
      "ĠDependenc": 3926,
      "BaseModelWithConfig": 3927,
      "validator": 3928,
      "ĠMaximum": 3929,
      "tearing": 3930,
      "ĠHTTPBearer": 3931,
      "Ġ20": 3932,
      "synchronous": 3933,
      "Ġfilter": 3934,
      "ĠGun": 3935,
      "environment": 3936,
      "Ensure": 3937,
      "Ġ403": 3938,
      "ĠReturns": 3939,
      "Ġexceptions": 3940,
      "Ġspecified": 3941,
      "namespace": 3942,
      "1234": 3943,
      "ĠEnviron": 3944,
      "ORIZE": 3945,
      "NAUTH": 3946,
      "socks": 3947,
      "repository": 3948,
      "Ġnetrc": 3949,
      "ĠWithout": 3950,
      "ĠDictionary": 3951,
      "LOAD": 3952,
      "Security": 3953,
      "position": 3954,
      "months": 3955,
      "ĠPlaywright": 3956,
      "ĠProxy": 3957,
      "Ġchanged": 3958,
      "APP": 3959,
      "Environment": 3960,
      "registration": 3961,
      "Incorrect": 3962,
      "(\"./": 3963,
      "Ġremains": 3964,
      "vides": 3965,
      "screenshot": 3966,
      "ffold": 3967,
      "ĠDependencies": 3968,
      "ORIZED": 3969,
      "NAUTHORIZED": 3970,
      ".\\": 3971,
      "502": 3972,
      "60": 3973,
      "='": 3974,
      "Docs": 3975,
      "Router": 3976,
      "]]:": 3977,
      "ban": 3978,
      "flashed": 3979,
      "imp": 3980,
      "ning": 3981,
      "ored": 3982,
      "payload": 3983,
      "push": 3984,
      "prompt": 3985,
      "ttp": 3986,
      "}),": 3987,
      "Ġlower": 3988,
      "onger": 3989,
      "del": 3990,
      "inclu": 3991,
      "always": 3992,
      "apper": 3993,
      "Ġrel": 3994,
      "Ġpri": 3995,
      "()`)": 3996,
      "Ġinside": 3997,
      "testserver": 3998,
      "Ġsql": 3999,
      "Ġsponsor": 4000,
      "ads": 4001,
      "ilent": 4002,
      "atever": 4003,
      "ising": 4004,
      "atable": 4005,
      "urlencoded": 4006,
      "chunk": 4007,
      "clare": 4008,
      "ĠCreate": 4009,
      "ĠPassword": 4010,
      "importance": 4011,
      "used": 4012,
      "}},": 4013,
      "ainText": 4014,
      "Ġdataclasses": 4015,
      "Ġdel": 4016,
      "ĠDependant": 4017,
      "Ġepub": 4018,
      "Ġsetting": 4019,
      "ĠHTTPDigest": 4020,
      "ators": 4021,
      "Ġmodules": 4022,
      "TypeError": 4023,
      "Ġensure": 4024,
      "Ġenabled": 4025,
      "127": 4026,
      "processors": 4027,
      "ĠDefaultPlaceholder": 4028,
      "There": 4029,
      "ServerError": 4030,
      "directory": 4031,
      "ĠSecuritySc": 4032,
      "encoders": 4033,
      "ĠIDs": 4034,
      "commands": 4035,
      "Ġplace": 4036,
      "nonce": 4037,
      "signature": 4038,
      "ORS": 4039,
      "State": 4040,
      "Provider": 4041,
      "503": 4042,
      "Ġprocessing": 4043,
      "decorators": 4044,
      "ĠMarkdown": 4045,
      "ĠNotImplementedError": 4046,
      "ween": 4047,
      "blueval": 4048,
      "uffix": 4049,
      "Ġdetect": 4050,
      "includes": 4051,
      "ainTextResponse": 4052,
      "ĠSecurityScopes": 4053,
      "Ar": 4054,
      "Bool": 4055,
      "Check": 4056,
      "DK": 4057,
      "Fir": 4058,
      "MIN": 4059,
      "NT": 4060,
      "SET": 4061,
      "UNAUTHORIZED": 4062,
      "_{": 4063,
      "`:": 4064,
      "ais": 4065,
      "fail": 4066,
      "gzip": 4067,
      "imple": 4068,
      "more": 4069,
      "ru": 4070,
      "san": 4071,
      "soc": 4072,
      "them": 4073,
      "two": 4074,
      "yn": 4075,
      "}\"}": 4076,
      "Ġunicode": 4077,
      "atar": 4078,
      "rewind": 4079,
      "inimum": 4080,
      "erson": 4081,
      "eroes": 4082,
      "erved": 4083,
      "Ġca": 4084,
      "Ġconnect": 4085,
      "annot": 4086,
      "Ġim": 4087,
      "expect": 4088,
      "Ġreview": 4089,
      "edge": 4090,
      "(\"_": 4091,
      "ulais": 4092,
      "Ġdot": 4093,
      "Ġdate": 4094,
      "Ġsave": 4095,
      "Ġsite": 4096,
      "Ġwon": 4097,
      "Ġtesttoken": 4098,
      "Ġmanager": 4099,
      "ĠAssertionError": 4100,
      "Ġ({": 4101,
      "ĠSDK": 4102,
      "database": 4103,
      "Ref": 4104,
      "noop": 4105,
      "Ġdelete": 4106,
      "ĠDocumentation": 4107,
      "Ġresource": 4108,
      "ResponseMessage": 4109,
      "ĠWe": 4110,
      "sible": 4111,
      "forms": 4112,
      "Ġstandard": 4113,
      "Ġwhatever": 4114,
      "Ġcontextlib": 4115,
      "langs": 4116,
      "resource": 4117,
      "uploadfiles": 4118,
      "codings": 4119,
      "Enum": 4120,
      "Ġlangs": 4121,
      "PathLike": 4122,
      "ĠStatic": 4123,
      "Ġcustomize": 4124,
      "behind": 4125,
      "certs": 4126,
      "ĠCustomize": 4127,
      "Comment": 4128,
      "invoices": 4129,
      "ights": 4130,
      "SchemaOr": 4131,
      "ĠJson": 4132,
      "ĠValidations": 4133,
      "(*,": 4134,
      "sumed": 4135,
      "Ġincludes": 4136,
      "mismatch": 4137,
      "Ġbetween": 4138,
      "Ġmean": 4139,
      "Serializer": 4140,
      "UEST": 4141,
      "google": 4142,
      "ĠCallbacks": 4143,
      "Ġmarkdown": 4144,
      "ApiError": 4145,
      "Ġstructure": 4146,
      "Ġsimpler": 4147,
      "Ġinvoke": 4148,
      "Ġunittest": 4149,
      "REQUEST": 4150,
      "clusiveM": 4151,
      "ĠOSError": 4152,
      "Firulais": 4153,
      "atarUrl": 4154,
      "ĠSDKs": 4155,
      "SchemaOrBool": 4156,
      "22": 4157,
      "24": 4158,
      ":\\": 4159,
      "Awesome": 4160,
      "My": 4161,
      "PT": 4162,
      "Title": 4163,
      "benchmark": 4164,
      "lambda": 4165,
      "mt": 4166,
      "numbers": 4167,
      "ove": 4168,
      "rop": 4169,
      "total": 4170,
      "target": 4171,
      "vary": 4172,
      "ðŁ": 4173,
      "Ġdepends": 4174,
      "Ġ\"{": 4175,
      "see": 4176,
      "second": 4177,
      "leport": 4178,
      "ards": 4179,
      "artial": 4180,
      "alchemy": 4181,
      "Ġrest": 4182,
      "utable": 4183,
      "Ġfrozenset": 4184,
      "Ġpushed": 4185,
      "opment": 4186,
      "rick": 4187,
      "Ġind": 4188,
      "Ġsurname": 4189,
      "Ġsolved": 4190,
      "Ġsilent": 4191,
      "Ġmight": 4192,
      "Ġmuch": 4193,
      "ĠAl": 4194,
      "__\":": 4195,
      "isoformat": 4196,
      "ĠRedirect": 4197,
      "Ġ#{": 4198,
      "HTTPBasic": 4199,
      "ĠSeriali": 4200,
      "ĠSimple": 4201,
      "shared": 4202,
      "ĠOK": 4203,
      "thing": 4204,
      "assign": 4205,
      "Register": 4206,
      "Ġanother": 4207,
      "Ġlater": 4208,
      "Ġlonger": 4209,
      "sio": 4210,
      "overload": 4211,
      "ĠMock": 4212,
      "Dead": 4213,
      "Ġ302": 4214,
      "wrong": 4215,
      "Ġwhat": 4216,
      "project": 4217,
      "AnyStr": 4218,
      "Ġcomp": 4219,
      "ternative": 4220,
      "minLength": 4221,
      "force": 4222,
      "ĠFlaskClient": 4223,
      "partition": 4224,
      "latform": 4225,
      "ĠConfigDict": 4226,
      "conds": 4227,
      "TES": 4228,
      "Ġspecify": 4229,
      "Ġspecification": 4230,
      "uildError": 4231,
      "ĠForbidden": 4232,
      "Ġfinali": 4233,
      "Ġwrapper": 4234,
      "8080": 4235,
      "threadpool": 4236,
      "anchor": 4237,
      "Ġconverting": 4238,
      "Output": 4239,
      "HEADER": 4240,
      "warns": 4241,
      "ĠContent": 4242,
      "Ġmerged": 4243,
      "Ġcounterpart": 4244,
      "Setup": 4245,
      "ĠTransl": 4246,
      "Ġlibrary": 4247,
      "gorithm": 4248,
      "Types": 4249,
      "assignment": 4250,
      "88": 4251,
      ">`.": 4252,
      "Class": 4253,
      "Ed": 4254,
      "FILE": 4255,
      "IT": 4256,
      "Image": 4257,
      "Mort": 4258,
      "Mapping": 4259,
      "Mark": 4260,
      "NO": 4261,
      "Override": 4262,
      "Res": 4263,
      "SH": 4264,
      "Tr": 4265,
      "bases": 4266,
      "jpe": 4267,
      "meta": 4268,
      "pick": 4269,
      "pallets": 4270,
      "sort": 4271,
      "tuples": 4272,
      "webhooks": 4273,
      "yle": 4274,
      "ĠX": 4275,
      "Ġent": 4276,
      "Ġoc": 4277,
      "Ġ()": 4278,
      "Ġval": 4279,
      "ĠĠĠĠĠĠĠĠĠĠĠĠ": 4280,
      "ond": 4281,
      "insensitive": 4282,
      "starlette": 4283,
      "Ġtop": 4284,
      "lement": 4285,
      "utes": 4286,
      "exclusiveM": 4287,
      "emory": 4288,
      "Ġrefer": 4289,
      "Ġpet": 4290,
      "opag": 4291,
      "Ġinvoice": 4292,
      "testapp": 4293,
      "Ġsp": 4294,
      "Ġsim": 4295,
      "odu": 4296,
      "Ġmost": 4297,
      "tim": 4298,
      "APIRouter": 4299,
      "Ġisn": 4300,
      "Ġiss": 4301,
      "pend": 4302,
      "ĠDiscussion": 4303,
      "upper": 4304,
      "setitem": 4305,
      "\"]),": 4306,
      "Ġ(_": 4307,
      "Ġexpo": 4308,
      "ĠSE": 4309,
      "ĠScriptInfo": 4310,
      "LETE": 4311,
      "Ġguess": 4312,
      "though": 4313,
      "usted": 4314,
      "Ġannotated": 4315,
      "Extra": 4316,
      "FastAPIDeprecationWarning": 4317,
      "Ġlook": 4318,
      "Ġraising": 4319,
      "Ġ``\"": 4320,
      "Ġyaml": 4321,
      "Ġsetup": 4322,
      "andles": 4323,
      "ifespan": 4324,
      "ndpoint": 4325,
      "Ġ201": 4326,
      "Ġwhole": 4327,
      "need": 4328,
      "ĠModelWith": 4329,
      "address": 4330,
      "Ġcannot": 4331,
      "forward": 4332,
      "Ġ[]).": 4333,
      "resh": 4334,
      "Ġcookielib": 4335,
      "Ġdocstring": 4336,
      "Ġaddress": 4337,
      "Ġauthenticate": 4338,
      "Ġexcluded": 4339,
      "counts": 4340,
      "ĠSessionMixin": 4341,
      "Ġleast": 4342,
      "Ġpermalinks": 4343,
      "Common": 4344,
      "ighters": 4345,
      "PATH": 4346,
      "Ġexplicit": 4347,
      "ReturnValue": 4348,
      "fragment": 4349,
      "finally": 4350,
      "Cho": 4351,
      "000000": 4352,
      "Ġdevelopment": 4353,
      "removable": 4354,
      "Attribute": 4355,
      "ĠHTTPBasicCredentials": 4356,
      "authenticated": 4357,
      "ĠUserInDB": 4358,
      "Ġrecorded": 4359,
      "Ġtimes": 4360,
      "Files": 4361,
      "Ġsense": 4362,
      "Ġviol": 4363,
      "banner": 4364,
      "yntax": 4365,
      "ĠSerialization": 4366,
      "ĠTranslated": 4367,
      "Morty": 4368,
      "jpeg": 4369,
      "Ġoccur": 4370,
      "'re": 4371,
      "'``": 4372,
      ")),": 4373,
      "15": 4374,
      "46": 4375,
      "456": 4376,
      "95": 4377,
      "=(": 4378,
      "=(\"": 4379,
      "ATE": 4380,
      "CH": 4381,
      "CI": 4382,
      "Div": 4383,
      "Sup": 4384,
      "Te": 4385,
      "UP": 4386,
      "Zero": 4387,
      "_:": 4388,
      "cy": 4389,
      "core": 4390,
      "dt": 4391,
      "dist": 4392,
      "fli": 4393,
      "flows": 4394,
      "gun": 4395,
      "jor": 4396,
      "lstrip": 4397,
      "morsel": 4398,
      "{{": 4399,
      "Ġjinja": 4400,
      "Ġ\"<": 4401,
      "Ġ\"\\": 4402,
      "Ġ\"^": 4403,
      "ese": 4404,
      "attribute": 4405,
      "although": 4406,
      "Ġpayload": 4407,
      "Ġimported": 4408,
      "Ġws": 4409,
      "ĠASGI": 4410,
      "ilar": 4411,
      "Ġ).": 4412,
      "isionError": 4413,
      "andom": 4414,
      "preser": 4415,
      "Ġapply": 4416,
      "ĠIP": 4417,
      "uman": 4418,
      "ĠDB": 4419,
      "ract": 4420,
      "sets": 4421,
      "Ġnull": 4422,
      "Ġ[\"--": 4423,
      "Ġgroup": 4424,
      "ĠCLI": 4425,
      "ĠConnectionError": 4426,
      "Ġhidden": 4427,
      "ĠPOST": 4428,
      "endswith": 4429,
      "preprocessor": 4430,
      "ĠDeclare": 4431,
      "Ġdefaultdict": 4432,
      "Ġraises": 4433,
      "ĠWr": 4434,
      "Ġsepar": 4435,
      "Ġselect": 4436,
      "/\").": 4437,
      "igh": 4438,
      "Ġprovides": 4439,
      "Ġmodify": 4440,
      "})\"": 4441,
      "ĠHandle": 4442,
      "Ġunion": 4443,
      "Ġpartial": 4444,
      "waitable": 4445,
      "Ġservers": 4446,
      "dirname": 4447,
      "indows": 4448,
      "SessionInterface": 4449,
      "ĠOAuthF": 4450,
      "ĠAliasPath": 4451,
      "ĠAliasCho": 4452,
      "ĠFormData": 4453,
      "Ġplaceholder": 4454,
      "Headers": 4455,
      "nonable": 4456,
      "LICA": 4457,
      "Ġloading": 4458,
      "Ġnamespace": 4459,
      "ĠParameter": 4460,
      "Computed": 4461,
      "505": 4462,
      "existing": 4463,
      "aborter": 4464,
      "Ġworks": 4465,
      "ĠCommon": 4466,
      "ĠStringIO": 4467,
      "ĠNoAppException": 4468,
      "Subclass": 4469,
      "Loader": 4470,
      "connections": 4471,
      "Ġcharacter": 4472,
      "ĠKeyError": 4473,
      "ĠFiles": 4474,
      "Ġmerge": 4475,
      "remove": 4476,
      "Ġpossible": 4477,
      "ĠSecretStr": 4478,
      "ĠFiltering": 4479,
      "BytesIO": 4480,
      "Ġbelow": 4481,
      "sansio": 4482,
      "Ġviolation": 4483,
      "DivisionError": 4484,
      "ZeroDivisionError": 4485,
      "ĠAliasChoices": 4486,
      "LICATION": 4487,
      "77": 4488,
      "?)": 4489,
      "CliRunner": 4490,
      "Cannot": 4491,
      "Doc": 4492,
      "Element": 4493,
      "Pre": 4494,
      "PREF": 4495,
      "Public": 4496,
      "SCHE": 4497,
      "Sends": 4498,
      "TO": 4499,
      "TR": 4500,
      "UST": 4501,
      "best": 4502,
      "bound": 4503,
      "bundle": 4504,
      "do": 4505,
      "gent": 4506,
      "hi": 4507,
      "hoc": 4508,
      "neth": 4509,
      "rstrip": 4510,
      "sage": 4511,
      "top": 4512,
      "Ã¶": 4513,
      "Ġ$": 4514,
      "ĠValidationError": 4515,
      "Ġzip": 4516,
      "ĠZeroDivisionError": 4517,
      "attributes": 4518,
      "rev": 4519,
      "itz": 4520,
      "ited": 4521,
      "estamp": 4522,
      "aps": 4523,
      "Ġcatch": 4524,
      "Ġcryptography": 4525,
      "utc": 4526,
      "appname": 4527,
      "Ġassoc": 4528,
      "Ġrewind": 4529,
      "Ġpages": 4530,
      "strrev": 4531,
      "ĠTemplate": 4532,
      "Ġdump": 4533,
      "Ġsmar": 4534,
      "Ġworld": 4535,
      "Ġdefinitions": 4536,
      "andchild": 4537,
      "control": 4538,
      "Ġ----------------------------------": 4539,
      "quival": 4540,
      "product": 4541,
      "acility": 4542,
      "Ġ\"/\",": 4543,
      "urls": 4544,
      "Ġthese": 4545,
      "\"](": 4546,
      "HTTPBearer": 4547,
      "Ġnested": 4548,
      "clared": 4549,
      "ĠSh": 4550,
      "Ġhandles": 4551,
      "ĠPet": 4552,
      "dataclasses": 4553,
      "databases": 4554,
      "Ġcontract": 4555,
      "trans": 4556,
      "Ġlong": 4557,
      "details": 4558,
      "ResponseValidationError": 4559,
      "Ġ``.": 4560,
      "validlist": 4561,
      "Ġgeneration": 4562,
      "Ġreading": 4563,
      "Ġsecond": 4564,
      "ĠMulti": 4565,
      "RequestValidationError": 4566,
      "RequestException": 4567,
      "Ġpresent": 4568,
      "Ġ''": 4569,
      "405": 4570,
      "Ġstack": 4571,
      "JSONDecodeError": 4572,
      "JSONTag": 4573,
      "JSONProvider": 4574,
      "provide": 4575,
      "addr": 4576,
      "ĠHttp": 4577,
      "person": 4578,
      "ĠGET": 4579,
      "ĠGithub": 4580,
      "ĠJSONDecodeError": 4581,
      "redirectresponse": 4582,
      "Ġunquote": 4583,
      "Ġconfigured": 4584,
      "STR": 4585,
      "maxlength": 4586,
      "converter": 4587,
      "Ġblueprints": 4588,
      "ĠIsList": 4589,
      "ĠIsPar": 4590,
      "ĠHeaders": 4591,
      "enders": 4592,
      "tialDict": 4593,
      "ĠAdvanced": 4594,
      "ĠEmail": 4595,
      "SECRET": 4596,
      "Status": 4597,
      "Ġoutside": 4598,
      "504": 4599,
      "Ġwrapped": 4600,
      "Ġjwt": 4601,
      "parameterless": 4602,
      "ENT": 4603,
      "ĠInvalidURL": 4604,
      "discussions": 4605,
      "Ġbuilder": 4606,
      "RequestsCookieJar": 4607,
      "public": 4608,
      "ĠOtherwise": 4609,
      "Ġoverrider": 4610,
      "JsonSchema": 4611,
      "mkdir": 4612,
      "traceparent": 4613,
      "complex": 4614,
      "Wrapped": 4615,
      "Ġpickle": 4616,
      "TEMPLA": 4617,
      "Ġcaptured": 4618,
      "Ġfragment": 4619,
      "fspath": 4620,
      "Ġreplac": 4621,
      "ĠSQLModel": 4622,
      "BadParameter": 4623,
      "APPLICATION": 4624,
      "flict": 4625,
      "Ġassoci": 4626,
      "Ġsmart": 4627,
      "quivalent": 4628,
      "ĠIsPartialDict": 4629,
      "ĠEmailStr": 4630,
      "\"^": 4631,
      "\"``": 4632,
      "\"',": 4633,
      "##": 4634,
      ",\"": 4635,
      "-{": 4636,
      "010": 4637,
      "35": 4638,
      "302": 4639,
      "AssertionError": 4640,
      "Dog": 4641,
      "EAD": 4642,
      "Email": 4643,
      "FC": 4644,
      "FF": 4645,
      "Lim": 4646,
      "LIN": 4647,
      "Number": 4648,
      "Sp": 4649,
      "Stri": 4650,
      "UM": 4651,
      "UUID": 4652,
      "actions": 4653,
      "book": 4654,
      "branch": 4655,
      "bla": 4656,
      "cent": 4657,
      "ched": 4658,
      "categories": 4659,
      "dy": 4660,
      "dDict": 4661,
      "ired": 4662,
      "tain": 4663,
      "uages": 4664,
      "vicorn": 4665,
      "ãĥ": 4666,
      "Ġdepen": 4667,
      "Ġedges": 4668,
      "decorated": 4669,
      "inary": 4670,
      "hex": 4671,
      "Ġcast": 4672,
      "Ġimp": 4673,
      "Ġrelease": 4674,
      "ctype": 4675,
      "Ġprefer": 4676,
      "---": 4677,
      "ops": 4678,
      "stra": 4679,
      "\")):": 4680,
      "Ġblocks": 4681,
      "Ġbundle": 4682,
      "typed": 4683,
      "aster": 4684,
      "Ġsa": 4685,
      "Ġsince": 4686,
      "(\"/<": 4687,
      "atebook": 4688,
      "contributors": 4689,
      "templ": 4690,
      "race": 4691,
      "Ġ('": 4692,
      "sha": 4693,
      "ĠConnect": 4694,
      "ĠCheck": 4695,
      "Ġhandling": 4696,
      "asynccontextmanager": 4697,
      "Ġoffset": 4698,
      ").__": 4699,
      "ird": 4700,
      "Ġcontact": 4701,
      "readable": 4702,
      "Ġeither": 4703,
      "ResponseReturnValue": 4704,
      "Ġsearch": 4705,
      "ĠMessage": 4706,
      "ugin": 4707,
      "configure": 4708,
      "dent": 4709,
      "Ġstep": 4710,
      "subscription": 4711,
      "ĠOpenIdConnect": 4712,
      "Ġcomple": 4713,
      "ĠHow": 4714,
      "Ġchunks": 4715,
      "Ġalternative": 4716,
      "Ġenum": 4717,
      "ources": 4718,
      "viewport": 4719,
      "timezone": 4720,
      "Ġusually": 4721,
      "Undefined": 4722,
      "ĠState": 4723,
      "Ġvalidate": 4724,
      "Ġallows": 4725,
      "tributeError": 4726,
      "sphinx": 4727,
      "Ġspecial": 4728,
      "namic": 4729,
      "configurations": 4730,
      "ĠEndpoint": 4731,
      "ember": 4732,
      "vars": 4733,
      "overridden": 4734,
      "invoice": 4735,
      "Ġdomains": 4736,
      "Ġinteractive": 4737,
      "support": 4738,
      "dispatch": 4739,
      "ĠAuthor": 4740,
      "ĠAuthorization": 4741,
      "255": 4742,
      "Proper": 4743,
      "Process": 4744,
      "ĠKeyword": 4745,
      "BUND": 4746,
      "outinefunction": 4747,
      "Ġbetter": 4748,
      "mkdocs": 4749,
      "Ġserved": 4750,
      "charset": 4751,
      "*\\*": 4752,
      "absolute": 4753,
      "bold": 4754,
      "Ġ\\*\\*": 4755,
      "ĠAllDiscussions": 4756,
      "idna": 4757,
      "ACCE": 4758,
      "MethodView": 4759,
      "ĠAttributeError": 4760,
      "interface": 4761,
      "ĠOrderedDict": 4762,
      "impartial": 4763,
      "theme": 4764,
      "ĠRedirectResponse": 4765,
      "Ġfinalized": 4766,
      "SetupState": 4767,
      "Ġsimilar": 4768,
      "ĠDBUser": 4769,
      "ComputedField": 4770,
      "Strict": 4771,
      "templating": 4772,
      "BUNDLE": 4773,
      "06": 4774,
      "20": 4775,
      "29": 4776,
      "For": 4777,
      "Func": 4778,
      "Hub": 4779,
      "If": 4780,
      "Patch": 4781,
      "ROO": 4782,
      "Swagger": 4783,
      "SIZE": 4784,
      "UN": 4785,
      "XY": 4786,
      "[^": 4787,
      "]),": 4788,
      "]))": 4789,
      "conn": 4790,
      "does": 4791,
      "every": 4792,
      "fc": 4793,
      "handled": 4794,
      "rglob": 4795,
      "slashes": 4796,
      "vnd": 4797,
      "win": 4798,
      "wards": 4799,
      "Ġli": 4800,
      "Ġlet": 4801,
      "Ġlocal": 4802,
      "Ġlicense": 4803,
      "Ġkeep": 4804,
      "ĠðŁ": 4805,
      "essed": 4806,
      "ately": 4807,
      "ash": 4808,
      "asest": 4809,
      "store": 4810,
      "Ġtask": 4811,
      "itHub": 4812,
      "enter": 4813,
      "alone": 4814,
      "etry": 4815,
      "Ġcj": 4816,
      "Ġcases": 4817,
      "annotated": 4818,
      "serving": 4819,
      "Ġiscor": 4820,
      "ocab": 4821,
      "ocol": 4822,
      "(\"*.": 4823,
      "otocol": 4824,
      "sca": 4825,
      "Ġbuff": 4826,
      "Ġdid": 4827,
      "Ġdunder": 4828,
      "Ġses": 4829,
      "Ġsample": 4830,
      "Ġsuccessful": 4831,
      "Ġsystem": 4832,
      "Ġshell": 4833,
      "Ġmk": 4834,
      "unch": 4835,
      "ĠAs": 4836,
      "alls": 4837,
      "valu": 4838,
      "Ġappcontext": 4839,
      "Ġ`-": 4840,
      "\"](\"": 4841,
      "lications": 4842,
      "Ġnode": 4843,
      "Ġnotification": 4844,
      "roved": 4845,
      "Ġitself": 4846,
      "ĠCA": 4847,
      "Ġheroes": 4848,
      "ĠPass": 4849,
      "://\",": 4850,
      "ĠUrl": 4851,
      "BaseSettings": 4852,
      "Ġorjson": 4853,
      "Index": 4854,
      "markdown": 4855,
      "loading": 4856,
      "ResponseLevel": 4857,
      "logo": 4858,
      "Ġshort": 4859,
      "Ġattach": 4860,
      "Ġattempt": 4861,
      "corating": 4862,
      "submit": 4863,
      "Ġproject": 4864,
      "QueryParams": 4865,
      "ĠTypeVar": 4866,
      "ĠHuman": 4867,
      "portedError": 4868,
      "ĠGreater": 4869,
      "Ġcurrently": 4870,
      "reset": 4871,
      "flaskenv": 4872,
      "__.__": 4873,
      "Ġasyncio": 4874,
      "ĠLess": 4875,
      "tries": 4876,
      "calls": 4877,
      "maxLength": 4878,
      "KeyError": 4879,
      "ĠIndex": 4880,
      "Ġcond": 4881,
      "NotSup": 4882,
      "Ġcomments": 4883,
      "based": 4884,
      "Ġcoverage": 4885,
      "excinfo": 4886,
      "ĠtokenUrl": 4887,
      "DELETE": 4888,
      "LANG": 4889,
      "regular": 4890,
      "ĠApplications": 4891,
      "Ġdebugger": 4892,
      "Ġopened": 4893,
      "poolmanager": 4894,
      "Ġdisable": 4895,
      "ansfer": 4896,
      "HeroPublic": 4897,
      "ĠBaseSettings": 4898,
      "Ġconverted": 4899,
      "AUTO": 4900,
      "repos": 4901,
      "Ġconnections": 4902,
      "Ġexisting": 4903,
      "ĠContext": 4904,
      "Ġtemp": 4905,
      "Python": 4906,
      "weights": 4907,
      "StringIO": 4908,
      "Ġfollowing": 4909,
      "Ġserve": 4910,
      "InvoiceEvent": 4911,
      "execute": 4912,
      "reviewers": 4913,
      "Ġpurge": 4914,
      "ĠRegEx": 4915,
      "ĠEnvironBuilder": 4916,
      "seek": 4917,
      "Ġindic": 4918,
      "Edge": 4919,
      "opagate": 4920,
      "Ġissue": 4921,
      "ĠDiscussions": 4922,
      "needy": 4923,
      "ĠHttpUrl": 4924,
      "ĠEndpointContext": 4925,
      "FuncDep": 4926,
      "ROOT": 4927,
      "asestring": 4928,
      "Ġiscoroutinefunction": 4929,
      "NotSupportedError": 4930,
      "!\")": 4931,
      "'{\"": 4932,
      "204": 4933,
      "></": 4934,
      "Agent": 4935,
      "BY": 4936,
      "ED": 4937,
      "Multi": 4938,
      "PUT": 4939,
      "RGE": 4940,
      "Up": 4941,
      "ai": 4942,
      "bot": 4943,
      "bort": 4944,
      "cf": 4945,
      "cope": 4946,
      "dates": 4947,
      "dunder": 4948,
      "dummy": 4949,
      "ever": 4950,
      "gs": 4951,
      "gac": 4952,
      "ium": 4953,
      "known": 4954,
      "late": 4955,
      "misc": 4956,
      "mote": 4957,
      "mask": 4958,
      "memory": 4959,
      "sor": 4960,
      "system": 4961,
      "shell": 4962,
      "year": 4963,
      "zes": 4964,
      "Ġext": 4965,
      "Ġquote": 4966,
      "Ġschemes": 4967,
      "Ġ\",": 4968,
      "escap": 4969,
      "seen": 4970,
      "sent": 4971,
      "lish": 4972,
      "insert": 4973,
      "orary": 4974,
      "Ġter": 4975,
      "Ġtutorial": 4976,
      "Ġtake": 4977,
      "Ġtell": 4978,
      "height": 4979,
      "etch": 4980,
      "Ġclo": 4981,
      "Ġflows": 4982,
      "Ġpast": 4983,
      "Ġplatform": 4984,
      "getitem": 4985,
      "(\".\")": 4986,
      "(\"{{": 4987,
      "\")}": 4988,
      "Ġbasic": 4989,
      "Ġaction": 4990,
      "romium": 4991,
      "adhoc": 4992,
      "Ġway": 4993,
      "Ġ------------------": 4994,
      "ĠRFC": 4995,
      "ĠDon": 4996,
      "ĠDescription": 4997,
      "ection": 4998,
      "openssl": 4999,
      "=\"$": 5000,
      "HTTPDigest": 5001,
      "chromium": 5002,
      "Ġnodes": 5003,
      "plugin": 5004,
      "ĠFastAPIError": 5005,
      "Ġexact": 5006,
      "ĠScope": 5007,
      "angero": 5008,
      "Ġgen": 5009,
      "Ġgood": 5010,
      "this": 5011,
      "ĠRequired": 5012,
      "Ġdetermin": 5013,
      "Ġdecorating": 5014,
      "ised": 5015,
      "Ġlat": 5016,
      "Ġraw": 5017,
      "six": 5018,
      "teleport": 5019,
      "Ġ12": 5020,
      "formed": 5021,
      "Ġjsonify": 5022,
      "dence": 5023,
      "Ġstuff": 5024,
      "Ġstored": 5025,
      "Ġadmin": 5026,
      "FieldInfo": 5027,
      "ĠHEAD": 5028,
      "Ġversions": 5029,
      "ContextManager": 5030,
      "Ġ[])": 5031,
      ")))": 5032,
      "lobals": 5033,
      "ĠLifespan": 5034,
      "Enable": 5035,
      "UserIn": 5036,
      "Ġ405": 5037,
      "dirs": 5038,
      "Ġautoc": 5039,
      "deploy": 5040,
      "directly": 5041,
      "RED": 5042,
      "ĠExamples": 5043,
      "011": 5044,
      "myview": 5045,
      "ĠEquivalent": 5046,
      "ĠSessionDep": 5047,
      "LARGE": 5048,
      "SEND": 5049,
      "Add": 5050,
      "network": 5051,
      "headless": 5052,
      "Ġactually": 5053,
      "Ġpermis": 5054,
      "Ġiterator": 5055,
      "PAR": 5056,
      "Ġwrite": 5057,
      "Ġregular": 5058,
      "Ġregistr": 5059,
      "uplicate": 5060,
      "ĠMarkup": 5061,
      "Ġimplemented": 5062,
      "archive": 5063,
      "Ġexists": 5064,
      "ĠUnionType": 5065,
      "Defaults": 5066,
      "CEPTIONS": 5067,
      "normal": 5068,
      "Ġlocate": 5069,
      "PasswordRequestFormStrict": 5070,
      "Ġsignature": 5071,
      "LinkInfo": 5072,
      "SSLError": 5073,
      "PROXY": 5074,
      "xxx": 5075,
      "EXCEPTIONS": 5076,
      "launch": 5077,
      "amesite": 5078,
      "Ġ960": 5079,
      "repeated": 5080,
      "ĠBadRequest": 5081,
      "789": 5082,
      "related": 5083,
      "Ġassociated": 5084,
      "Limit": 5085,
      "dynamic": 5086,
      "Ġmkdocs": 5087,
      "gacy": 5088,
      "angerous": 5089,
      "\"/{": 5090,
      "'\\": 5091,
      "(...": 5092,
      ")(": 5093,
      "05": 5094,
      ":%": 5095,
      ":]": 5096,
      ">\",": 5097,
      "Al": 5098,
      "BA": 5099,
      "Full": 5100,
      "GOR": 5101,
      "NamedSession": 5102,
      "Pet": 5103,
      "Send": 5104,
      "Spec": 5105,
      "Skip": 5106,
      "SION": 5107,
      "Using": 5108,
      "Valid": 5109,
      "WITH": 5110,
      "action": 5111,
      "await": 5112,
      "bb": 5113,
      "cwd": 5114,
      "dra": 5115,
      "different": 5116,
      "fetch": 5117,
      "glish": 5118,
      "old": 5119,
      "oved": 5120,
      "ping": 5121,
      "rfc": 5122,
      "sDep": 5123,
      "swer": 5124,
      "ten": 5125,
      "tom": 5126,
      "tity": 5127,
      "tls": 5128,
      "tensions": 5129,
      "warning": 5130,
      "}.": 5131,
      "Ã¸": 5132,
      "Ġ;": 5133,
      "Ġ?": 5134,
      "ĠK": 5135,
      "Ġquot": 5136,
      "Ġ\"'": 5137,
      "\":\"": 5138,
      "seconds": 5139,
      "ences": 5140,
      "enames": 5141,
      "encodings": 5142,
      "reat": 5143,
      "reloader": 5144,
      "received": 5145,
      "inel": 5146,
      "orjson": 5147,
      "standard": 5148,
      "iting": 5149,
      "Ġclear": 5150,
      "Ġcelery": 5151,
      "service": 5152,
      "ations": 5153,
      "Ġfalse": 5154,
      "Ġrecomm": 5155,
      "Ġreference": 5156,
      "Ġrealm": 5157,
      "Ġpa": 5158,
      "getElement": 5159,
      "(\"<": 5160,
      "ots": 5161,
      "\")]):": 5162,
      "()}": 5163,
      "Ġbinary": 5164,
      "Ġbasestring": 5165,
      "ĠTimeout": 5166,
      "Ġdt": 5167,
      "Ġdigest": 5168,
      "Ġsays": 5169,
      "Ġsafe": 5170,
      "Ġslash": 5171,
      "Ġsuffix": 5172,
      "onts": 5173,
      "cedence": 5174,
      "apiKey": 5175,
      "Ġmapping": 5176,
      "Ġmimetype": 5177,
      "pyfile": 5178,
      "alleng": 5179,
      "ĠRE": 5180,
      "quire": 5181,
      "Ġappend": 5182,
      "licy": 5183,
      "ĠDE": 5184,
      "classmethod": 5185,
      "chain": 5186,
      "ply": 5187,
      "Ġgo": 5188,
      "ĠCalls": 5189,
      "Ġhistory": 5190,
      "Ġ:=": 5191,
      "ĠPool": 5192,
      "ĠPerson": 5193,
      "ĠPond": 5194,
      "Repo": 5195,
      "Int": 5196,
      "lying": 5197,
      "authori": 5198,
      "Ġyet": 5199,
      "ĠWindows": 5200,
      "Ġsections": 5201,
      "ĠThere": 5202,
      "ĠBaz": 5203,
      "ĠBigger": 5204,
      "Ġsetattr": 5205,
      "ĠMain": 5206,
      "ĠMake": 5207,
      "ĠMUST": 5208,
      "RequestCallable": 5209,
      "corate": 5210,
      "coroutine": 5211,
      "subname": 5212,
      "subrouter": 5213,
      "Ġauthtype": 5214,
      "slots": 5215,
      "Ġchalleng": 5216,
      "Ġsubclasses": 5217,
      "resolve": 5218,
      "ETR": 5219,
      "Ġenable": 5220,
      "Ġenumer": 5221,
      "ĠNote": 5222,
      "ĠNamedSession": 5223,
      "processing": 5224,
      "Entity": 5225,
      "maxsize": 5226,
      "onkeyPatch": 5227,
      "consumed": 5228,
      "ĠInvoice": 5229,
      "Ġmodels": 5230,
      "RECT": 5231,
      "ĠSecurityBase": 5232,
      "Ġserializer": 5233,
      "ĠIsInt": 5234,
      "myitem": 5235,
      "NotFound": 5236,
      "TEST": 5237,
      "ĠWebSocketDisconnect": 5238,
      "Ġstartup": 5239,
      "ĠAdded": 5240,
      "skipif": 5241,
      "ĠEach": 5242,
      "ĠEither": 5243,
      "Ġexcinfo": 5244,
      "nonregex": 5245,
      "Ġloads": 5246,
      "Tests": 5247,
      "ĠGeneric": 5248,
      ".../": 5249,
      "1000": 5250,
      "Ġexpire": 5251,
      "zipped": 5252,
      "WithComputedField": 5253,
      "VERSION": 5254,
      "ĠComments": 5255,
      "Scheme": 5256,
      "Logger": 5257,
      "conditional": 5258,
      "ROM": 5259,
      "Child": 5260,
      "duplicate": 5261,
      "structures": 5262,
      "ById": 5263,
      "Converter": 5264,
      "JsonApiError": 5265,
      "Ġchanges": 5266,
      "({})": 5267,
      "TIC": 5268,
      "rendered": 5269,
      "authentication": 5270,
      "Ġbuiltin": 5271,
      "psf": 5272,
      "Ġtraceback": 5273,
      "ALGOR": 5274,
      "COM": 5275,
      "DIRECT": 5276,
      "ITHM": 5277,
      "ĠInternalError": 5278,
      "ĠInternalServerError": 5279,
      "ĠClassInstanceAsync": 5280,
      "pickle": 5281,
      "exclusiveMinimum": 5282,
      "ĠSECRET": 5283,
      "Ġexplicitly": 5284,
      "preserve": 5285,
      "ĠIPv": 5286,
      "supported": 5287,
      "Properties": 5288,
      "scaffold": 5289,
      "Ġbuffer": 5290,
      "getElementById": 5291,
      "Ġenumerate": 5292,
      "nonregexquery": 5293,
      "ALGORITHM": 5294,
      "$\",": 5295,
      "$\")": 5296,
      "']}": 5297,
      ".,": 5298,
      "/<": 5299,
      "/\"),": 5300,
      "43": 5301,
      "As": 5302,
      "ANG": 5303,
      "Cat": 5304,
      "CON": 5305,
      "Ctx": 5306,
      "Function": 5307,
      "FOR": 5308,
      "Globals": 5309,
      "ID": 5310,
      "Ma": 5311,
      "Module": 5312,
      "MOD": 5313,
      "OM": 5314,
      "Only": 5315,
      "Popen": 5316,
      "RI": 5317,
      "TING": 5318,
      "UTF": 5319,
      "When": 5320,
      "blog": 5321,
      "cast": 5322,
      "city": 5323,
      "cks": 5324,
      "fa": 5325,
      "fonts": 5326,
      "hT": 5327,
      "ier": 5328,
      "ied": 5329,
      "mb": 5330,
      "num": 5331,
      "phinx": 5332,
      "sil": 5333,
      "solute": 5334,
      "til": 5335,
      "tell": 5336,
      "ves": 5337,
      "xn": 5338,
      "xml": 5339,
      "yaml": 5340,
      "zable": 5341,
      "zero": 5342,
      "{\\": 5343,
      "}',": 5344,
      "Ġ8": 5345,
      "Ġencode": 5346,
      "Ġupload": 5347,
      "ĠValue": 5348,
      "Ġscreenshot": 5349,
      "ĠĠĠĠĠĠĠĠĠĠĠĠĠĠĠĠĠĠĠĠ": 5350,
      "section": 5351,
      "dea": 5352,
      "rebuild": 5353,
      "recursive": 5354,
      "retries": 5355,
      "lice": 5356,
      "light": 5357,
      "stder": 5358,
      "Ġtoo": 5359,
      "Ġtasks": 5360,
      "Ġ}}\")": 5361,
      "alt": 5362,
      "Ġrules": 5363,
      "Ġcm": 5364,
      "Ġcache": 5365,
      "Ġclosed": 5366,
      "anually": 5367,
      "appen": 5368,
      "Ġfix": 5369,
      "Ġflag": 5370,
      "Ġflash": 5371,
      "Ġflashes": 5372,
      "Ġput": 5373,
      "ocal": 5374,
      "Ġbyp": 5375,
      "ulary": 5376,
      "teststr": 5377,
      "Ġsponsors": 5378,
      "Ġways": 5379,
      "Ġmsg": 5380,
      "Ġstrip": 5381,
      "ĠRem": 5382,
      "ĠRule": 5383,
      "press": 5384,
      "Ġour": 5385,
      "ĠIter": 5386,
      "ĠDigest": 5387,
      "openid": 5388,
      "openIdConnect": 5389,
      "terms": 5390,
      "rols": 5391,
      "Ġgetproxies": 5392,
      "ship": 5393,
      "Ġgreen": 5394,
      "Ġhav": 5395,
      "Ġhappen": 5396,
      "ĠPr": 5397,
      "plete": 5398,
      "ĠUsage": 5399,
      "Ġdataclass": 5400,
      "ending": 5401,
      "Ġanswer": 5402,
      "ĠDecimal": 5403,
      "ĠDependency": 5404,
      "versions": 5405,
      "FastAPIError": 5406,
      "illa": 5407,
      "Ġreserved": 5408,
      "Ġresources": 5409,
      "Ġseem": 5410,
      "Ġsequence": 5411,
      "Ġsecure": 5412,
      "Ġurls": 5413,
      "ĠMetadata": 5414,
      "ĠManually": 5415,
      "Ġ18": 5416,
      "annotations": 5417,
      "Ġprodu": 5418,
      "Ġ32": 5419,
      "ĠReadTimeout": 5420,
      "Ġ204": 5421,
      "ayout": 5422,
      "JSONSerializer": 5423,
      "ullRequest": 5424,
      "Ġclasses": 5425,
      "Ġcomponents": 5426,
      "Ġcommit": 5427,
      "Ġprepend": 5428,
      "Ġchain": 5429,
      "uniqueItems": 5430,
      "Ġcodegen": 5431,
      "staticmethod": 5432,
      "Ġunless": 5433,
      "Ġasynccontextmanager": 5434,
      "Ġinstall": 5435,
      "maximum": 5436,
      "azing": 5437,
      "Ġ{}).": 5438,
      "timedelta": 5439,
      "../": 5440,
      "ValueEx": 5441,
      "construct": 5442,
      "ĠInt": 5443,
      "Ġviewport": 5444,
      "translatable": 5445,
      "change": 5446,
      "hashes": 5447,
      "\"])],": 5448,
      "TENT": 5449,
      "INVALID": 5450,
      "HTMLResponse": 5451,
      "typing": 5452,
      "Ġplaces": 5453,
      "Ġhostname": 5454,
      "Stream": 5455,
      "Ġ1080": 5456,
      "AppContext": 5457,
      "Ġpermanent": 5458,
      "Ġdebugging": 5459,
      "embedded": 5460,
      "Ġfoobar": 5461,
      "PAM": 5462,
      "PlainTextResponse": 5463,
      "Ġnonce": 5464,
      "Ġaccept": 5465,
      "ĠBaseException": 5466,
      "gedJSONSerializer": 5467,
      "pets": 5468,
      "ĠComment": 5469,
      "Ġtagged": 5470,
      "Ġcompatible": 5471,
      "llm": 5472,
      "checker": 5473,
      "Ġsimple": 5474,
      "company": 5475,
      "install": 5476,
      "ĠAPIKeyQuery": 5477,
      "ĠAPIKeyCookie": 5478,
      "ĠAPIKeyHeader": 5479,
      "ĠWSGIEnvironment": 5480,
      "Ġinitial": 5481,
      "Ġsubclassing": 5482,
      "Ġoverridden": 5483,
      "lastname": 5484,
      "WebSocketDisconnect": 5485,
      "complete": 5486,
      "abspath": 5487,
      "Ġsecrets": 5488,
      "merged": 5489,
      "terminate": 5490,
      "Ġgrant": 5491,
      "goto": 5492,
      "Ġproperly": 5493,
      "repeat": 5494,
      "intainer": 5495,
      "delattr": 5496,
      "Ġpriv": 5497,
      "Ġsqlalchemy": 5498,
      "SETTING": 5499,
      "ĠAllow": 5500,
      "timestamp": 5501,
      "Ġexposed": 5502,
      "Ġoccurred": 5503,
      "Ġstacklevel": 5504,
      "LINK": 5505,
      "SwaggerUI": 5506,
      "ocabulary": 5507,
      "Ġpaste": 5508,
      "Ġ---------------------": 5509,
      "AsMa": 5510,
      "CONTENT": 5511,
      "stderr": 5512,
      "SETTINGS": 5513,
      "AsMaintainer": 5514,
      "'\",": 5515,
      "'ll": 5516,
      ")[": 5517,
      "*\",": 5518,
      ",'": 5519,
      "09": 5520,
      "012": 5521,
      "36": 5522,
      "55": 5523,
      "59": 5524,
      "76": 5525,
      "98": 5526,
      ":/": 5527,
      "AA": 5528,
      "AS": 5529,
      "Bundle": 5530,
      "BackgroundTasks": 5531,
      "CY": 5532,
      "Connection": 5533,
      "Cache": 5534,
      "DA": 5535,
      "First": 5536,
      "Fighters": 5537,
      "Gr": 5538,
      "HER": 5539,
      "LD": 5540,
      "MT": 5541,
      "Map": 5542,
      "Missing": 5543,
      "NI": 5544,
      "Non": 5545,
      "Nump": 5546,
      "Oi": 5547,
      "Pool": 5548,
      "Role": 5549,
      "SA": 5550,
      "Sh": 5551,
      "Success": 5552,
      "SPAM": 5553,
      "Th": 5554,
      "Tp": 5555,
      "Thing": 5556,
      "USER": 5557,
      "_).": 5558,
      "aque": 5559,
      "btain": 5560,
      "can": 5561,
      "cone": 5562,
      "cel": 5563,
      "cryptography": 5564,
      "din": 5565,
      "day": 5566,
      "dating": 5567,
      "disconnect": 5568,
      "ere": 5569,
      "failed": 5570,
      "gments": 5571,
      "good": 5572,
      "hrough": 5573,
      "ichang": 5574,
      "ized": 5575,
      "kDocs": 5576,
      "lers": 5577,
      "lug": 5578,
      "long": 5579,
      "med": 5580,
      "master": 5581,
      "ns": 5582,
      "oid": 5583,
      "pas": 5584,
      "pem": 5585,
      "poo": 5586,
      "rt": 5587,
      "sa": 5588,
      "slash": 5589,
      "samesite": 5590,
      "tin": 5591,
      "tpon": 5592,
      "vatarUrl": 5593,
      "vised": 5594,
      "wh": 5595,
      "your": 5596,
      "yAr": 5597,
      "zz": 5598,
      "}/{": 5599,
      "}.\"": 5600,
      "Ġâ": 5601,
      "Ġop": 5602,
      "Ġlo": 5603,
      "Ġscript": 5604,
      "Ġextensions": 5605,
      "Ġ\"\").": 5606,
      "Ġ\".\"": 5607,
      "select": 5608,
      "deli": 5609,
      "device": 5610,
      "eno": 5611,
      "realm": 5612,
      "lio": 5613,
      "lies": 5614,
      "Ġ{{": 5615,
      "\",\"": 5616,
      "style": 5617,
      "sthrough": 5618,
      "estlers": 5619,
      "apsed": 5620,
      "hecks": 5621,
      "lex": 5622,
      "lements": 5623,
      "Ġ}}": 5624,
      "algorithm": 5625,
      "alformed": 5626,
      "Ġrandom": 5627,
      "ets": 5628,
      "Ġcity": 5629,
      "Ġidea": 5630,
      "Ġfav": 5631,
      "alize": 5632,
      "ocessed": 5633,
      "()[": 5634,
      "Ġinsert": 5635,
      "ĠTwo": 5636,
      "ĠavatarUrl": 5637,
      "Ġdown": 5638,
      "Ġdidn": 5639,
      "Ġsu": 5640,
      "Ġslug": 5641,
      "ceeded": 5642,
      "Ġmut": 5643,
      "Ġmixed": 5644,
      "(\"/?": 5645,
      "ĠAccess": 5646,
      "ĠAwaitable": 5647,
      "andalone": 5648,
      "contact": 5649,
      "httpon": 5650,
      "Ġforbidden": 5651,
      "Ġapprop": 5652,
      "accessed": 5653,
      "ectang": 5654,
      "Ġ\"/\"": 5655,
      "temp": 5656,
      "\"]:": 5657,
      "Ġ((": 5658,
      "Ġ({\"": 5659,
      "HTTPError": 5660,
      "HTTPBase": 5661,
      "ModelV": 5662,
      "ModelSet": 5663,
      "ically": 5664,
      "ĠSummary": 5665,
      "ĠSponsor": 5666,
      "Ġgit": 5667,
      "ĠPure": 5668,
      "uble": 5669,
      "ĠOR": 5670,
      "ĠOf": 5671,
      "keyword": 5672,
      "Received": 5673,
      "ĠURI": 5674,
      "backend": 5675,
      "ĠReDoc": 5676,
      "fileb": 5677,
      "Ġdeque": 5678,
      "Ġdeclared": 5679,
      "ĠDep": 5680,
      "ĠDeprecationWarning": 5681,
      "Ġlists": 5682,
      "Ġerroring": 5683,
      "ebhook": 5684,
      "Ġgeneric": 5685,
      "ĠBe": 5686,
      "ĠBuildError": 5687,
      "ĠMorsel": 5688,
      "ĠMonkeyPatch": 5689,
      "ĠMkDocs": 5690,
      "ĠAnyThing": 5691,
      "Device": 5692,
      "Decorate": 5693,
      "Ġabsolute": 5694,
      "Ġ14": 5695,
      "Ġ'/": 5696,
      "ĠHTTPBase": 5697,
      "Ġstor": 5698,
      "Ġstore": 5699,
      "Ġbyte": 5700,
      "imichang": 5701,
      "akeNump": 5702,
      "Ġnoop": 5703,
      "ĠModelName": 5704,
      "Ġtrust": 5705,
      "Ġcancel": 5706,
      "Ġprecedence": 5707,
      "Ġkeyset": 5708,
      "Ġcodec": 5709,
      "attrs": 5710,
      "permalink": 5711,
      "TypedDict": 5712,
      "------------": 5713,
      "Ġlogic": 5714,
      "dentifi": 5715,
      "ĠFlaskGroup": 5716,
      "Ġconfigure": 5717,
      "ĠLo": 5718,
      "ĠLink": 5719,
      "serialize": 5720,
      "Ġtimezone": 5721,
      "comments": 5722,
      "ERRED": 5723,
      "Ġlanguages": 5724,
      "Ġqp": 5725,
      "maid": 5726,
      "Ġweak": 5727,
      "conf": 5728,
      "ĠInst": 5729,
      "RELOAD": 5730,
      "REDIRECT": 5731,
      "matches": 5732,
      "Ġ...,": 5733,
      "Ġ...]": 5734,
      "anagement": 5735,
      "Ġsending": 5736,
      "Ġmultipart": 5737,
      "ĠWebSocketException": 5738,
      "debugger": 5739,
      "extractor": 5740,
      "Ġplumbus": 5741,
      "ofsil": 5742,
      "Ġsupports": 5743,
      "ĠEnglish": 5744,
      "Ġdetails": 5745,
      "Starlette": 5746,
      "BlueprintKey": 5747,
      "00446": 5748,
      "AppOr": 5749,
      "aphql": 5750,
      "Ġremovable": 5751,
      "avatarUrl": 5752,
      "Ġoutdated": 5753,
      "basicConfig": 5754,
      "Ġportal": 5755,
      "hese": 5756,
      "Creating": 5757,
      "caffold": 5758,
      "sender": 5759,
      "ĠAsyncCallable": 5760,
      "Ġ1000": 5761,
      "Ġtranslatable": 5762,
      "ModelRequiredAlias": 5763,
      "ModelRequiredStr": 5764,
      "ModelRequiredValidationAlias": 5765,
      "ModelRequiredAliasAndValidationAlias": 5766,
      "ModelOptionalAlias": 5767,
      "ModelOptionalStr": 5768,
      "ModelOptionalValidationAlias": 5769,
      "ModelOptionalAliasAndValidationAlias": 5770,
      "popped": 5771,
      "NoAlias": 5772,
      "Ġaccessed": 5773,
      "Ġends": 5774,
      "\"]}),": 5775,
      "ĠInvalidHeader": 5776,
      "SubItem": 5777,
      "ĠRequestsCookieJar": 5778,
      "disable": 5779,
      "ĠBlueprintSetupState": 5780,
      "expired": 5781,
      "Ġside": 5782,
      "wraps": 5783,
      "DiscussionComment": 5784,
      "ĠTaggedJSONSerializer": 5785,
      "VAL": 5786,
      "Ġposition": 5787,
      "ĠPlainTextResponse": 5788,
      "ATA": 5789,
      "ATORS": 5790,
      "EnvironBuilder": 5791,
      "VALIDATORS": 5792,
      "Ġfails": 5793,
      "Serialize": 5794,
      "Ġrecord": 5795,
      "Ġmajor": 5796,
      "ĠSSLError": 5797,
      "merge": 5798,
      "Ġgraphql": 5799,
      "Ġrepresentation": 5800,
      "Ġpopped": 5801,
      "GenDep": 5802,
      "GenDependency": 5803,
      "Ġlowercase": 5804,
      "Ġsqlmodel": 5805,
      "chunked": 5806,
      "ĠHTTPDigestAuth": 5807,
      "rewindable": 5808,
      "utableMapping": 5809,
      "Ġcompact": 5810,
      "Transfer": 5811,
      "CII": 5812,
      "Ġseparated": 5813,
      "ighlight": 5814,
      "PREFERRED": 5815,
      "SCHEME": 5816,
      "TRAP": 5817,
      "boundary": 5818,
      "hik": 5819,
      "TEMPLATES": 5820,
      "Ġreplacement": 5821,
      "raceback": 5822,
      "Ġterms": 5823,
      "Ġautocom": 5824,
      "Address": 5825,
      "Ġpermission": 5826,
      "Ġregistry": 5827,
      "Ġpair": 5828,
      "Ġchallenge": 5829,
      "SchemeType": 5830,
      "OiJ": 5831,
      "coneofsil": 5832,
      "medi": 5833,
      "yArray": 5834,
      "Ġfavor": 5835,
      "httponly": 5836,
      "Ġappropri": 5837,
      "ectangle": 5838,
      "ĠMkDocsConfig": 5839,
      "imichangApp": 5840,
      "akeNumpyArray": 5841,
      "004461": 5842,
      "AppOrBlueprintKey": 5843,
      "coneofsilence": 5844,
      "!--": 5845,
      "\"')": 5846,
      "$\"},": 5847,
      ",)": 5848,
      "26": 5849,
      "31": 5850,
      "300": 5851,
      "54": 5852,
      "83": 5853,
      "802": 5854,
      ">;": 5855,
      "Abort": 5856,
      "Bl": 5857,
      "Bo": 5858,
      "Block": 5859,
      "BAR": 5860,
      "BuildError": 5861,
      "Does": 5862,
      "FO": 5863,
      "GATE": 5864,
      "Handle": 5865,
      "IX": 5866,
      "IME": 5867,
      "Many": 5868,
      "OP": 5869,
      "Operation": 5870,
      "OLO": 5871,
      "SI": 5872,
      "Sig": 5873,
      "To": 5874,
      "Time": 5875,
      "TOK": 5876,
      "TCH": 5877,
      "Vary": 5878,
      "WS": 5879,
      "World": 5880,
      "Zip": 5881,
      "]*": 5882,
      "alex": 5883,
      "bn": 5884,
      "bid": 5885,
      "cj": 5886,
      "cut": 5887,
      "flash": 5888,
      "flashes": 5889,
      "fatebook": 5890,
      "gn": 5891,
      "iable": 5892,
      "implement": 5893,
      "iling": 5894,
      "lru": 5895,
      "management": 5896,
      "rmt": 5897,
      "suffix": 5898,
      "toc": 5899,
      "tool": 5900,
      "there": 5901,
      "uvicorn": 5902,
      "xff": 5903,
      "}.{": 5904,
      "ÃŁ": 5905,
      "ãĤ": 5906,
      "Ġapi": 5907,
      "Ġarchive": 5908,
      "sections": 5909,
      "attach": 5910,
      "assert": 5911,
      "reitz": 5912,
      "remote": 5913,
      "Ġtb": 5914,
      "least": 5915,
      "Ġ}}\"": 5916,
      "Ġrespon": 5917,
      "Ġcur": 5918,
      "Ġcabc": 5919,
      "Ġie": 5920,
      "Ġfe": 5921,
      "Ġfall": 5922,
      "Ġfactory": 5923,
      "Ġrepos": 5924,
      "Ġrevised": 5925,
      "getlist": 5926,
      "edEncoding": 5927,
      "strange": 5928,
      "\")[": 5929,
      "\")),": 5930,
      "()))": 5931,
      "Ġinher": 5932,
      "ĠThese": 5933,
      "ulate": 5934,
      "testtoken": 5935,
      "Ġdisc": 5936,
      "jsonable": 5937,
      "ĠFROM": 5938,
      "elapsed": 5939,
      "Ġimporting": 5940,
      "ooMany": 5941,
      "ceiv": 5942,
      "nothing": 5943,
      "Ġmd": 5944,
      "Ġmember": 5945,
      "unicorn": 5946,
      "Ġdefin": 5947,
      "ĠAb": 5948,
      "ager": 5949,
      "__\")": 5950,
      "__``": 5951,
      "verri": 5952,
      "ish": 5953,
      "isbn": 5954,
      "ĠRoute": 5955,
      "ĠRetry": 5956,
      "Ġobtain": 5957,
      "acro": 5958,
      "upsafe": 5959,
      "setter": 5960,
      "Ġ(`": 5961,
      "strings": 5962,
      "chal": 5963,
      "Ġnumeric": 5964,
      "ical": 5965,
      "ĠSpec": 5966,
      "ĠSection": 5967,
      "Ġpyright": 5968,
      "Ġwithin": 5969,
      "vely": 5970,
      "LECT": 5971,
      "Ġgun": 5972,
      "ĠCor": 5973,
      "ĠCopy": 5974,
      "refresh": 5975,
      "ĠPar": 5976,
      "ĠOPTIONS": 5977,
      "ĠResponseValidationError": 5978,
      "ains": 5979,
      "ĠUsed": 5980,
      "ĠUUID": 5981,
      "kenneth": 5982,
      "ĠReceive": 5983,
      "Ġdeep": 5984,
      "Ġ._": 5985,
      "Ġcontrols": 5986,
      "Inactive": 5987,
      "pares": 5988,
      "Ġeb": 5989,
      "Ġeas": 5990,
      ":`/": 5991,
      "Ġ``__": 5992,
      "ĠWHER": 5993,
      "Ġready": 5994,
      "Ġsets": 5995,
      "ĠMe": 5996,
      "ĠMissing": 5997,
      "Decimal": 5998,
      "Ġabort": 5999,
      "Ġ16": 6000,
      "lineCode": 6001,
      "Ġ301": 6002,
      "cors": 6003,
      "Ġ(\"\",": 6004,
      "Ġshouldn": 6005,
      "olor": 6006,
      "ĠTypeModelSet": 6007,
      "ĠModelDefaults": 6008,
      "BodyError": 6009,
      "Ġcontexts": 6010,
      "Ġcontextvars": 6011,
      "minimum": 6012,
      "ialize": 6013,
      "forbid": 6014,
      "Ġalgorithm": 6015,
      "ĠGitHub": 6016,
      "reserved": 6017,
      "mitted": 6018,
      "Ġenctype": 6019,
      "Ġunhandled": 6020,
      "Ġuntil": 6021,
      "Ġparsing": 6022,
      "128": 6023,
      "ĠLocal": 6024,
      "UserOut": 6025,
      "Ġinstan": 6026,
      "Ġqop": 6027,
      "Ġusage": 6028,
      "SessionDep": 6029,
      "iven": 6030,
      "Union": 6031,
      "running": 6032,
      "limiter": 6033,
      "013": 6034,
      "Ġmatches": 6035,
      "Ġoverwrite": 6036,
      "Ġconstruct": 6037,
      "Ġallowing": 6038,
      "Ġadding": 6039,
      "ĠFileResponse": 6040,
      "ĠWebSocketRequestValidationError": 6041,
      "ĠUni": 6042,
      "typer": 6043,
      "Ġ503": 6044,
      "RouteCallable": 6045,
      "}/\"": 6046,
      "nonexistent": 6047,
      "ĠEnsure": 6048,
      "ORD": 6049,
      "SELECT": 6050,
      "ParamTypes": 6051,
      "AppCtx": 6052,
      "Admin": 6053,
      "Ġstreaming": 6054,
      "locations": 6055,
      "Ġperson": 6056,
      "stripped": 6057,
      "Ġbackwards": 6058,
      "argeOut": 6059,
      ".\")]": 6060,
      "uiltin": 6061,
      "splitlines": 6062,
      "patterns": 6063,
      "Ġprocessor": 6064,
      "IOError": 6065,
      "PAGATE": 6066,
      "PATCH": 6067,
      "Ġfinal": 6068,
      "Ġinterpre": 6069,
      "ProxyError": 6070,
      "ProxyURL": 6071,
      "Ġminor": 6072,
      "unkedEncoding": 6073,
      "Login": 6074,
      "explicit": 6075,
      "ChimichangApp": 6076,
      "256": 6077,
      "CKS": 6078,
      "Ġseek": 6079,
      "Redirects": 6080,
      "ĠNotFound": 6081,
      "Ġnormal": 6082,
      "OrderedDict": 6083,
      "mailto": 6084,
      "Ġsign": 6085,
      "~~~~~~~~~~~~": 6086,
      "Convert": 6087,
      "Ġ62": 6088,
      "chardet": 6089,
      "999": 6090,
      "registry": 6091,
      "Scope": 6092,
      "Ġmaintain": 6093,
      "googall": 6094,
      "=\"{{": 6095,
      "video": 6096,
      "Ġproperty": 6097,
      "CODE": 6098,
      "HASH": 6099,
      "DOC": 6100,
      "Ġdotenv": 6101,
      "ĠForbiddenSubclass": 6102,
      "Markup": 6103,
      "Result": 6104,
      "Ġreferen": 6105,
      "ĠASGIApp": 6106,
      "ĠOAuthFlow": 6107,
      "ĠCommonHeaders": 6108,
      "ĠShould": 6109,
      "transaction": 6110,
      "ĠMultiple": 6111,
      "converters": 6112,
      "blah": 6113,
      "ĠConnectTimeout": 6114,
      "ĠContextVar": 6115,
      "sentinel": 6116,
      "Ġdetermine": 6117,
      "toml": 6118,
      "Repository": 6119,
      "ETRC": 6120,
      "ANGOLO": 6121,
      "FORM": 6122,
      "Ġprivate": 6123,
      ":/.../": 6124,
      "passthrough": 6125,
      "poolio": 6126,
      "yourapplication": 6127,
      "ĠORJSONResponse": 6128,
      "dentifier": 6129,
      "rewindableBodyError": 6130,
      "BlockInfo": 6131,
      "Signature": 6132,
      "TOKEN": 6133,
      "rmtree": 6134,
      "attachment": 6135,
      "Ġcursor": 6136,
      "ooManyRedirects": 6137,
      "kennethreitz": 6138,
      "ĠWHERE": 6139,
      "lineCodeBlockInfo": 6140,
      "AppCtxGlobals": 6141,
      "unkedEncodingError": 6142,
      "!\"}": 6143,
      "!</": 6144,
      "%%": 6145,
      "'.": 6146,
      ")\\": 6147,
      ")},": 6148,
      ")}\"": 6149,
      "30": 6150,
      "70": 6151,
      "Done": 6152,
      "Fin": 6153,
      "Fsocket": 6154,
      "Frun": 6155,
      "Fvar": 6156,
      "Hash": 6157,
      "Is": 6158,
      "Jane": 6159,
      "Label": 6160,
      "MY": 6161,
      "Nib": 6162,
      "NTIC": 6163,
      "NETRC": 6164,
      "PY": 6165,
      "Po": 6166,
      "Per": 6167,
      "Person": 6168,
      "Sel": 6169,
      "Save": 6170,
      "TUP": 6171,
      "UAGE": 6172,
      "UTES": 6173,
      "Wh": 6174,
      "YLOAD": 6175,
      "[_": 6176,
      "\\'": 6177,
      "][": 6178,
      "]()": 6179,
      "]},": 6180,
      "]}})": 6181,
      "available": 6182,
      "bu": 6183,
      "bler": 6184,
      "cm": 6185,
      "celery": 6186,
      "dangerous": 6187,
      "elements": 6188,
      "fast": 6189,
      "facility": 6190,
      "go": 6191,
      "ggs": 6192,
      "ider": 6193,
      "jwt": 6194,
      "lookup": 6195,
      "mut": 6196,
      "mall": 6197,
      "na": 6198,
      "node": 6199,
      "pushed": 6200,
      "success": 6201,
      "syntax": 6202,
      "tz": 6203,
      "tables": 6204,
      "usc": 6205,
      "uce": 6206,
      "way": 6207,
      "yy": 6208,
      "yes": 6209,
      "yest": 6210,
      "}{": 6211,
      "Ġam": 6212,
      "Ġvalidations": 6213,
      "Ġencoder": 6214,
      "Ġextend": 6215,
      "Ġpeople": 6216,
      "ĠĠĠĠĠĠĠĠĠĠĠĠĠĠĠĠĠĠĠĠĠĠĠĠĠ": 6217,
      "Ġ\"`": 6218,
      "Ġ\"\\\\": 6219,
      "esets": 6220,
      "deep": 6221,
      "assets": 6222,
      "orCallable": 6223,
      "erday": 6224,
      "step": 6225,
      "Ġtar": 6226,
      "itten": 6227,
      "ponent": 6228,
      "legacy": 6229,
      "arbitrary": 6230,
      "already": 6231,
      "Ġren": 6232,
      "Ġcwd": 6233,
      "Ġcategories": 6234,
      "anc": 6235,
      "another": 6236,
      "anilla": 6237,
      "ution": 6238,
      "Ġflow": 6239,
      "ality": 6240,
      "Ġassumed": 6241,
      "Ġrequote": 6242,
      "Ġplease": 6243,
      "(\"\\": 6244,
      "()}\")": 6245,
      "()`.": 6246,
      "Ġbad": 6247,
      "Ġinner": 6248,
      "ĠTyp": 6249,
      "ĠTraceback": 6250,
      "ĠTooManyRedirects": 6251,
      "Ġdes": 6252,
      "Ġdescri": 6253,
      "Ġduplicate": 6254,
      "ĠFakeNumpyArray": 6255,
      "fish": 6256,
      "Ġsn": 6257,
      "Ġsess": 6258,
      "Ġsum": 6259,
      "Ġsix": 6260,
      "Ġimportance": 6261,
      "Ġwidth": 6262,
      "Ġwebhooks": 6263,
      "Ġmount": 6264,
      "unparse": 6265,
      "ĠAls": 6266,
      "statusc": 6267,
      "Errors": 6268,
      "ily": 6269,
      "PIRE": 6270,
      "ago": 6271,
      "__()": 6272,
      "veral": 6273,
      "versed": 6274,
      "isgenerator": 6275,
      "isasyncgen": 6276,
      "prod": 6277,
      "lices": 6278,
      "contents": 6279,
      "updates": 6280,
      "Ġthree": 6281,
      "Ġbecom": 6282,
      "=\"<": 6283,
      "=\"^": 6284,
      "\"]).": 6285,
      "Ġ(.": 6286,
      "Ġ(``": 6287,
      "chdir": 6288,
      "ModelA": 6289,
      "ModelB": 6290,
      "ModelNoAlias": 6291,
      "Ġexpr": 6292,
      "ĠSponsors": 6293,
      "ĠSNI": 6294,
      "Ġpyopenssl": 6295,
      "ĠCookies": 6296,
      "ĠClick": 6297,
      "Ġhref": 6298,
      "Ġrequested": 6299,
      "ĠPassed": 6300,
      "ĠOption": 6301,
      "ĠOff": 6302,
      "://%": 6303,
      ":///": 6304,
      "that": 6305,
      "third": 6306,
      "curren": 6307,
      "Registered": 6308,
      "Recursive": 6309,
      "objectlist": 6310,
      "ĠReplace": 6311,
      "Ġvia": 6312,
      "Ġvanilla": 6313,
      "preprocessors": 6314,
      "Extensions": 6315,
      "Ġcontents": 6316,
      "Ġcontributors": 6317,
      "track": 6318,
      "trust": 6319,
      "Ġ_,": 6320,
      "Ġeffect": 6321,
      "Ġ``{": 6322,
      "sizes": 6323,
      "validated": 6324,
      "validdict": 6325,
      "single": 6326,
      "ĠMethod": 6327,
      "ĠMiddleware": 6328,
      "Offset": 6329,
      "ĠAnyUrl": 6330,
      "Delete": 6331,
      "RequestDep": 6332,
      "Ġable": 6333,
      "Ġpropagate": 6334,
      "Ġprocessed": 6335,
      "formance": 6336,
      "Ġ'<": 6337,
      "Ġ'{\"": 6338,
      "Ġstyle": 6339,
      "subitem": 6340,
      "Ġ(\"-": 6341,
      "ayment": 6342,
      "needed": 6343,
      "Annotated": 6344,
      "bind": 6345,
      "unix": 6346,
      "Ġcombin": 6347,
      "Ġtrans": 6348,
      "MessageEvent": 6349,
      "minutes": 6350,
      "ialized": 6351,
      "generated": 6352,
      "ContextProcess": 6353,
      "messageText": 6354,
      "ĠGzip": 6355,
      "Ġ<=": 6356,
      "mplements": 6357,
      "Ġencodings": 6358,
      "}\"'": 6359,
      "ĠUserDB": 6360,
      "ĠLe": 6361,
      "ĠLookup": 6362,
      "ours": 6363,
      "Ġhashes": 6364,
      "prefixed": 6365,
      "appendChild": 6366,
      "ERR": 6367,
      "vant": 6368,
      "={},": 6369,
      "Ġ{}])": 6370,
      "SessionsDep": 6371,
      "deps": 6372,
      "concurren": 6373,
      "sendall": 6374,
      "ĠBodyModelRequiredList": 6375,
      "ĠBodyModelOptionalList": 6376,
      "blueprintapp": 6377,
      "Ġcreates": 6378,
      "Ġcreating": 6379,
      "translate": 6380,
      "translators": 6381,
      "ĠStart": 6382,
      "grandchild": 6383,
      "somevalue": 6384,
      "INFO": 6385,
      "Ġmaximum": 6386,
      "basename": 6387,
      "POR": 6388,
      "copyright": 6389,
      "MESI": 6390,
      "placeholder": 6391,
      "typeshed": 6392,
      "aterial": 6393,
      "ĠSessionFuncDep": 6394,
      "ORY": 6395,
      "ORJSONResponse": 6396,
      "lenet": 6397,
      "TokenError": 6398,
      "Adding": 6399,
      "FormData": 6400,
      "ĠParamTypes": 6401,
      "Comp": 6402,
      "Comments": 6403,
      "Ġmyapp": 6404,
      "specified": 6405,
      "job": 6406,
      "PAYLOAD": 6407,
      "Ġknow": 6408,
      "Ġbroken": 6409,
      "HeroBase": 6410,
      "ĠJust": 6411,
      "Ġwords": 6412,
      "Ġskipped": 6413,
      "OtherItem": 6414,
      "offers": 6415,
      "Product": 6416,
      "labels": 6417,
      "Ġtranslations": 6418,
      "Ġpreserve": 6419,
      "See": 6420,
      "Ġtravel": 6421,
      "Iterable": 6422,
      "2020": 6423,
      "sqlmodel": 6424,
      "sqlalchemy": 6425,
      "ĠExtract": 6426,
      "ĠProject": 6427,
      "InternalServerError": 6428,
      "']}\"": 6429,
      "Apache": 6430,
      "Parent": 6431,
      "Ġlabels": 6432,
      "Ġoverrides": 6433,
      "Conflict": 6434,
      "LinkAttribute": 6435,
      "Ġrequire": 6436,
      "traceback": 6437,
      "PROPAGATE": 6438,
      "convertor": 6439,
      "ĠauthorizationUrl": 6440,
      "Ġchunked": 6441,
      "TIANGOLO": 6442,
      "EXPIRE": 6443,
      "Ġunderlying": 6444,
      "Ġtimed": 6445,
      "Ġhashlib": 6446,
      "Filter": 6447,
      "Ġrepository": 6448,
      "Ġsends": 6449,
      "ACH": 6450,
      "ĠTokenData": 6451,
      "reference": 6452,
      "Ġreply": 6453,
      "ĠClassInstanceWrapped": 6454,
      "OpenIdConnect": 6455,
      "aaa": 6456,
      "ĠEnvironment": 6457,
      "SecurityBase": 6458,
      "Ġprimary": 6459,
      "ĠPasswordHash": 6460,
      "MINUTES": 6461,
      "ĠStaticFiles": 6462,
      "ĠJsonApiError": 6463,
      "ĠWrestlers": 6464,
      "ĠOAuthFlows": 6465,
      "ĠCommonQueryParams": 6466,
      "Prepares": 6467,
      "ĠPetDB": 6468,
      "Spam": 6469,
      "UMMY": 6470,
      "ĠHowever": 6471,
      "ACCESS": 6472,
      "Forbidden": 6473,
      "ĠAssets": 6474,
      "Ġattempts": 6475,
      "LANGUAGE": 6476,
      "InvoiceEventReceived": 6477,
      "BYTE": 6478,
      "Ġclosing": 6479,
      "draft": 6480,
      "authorize": 6481,
      "ĠClassInstanceAsyncWrapped": 6482,
      "shipAsMaintainer": 6483,
      "Ġseems": 6484,
      "DANTIC": 6485,
      "SAMESI": 6486,
      "Ġopaque": 6487,
      "ĠLoad": 6488,
      "ĠInstead": 6489,
      "Ġautocomplete": 6490,
      "OPEN": 6491,
      "alexnet": 6492,
      "DOCTYPE": 6493,
      "Finished": 6494,
      "Nibbler": 6495,
      "Self": 6496,
      "yesterday": 6497,
      "steps": 6498,
      "ĠAlso": 6499,
      "statuscode": 6500,
      "isgeneratorfunction": 6501,
      "isasyncgenfunction": 6502,
      "ĠOffer": 6503,
      "ContextProcessorCallable": 6504,
      "concurrency": 6505,
      "ConflictError": 6506,
      "SAMESITE": 6507,
      "\"({": 6508,
      "$'\",": 6509,
      "($": 6510,
      ");": 6511,
      "+?)": 6512,
      ",),": 6513,
      "-.": 6514,
      ".',": 6515,
      "/--": 6516,
      "314": 6517,
      "303": 6518,
      "418": 6519,
      "66": 6520,
      "79": 6521,
      ":\"": 6522,
      "=%": 6523,
      "=\\": 6524,
      "=\"\"": 6525,
      "After": 6526,
      "Age": 6527,
      "Awaitable": 6528,
      "Be": 6529,
      "BAD": 6530,
      "Co": 6531,
      "COD": 6532,
      "CaseInsensitiveDict": 6533,
      "ConnectionError": 6534,
      "Dis": 6535,
      "Dave": 6536,
      "EACH": 6537,
      "Fake": 6538,
      "Failed": 6539,
      "Global": 6540,
      "Here": 6541,
      "Highlight": 6542,
      "Im": 6543,
      "Man": 6544,
      "Make": 6545,
      "MET": 6546,
      "Net": 6547,
      "OU": 6548,
      "PER": 6549,
      "Qw": 6550,
      "Rule": 6551,
      "Stag": 6552,
      "Size": 6553,
      "Show": 6554,
      "ScriptInfo": 6555,
      "TS": 6556,
      "Tenders": 6557,
      "URE": 6558,
      "Wg": 6559,
      "Wor": 6560,
      "WORD": 6561,
      "XV": 6562,
      "Xc": 6563,
      "]}},": 6564,
      "_,": 6565,
      "aks": 6566,
      "builtin": 6567,
      "days": 6568,
      "dQw": 6569,
      "ef": 6570,
      "fp": 6571,
      "ftime": 6572,
      "frozenset": 6573,
      "iet": 6574,
      "iables": 6575,
      "ively": 6576,
      "kg": 6577,
      "kp": 6578,
      "layout": 6579,
      "most": 6580,
      "mic": 6581,
      "oai": 6582,
      "pg": 6583,
      "rg": 6584,
      "rag": 6585,
      "range": 6586,
      "sist": 6587,
      "sponsor": 6588,
      "solved": 6589,
      "slices": 6590,
      "uhik": 6591,
      "wb": 6592,
      "watch": 6593,
      "where": 6594,
      "xr": 6595,
      "yout": 6596,
      "{%": 6597,
      "Ã¤": 6598,
      "ĠQ": 6599,
      "Ġqu": 6600,
      "Ġzero": 6601,
      "Ġ\"\"})": 6602,
      "esents": 6603,
      "sep": 6604,
      "atform": 6605,
      "attempt": 6606,
      "enneth": 6607,
      "ascript": 6608,
      "lips": 6609,
      "inet": 6610,
      "inreg": 6611,
      "ordin": 6612,
      "stag": 6613,
      "Ġta": 6614,
      "Ġtable": 6615,
      "itch": 6616,
      "itespace": 6617,
      "hez": 6618,
      "entr": 6619,
      "aries": 6620,
      "algo": 6621,
      "Ġrows": 6622,
      "etim": 6623,
      "Ġimplements": 6624,
      "Ġfn": 6625,
      "Ġful": 6626,
      "Ġfuture": 6627,
      "defrag": 6628,
      "Ġassign": 6629,
      "exinfo": 6630,
      "Ġreplaces": 6631,
      "Ġreversed": 6632,
      "Ġpack": 6633,
      "Ġpull": 6634,
      "Ġpending": 6635,
      "getattr": 6636,
      "stract": 6637,
      "Ġtheme": 6638,
      "Ġbart": 6639,
      "Ġinject": 6640,
      "ĠTh": 6641,
      "ĠThen": 6642,
      "ĠTYPE": 6643,
      "\"}})": 6644,
      "Ġdiscrimin": 6645,
      "Ġdigits": 6646,
      "ĠFix": 6647,
      "ĠFixed": 6648,
      "Ġ[(\"": 6649,
      "Ġsyntax": 6650,
      "ading": 6651,
      "Ġwinreg": 6652,
      "notified": 6653,
      "apis": 6654,
      "apirouter": 6655,
      "Ġml": 6656,
      "Ġmat": 6657,
      "Ġmask": 6658,
      "unlink": 6659,
      "ĠAS": 6660,
      "outing": 6661,
      "outdated": 6662,
      "redict": 6663,
      "agic": 6664,
      "__).": 6665,
      "__])": 6666,
      "__}\"": 6667,
      "__\"):": 6668,
      "Ġissubclass": 6669,
      "presets": 6670,
      "ĠAnd": 6671,
      "Ġok": 6672,
      "ĠImage": 6673,
      "ume": 6674,
      "ĠDet": 6675,
      "Ġbeh": 6676,
      "Ġbegin": 6677,
      "\"]},": 6678,
      "\"](),": 6679,
      "\"]``.": 6680,
      "Ġ((\"": 6681,
      "stringified": 6682,
      "chunks": 6683,
      "platform": 6684,
      "ĠFastAPIDeprecationWarning": 6685,
      "acklist": 6686,
      "ĠSync": 6687,
      "ĠSphinx": 6688,
      "ĠScaffold": 6689,
      "depend": 6690,
      "anging": 6691,
      "ĠColle": 6692,
      "ĠPriority": 6693,
      "ube": 6694,
      "ĠOverri": 6695,
      "://\"": 6696,
      "ĠReitz": 6697,
      "Ġ.-.": 6698,
      "prepend": 6699,
      "ĠDelete": 6700,
      "trusted": 6701,
      "srcobj": 6702,
      "Ġlru": 6703,
      "Ġreset": 6704,
      "Ġflaskr": 6705,
      "Ġear": 6706,
      "Ġevalu": 6707,
      "ĠWill": 6708,
      "Ġgeneral": 6709,
      "Ġdicts": 6710,
      "Ġsection": 6711,
      "Ġseconds": 6712,
      "Ġseveral": 6713,
      "Ġurlencode": 6714,
      "Ġurlunparse": 6715,
      "Ġsha": 6716,
      "Ġshared": 6717,
      "Ġshutdown": 6718,
      "ĠMA": 6719,
      "ĠMinimum": 6720,
      "ĠItemOut": 6721,
      "policy": 6722,
      "Decoding": 6723,
      "Ġ19": 6724,
      "Author": 6725,
      "Ġ36": 6726,
      "Ġ'^": 6727,
      "ĠHTTPError": 6728,
      "ĠHTTPConnection": 6729,
      "inition": 6730,
      "Ġ23": 6731,
      "Ġtyped": 6732,
      "hosts": 6733,
      "Ġtrap": 6734,
      "Ġtrack": 6735,
      "Ġcontextmanager": 6736,
      "ĠSecure": 6737,
      "minlength": 6738,
      "Ġkeyfile": 6739,
      "Ġ[]},": 6740,
      "ĠGMT": 6741,
      "resnet": 6742,
      "Ġenough": 6743,
      "ĠFlaskCliRunner": 6744,
      "ĠRequestRedirect": 6745,
      "Ġunwrapped": 6746,
      "ĠUserWarning": 6747,
      "life": 6748,
      "lifetime": 6749,
      "ĠLAR": 6750,
      "itelist": 6751,
      "STU": 6752,
      "Ġhasn": 6753,
      "Encode": 6754,
      "Ġtrying": 6755,
      "multiline": 6756,
      "multidict": 6757,
      "Ġruns": 6758,
      "Ġrunning": 6759,
      "filtering": 6760,
      "Ġpassing": 6761,
      "ĠPydanticV": 6762,
      "ĠPydanticUndefined": 6763,
      "Unable": 6764,
      "major": 6765,
      "const": 6766,
      "RESH": 6767,
      "Ġviews": 6768,
      "ĠExternal": 6769,
      "Ġoverwr": 6770,
      "uide": 6771,
      "Ġconf": 6772,
      "Fixing": 6773,
      "CookieSessionInterface": 6774,
      "Ġprovider": 6775,
      "ardownCallable": 6776,
      "debugging": 6777,
      "POO": 6778,
      "Ġplay": 6779,
      "ĠproxyOverride": 6780,
      "Ġupper": 6781,
      "epub": 6782,
      "Ġidna": 6783,
      "fakehashed": 6784,
      "ĠForward": 6785,
      "aving": 6786,
      "Format": 6787,
      "Testing": 6788,
      "Ġopening": 6789,
      "Ġ425": 6790,
      "heses": 6791,
      "MAN": 6792,
      "Ġwrap": 6793,
      "Ġtranslate": 6794,
      "Variable": 6795,
      "Ġ308": 6796,
      "Ġnonlocal": 6797,
      "ĠBaseResponse": 6798,
      "ĠBaseLoader": 6799,
      "Ġcollect": 6800,
      "akesession": 6801,
      "Ġsomehow": 6802,
      "dotted": 6803,
      "Ġglobalns": 6804,
      "autouse": 6805,
      "Ġtmpdir": 6806,
      "Ġbrowsers": 6807,
      "recorded": 6808,
      "Submodel": 6809,
      "additionalProperties": 6810,
      "ĠValid": 6811,
      "ĠcreatedAt": 6812,
      "compact": 6813,
      "reqs": 6814,
      "Ġsynchronous": 6815,
      "reenlet": 6816,
      "Ġtrailing": 6817,
      "ĠPRs": 6818,
      "ĠOtherDependencyError": 6819,
      "APIKeyQuery": 6820,
      "APIKeyCookie": 6821,
      "APIKeyHeader": 6822,
      "SSLContext": 6823,
      "Ġworking": 6824,
      "icornException": 6825,
      "WebSocketRoute": 6826,
      "ĠChild": 6827,
      "ĠChunkedEncodingError": 6828,
      "Ġmade": 6829,
      "Ġhelps": 6830,
      "REFRESH": 6831,
      "Ġdispatching": 6832,
      "ApiResponse": 6833,
      ".*?)": 6834,
      "Ġtrigger": 6835,
      "Ġrefresh": 6836,
      "Ġexecute": 6837,
      "malinkInfo": 6838,
      "PydanticV": 6839,
      "PydanticUndefined": 6840,
      "Ġ2083": 6841,
      "ĠProxyError": 6842,
      "Ġdetection": 6843,
      "MyModel": 6844,
      "Ġ\"{$": 6845,
      "projects": 6846,
      "ĠContentDecoding": 6847,
      "8859": 6848,
      "NOT": 6849,
      "palletsprojects": 6850,
      "Ġentry": 6851,
      "forwardref": 6852,
      "TeardownCallable": 6853,
      "Ġplaceholders": 6854,
      "topic": 6855,
      "ĠTemplateNotFound": 6856,
      "Ġdumps": 6857,
      "Ġdepend": 6858,
      "Ġimplicit": 6859,
      "Ġpreferred": 6860,
      "Ġcomplex": 6861,
      "ACCEPT": 6862,
      "doesnt": 6863,
      "everything": 6864,
      "winreg": 6865,
      "Ġsuccessfully": 6866,
      "Ġcondition": 6867,
      "Ġconditional": 6868,
      "Ġtempfile": 6869,
      "Multiple": 6870,
      "escape": 6871,
      "ĠRequiredParam": 6872,
      "(...))": 6873,
      "Special": 6874,
      "fetchone": 6875,
      "hTTp": 6876,
      "ĠRemove": 6877,
      "ĠIterable": 6878,
      "repeats": 6879,
      "SwaggerUIBundle": 6880,
      "5536": 6881,
      "CacheKey": 6882,
      "MissingWarning": 6883,
      "Short": 6884,
      "Ġâľ": 6885,
      "delitem": 6886,
      "ĠModelNameMap": 6887,
      "Ġcodecs": 6888,
      "Ġweakref": 6889,
      "VALUE": 6890,
      "Ġpermissions": 6891,
      "Ġfavorite": 6892,
      "Blacklist": 6893,
      "implementation": 6894,
      "ĠLocalProxy": 6895,
      "Ġconstructor": 6896,
      "Ġreferenced": 6897,
      "PermalinkInfo": 6898,
      "TUPLE": 6899,
      "Whitelist": 6900,
      "mutation": 6901,
      "syntaxHighlight": 6902,
      "Ġrendered": 6903,
      "anchez": 6904,
      "AfterRequestCallable": 6905,
      "Staging": 6906,
      "WgXc": 6907,
      "ietf": 6908,
      "uhiko": 6909,
      "youtube": 6910,
      "lipsis": 6911,
      "ordinate": 6912,
      "etimes": 6913,
      "Ġbartenders": 6914,
      "Ġdiscriminating": 6915,
      "ĠOverrides": 6916,
      "ĠLARGE": 6917,
      "ĠContentDecodingError": 6918,
      "WgXcQ": 6919,
      "#:": 6920,
      "(#": 6921,
      "((\"": 6922,
      ")[\"": 6923,
      ")``,": 6924,
      ".'": 6925,
      "/\"):": 6926,
      "301": 6927,
      "3128": 6928,
      "443": 6929,
      "512": 6930,
      "65536": 6931,
      "900": 6932,
      "<!": 6933,
      "=\",": 6934,
      "AG": 6935,
      "Broken": 6936,
      "CJ": 6937,
      "CL": 6938,
      "Call": 6939,
      "CRE": 6940,
      "CURL": 6941,
      "Dive": 6942,
      "Dummy": 6943,
      "EMA": 6944,
      "Gci": 6945,
      "Given": 6946,
      "HOST": 6947,
      "IL": 6948,
      "IP": 6949,
      "IU": 6950,
      "It": 6951,
      "Isl": 6952,
      "IST": 6953,
      "ITEM": 6954,
      "Ikp": 6955,
      "Jh": 6956,
      "Mode": 6957,
      "Ni": 6958,
      "Obj": 6959,
      "OUT": 6960,
      "Oops": 6961,
      "Push": 6962,
      "PullRequest": 6963,
      "Rem": 6964,
      "SQL": 6965,
      "Tem": 6966,
      "Tim": 6967,
      "Total": 6968,
      "UDE": 6969,
      "VIO": 6970,
      "YDANTIC": 6971,
      "]>": 6972,
      "]\"],": 6973,
      "`](": 6974,
      "`\"))": 6975,
      "aid": 6976,
      "blob": 6977,
      "builder": 6978,
      "bGci": 6979,
      "cover": 6980,
      "cwarn": 6981,
      "cCI": 6982,
      "done": 6983,
      "dout": 6984,
      "dig": 6985,
      "duration": 6986,
      "ew": 6987,
      "fun": 6988,
      "false": 6989,
      "gres": 6990,
      "greenlet": 6991,
      "hy": 6992,
      "home": 6993,
      "ization": 6994,
      "lane": 6995,
      "men": 6996,
      "malformed": 6997,
      "oon": 6998,
      "poc": 6999,
      "pha": 7000,
      "payment": 7001,
      "pkg": 7002,
      "qp": 7003,
      "random": 7004,
      "tod": 7005,
      "tml": 7006,
      "ustr": 7007,
      "uard": 7008,
      "uations": 7009,
      "vince": 7010,
      "vascript": 7011,
      "wz": 7012,
      "yc": 7013,
      "yJh": 7014,
      "zI": 7015,
      "}_": 7016,
      "}_{": 7017,
      "¼ãĥ": 7018,
      "Ġ&": 7019,
      "Ġke": 7020,
      "Ġhel": 7021,
      "Ġutf": 7022,
      "ĠView": 7023,
      "Ġedge": 7024,
      "ĠĠĠĠĠĠĠĠĠĠĠĠĠĠĠĠĠĠĠĠĠĠ": 7025,
      "Ġ\")": 7026,
      "Ġ\"[": 7027,
      "Ġ\"\"),": 7028,
      "seg": 7029,
      "secho": 7030,
      "declared": 7031,
      "asons": 7032,
      "reus": 7033,
      "require": 7034,
      "inher": 7035,
      "inject": 7036,
      "ordered": 7037,
      "erop": 7038,
      "erred": 7039,
      "Ġ{'": 7040,
      "Ġ=====": 7041,
      "\",)": 7042,
      "stdout": 7043,
      "Ġtools": 7044,
      "ituations": 7045,
      "aper": 7046,
      "apot": 7047,
      "levant": 7048,
      "ares": 7049,
      "arily": 7050,
      "Ġrow": 7051,
      "Ġright": 7052,
      "amespace": 7053,
      "ĠĠĠĠĠĠĠĠĠĠĠĠĠĠĠĠĠĠĠĠĠĠĠĠĠĠĠĠĠĠĠĠĠĠĠĠ": 7054,
      "Ġchecks": 7055,
      "ana": 7056,
      "utomatic": 7057,
      "Ġip": 7058,
      "ationError": 7059,
      "ometimes": 7060,
      "approved": 7061,
      "Ġfive": 7062,
      "Ġfour": 7063,
      "Ġfighters": 7064,
      "definition": 7065,
      "urther": 7066,
      "alive": 7067,
      "Ġast": 7068,
      "expr": 7069,
      "Ġreload": 7070,
      "Ġreport": 7071,
      "Ġreco": 7072,
      "Ġprompt": 7073,
      "gether": 7074,
      "getcwd": 7075,
      "getLogger": 7076,
      "edit": 7077,
      "strs": 7078,
      "(\"'": 7079,
      "(\"\",": 7080,
      "(\"``": 7081,
      "(\"../": 7082,
      "(\"`\"))": 7083,
      "oney": 7084,
      "score": 7085,
      "rigin": 7086,
      "riends": 7087,
      "ĠText": 7088,
      "Ġaerop": 7089,
      "Ġdist": 7090,
      "Ġduration": 7091,
      "ĠFirst": 7092,
      "Ġ[{": 7093,
      "Ġsolve": 7094,
      "Ġslice": 7095,
      "Ġsituations": 7096,
      "odoc": 7097,
      "Ġimports": 7098,
      "Ġwind": 7099,
      "Ġwsgi": 7100,
      "notset": 7101,
      "Ġmeth": 7102,
      "Ġmiddlew": 7103,
      "Ġmacro": 7104,
      "Ġmoney": 7105,
      "unpack": 7106,
      "unrelated": 7107,
      "unpkg": 7108,
      "question": 7109,
      "pypy": 7110,
      "ĠActions": 7111,
      "uses": 7112,
      "ErrorHandler": 7113,
      "ilson": 7114,
      "__:": 7115,
      "__]": 7116,
      "__))": 7117,
      "tip": 7118,
      "idual": 7119,
      "isinstance": 7120,
      "Ġtogether": 7121,
      "Ġ-->": 7122,
      "ĠResponses": 7123,
      "ĠRectangle": 7124,
      "quires": 7125,
      "propagate": 7126,
      "Ġforce": 7127,
      "ĠIO": 7128,
      "ĠDiscriminator": 7129,
      "ĠDummy": 7130,
      "Ġ`\"": 7131,
      "teral": 7132,
      "play": 7133,
      "ModelWith": 7134,
      "ĠSame": 7135,
      "postgres": 7136,
      "anguage": 7137,
      "shops": 7138,
      "Ġgzip": 7139,
      "Ġgoog": 7140,
      "ĠCan": 7141,
      "ĠClean": 7142,
      "Ġhint": 7143,
      "Ġhard": 7144,
      "ĠPlease": 7145,
      "ĠPYDANTIC": 7146,
      "ĠOn": 7147,
      "ĠOwner": 7148,
      "ĠResponseLevel": 7149,
      "thir": 7150,
      "ersist": 7151,
      "argon": 7152,
      "works": 7153,
      "Ġdecorated": 7154,
      "prevent": 7155,
      "Ġlarge": 7156,
      "InR": 7157,
      "Init": 7158,
      "parents": 7159,
      "byte": 7160,
      "ItemOut": 7161,
      "ĠeyJh": 7162,
      ":`__": 7163,
      "ResponseModel": 7164,
      "ResponseData": 7165,
      "Ġ``(": 7166,
      "Ġyes": 7167,
      "filenames": 7168,
      "ĠWhether": 7169,
      "Ġurlparts": 7170,
      "Ġurldefrag": 7171,
      "ĠMap": 7172,
      "ĠMod": 7173,
      "ĠMay": 7174,
      "ĠMoved": 7175,
      "ĠMutableMapping": 7176,
      "ĠMoon": 7177,
      "pose": 7178,
      "ĠErrors": 7179,
      "Ġprotocol": 7180,
      "hiskey": 7181,
      "subapi": 7182,
      "subcounter": 7183,
      "ĠOpenKey": 7184,
      "igation": 7185,
      "JSONError": 7186,
      "Ġfileb": 7187,
      "Ġfileobj": 7188,
      "/{$": 7189,
      "ĠTypeAdapter": 7190,
      "slug": 7191,
      "Ġtrusted": 7192,
      "customer": 7193,
      "ĠHandling": 7194,
      "ĠHeroes": 7195,
      "ĠHAS": 7196,
      "Ġpreview": 7197,
      "general": 7198,
      "Ġ[]:": 7199,
      "))[": 7200,
      "oescap": 7201,
      "percent": 7202,
      "ĠJSONTag": 7203,
      "mitting": 7204,
      "ĠNO": 7205,
      "ĠNull": 7206,
      "ĠQueryValueEx": 7207,
      "flaskr": 7208,
      "flaskgroup": 7209,
      "Ġunbound": 7210,
      "leted": 7211,
      "letter": 7212,
      "documentation": 7213,
      "ĠLabel": 7214,
      "invalidlist": 7215,
      "UserBase": 7216,
      "Ġrunpy": 7217,
      "javascript": 7218,
      "patched": 7219,
      "ĠDefaultType": 7220,
      "Ġvisited": 7221,
      "ĠPydanticSchema": 7222,
      "eyJ": 7223,
      "ividual": 7224,
      "Ġdocuments": 7225,
      "Ġ418": 7226,
      "ĠBodyFieldInfo": 7227,
      "ĠSecuritySchemeType": 7228,
      "014": 7229,
      "Ġdirectories": 7230,
      "Ġconsist": 7231,
      "Ġapplications": 7232,
      "Ġanyio": 7233,
      "moved": 7234,
      "ĠFileMode": 7235,
      "myapp": 7236,
      "myheader": 7237,
      "myfile": 7238,
      "Notexistent": 7239,
      "__)\\": 7240,
      "Ġgiving": 7241,
      "INCL": 7242,
      "FileObj": 7243,
      "Ġmaxsize": 7244,
      "ĠUnrewindableBodyError": 7245,
      "Ġstarts": 7246,
      "Ġstarting": 7247,
      "POLI": 7248,
      "ADMIN": 7249,
      "ADATA": 7250,
      "--------------------": 7251,
      "ĠCookieConflictError": 7252,
      "Ġredirected": 7253,
      "MEOUT": 7254,
      "Ġupdating": 7255,
      "ĠCustomError": 7256,
      "ĠCustomFlask": 7257,
      "ĠSessionRequestDep": 7258,
      "LATION": 7259,
      "LIST": 7260,
      "Application": 7261,
      "AppGroup": 7262,
      "externalDocs": 7263,
      "commentors": 7264,
      "netloc": 7265,
      "TestCallable": 7266,
      "Ġpermalink": 7267,
      "Ġbackend": 7268,
      "Committing": 7269,
      "Created": 7270,
      "pools": 7271,
      "ĠAddress": 7272,
      "children": 7273,
      "Ġdisplay": 7274,
      "Ġiteritems": 7275,
      "1008": 7276,
      "Ġintegr": 7277,
      "Ġtranslators": 7278,
      "Ġ303": 7279,
      "groups": 7280,
      "NoAppException": 7281,
      "Ġacquire": 7282,
      "Ġdiscussions": 7283,
      "Ġrepresents": 7284,
      "fee": 7285,
      "okay": 7286,
      "sume": 7287,
      "]}``.": 7288,
      "Ġparentheses": 7289,
      "final": 7290,
      "ĠGetJsonSchema": 7291,
      "ongs": 7292,
      "AUTH": 7293,
      "ĠInvalidSchema": 7294,
      "ĠInvalidTokenError": 7295,
      "Subscription": 7296,
      "OtherDependencyError": 7297,
      "ĠWithJsonSchema": 7298,
      "extending": 7299,
      "GEST": 7300,
      "Log": 7301,
      "sidebar": 7302,
      "ConnectError": 7303,
      ")\">": 7304,
      "erry": 7305,
      "onthly": 7306,
      "ĠMyModel": 7307,
      "Ġseealso": 7308,
      "InvalidHeader": 7309,
      "Ġboundary": 7310,
      "Ġexpects": 7311,
      "GenerationError": 7312,
      "ĠTagDict": 7313,
      "gittip": 7314,
      "ĠStarletteBackgroundTasks": 7315,
      "Ġ%(": 7316,
      "Ġ%}": 7317,
      "Ġpositional": 7318,
      "Ġetag": 7319,
      "ĠSubmodel": 7320,
      "ĠSubscription": 7321,
      "Ġlastname": 7322,
      "----------------------------------------------------": 7323,
      "Parse": 7324,
      "Linking": 7325,
      "Ġbehaviour": 7326,
      "117": 7327,
      "AsyncDep": 7328,
      "Ġbuilding": 7329,
      "ludeInfo": 7330,
      "\"/></": 7331,
      "ĠChanging": 7332,
      "ModelRequiredListAlias": 7333,
      "ModelRequiredListStr": 7334,
      "ModelRequiredListValidationAlias": 7335,
      "ModelRequiredListAliasAndValidationAlias": 7336,
      "ModelOptionalListAlias": 7337,
      "ModelOptionalListStr": 7338,
      "ModelOptionalListValidationAlias": 7339,
      "ModelOptionalListAliasAndValidationAlias": 7340,
      "TIMEOUT": 7341,
      "findall": 7342,
      "EXIST": 7343,
      "issue": 7344,
      "IncludeInfo": 7345,
      "TemplateFilter": 7346,
      "TemplateGlobal": 7347,
      "TemplateTestCallable": 7348,
      "innerinvalid": 7349,
      "Ġpickled": 7350,
      "Ġwaiting": 7351,
      "ĠSSLContext": 7352,
      "board": 7353,
      "captured": 7354,
      "mermaid": 7355,
      "Ġuvicorn": 7356,
      "Ġ9001": 7357,
      "Ġfront": 7358,
      "ĠTLSServer": 7359,
      "Ġtraceparent": 7360,
      "ALL": 7361,
      "DIGEST": 7362,
      "ĠFilterParams": 7363,
      "Ġpurged": 7364,
      "Ġbelongs": 7365,
      "Ġexecutes": 7366,
      "ĠBadFileObj": 7367,
      "2019": 7368,
      "ampoo": 7369,
      "quoted": 7370,
      "ĠRegHandle": 7371,
      "MINOR": 7372,
      "Ġcause": 7373,
      "Ġimages": 7374,
      "Ġdotted": 7375,
      "REQUESTS": 7376,
      "ĠSimpleHTTP": 7377,
      "Deadpoolio": 7378,
      "partitioned": 7379,
      "exclusiveMaximum": 7380,
      "Ġspaces": 7381,
      "Ġexpose": 7382,
      "ĠSESSION": 7383,
      "Extract": 7384,
      "ĠModelWithPath": 7385,
      "CommonQueryParams": 7386,
      "ATED": 7387,
      "PREFIX": 7388,
      "SCHEMA": 7389,
      "Ġ--------------------------------------------------------------------------------------": 7390,
      "products": 7391,
      "TEMPLATE": 7392,
      "Spider": 7393,
      "ãĥ¼ãĥ": 7394,
      "Ġdepending": 7395,
      "straÃŁ": 7396,
      "Ġcompleted": 7397,
      "cfg": 7398,
      "Ġextension": 7399,
      "Ġlatin": 7400,
      "Ġlatex": 7401,
      "Allow": 7402,
      "Skipping": 7403,
      "Ġquoted": 7404,
      "Ġrecommends": 7405,
      "ĠDEFAULT": 7406,
      "ĠInvoiceEvent": 7407,
      "TESTING": 7408,
      "Ġbypassed": 7409,
      "openIdConnectUrl": 7410,
      "Ġgreenlets": 7411,
      "Ġhavin": 7412,
      "Ġproduction": 7413,
      "Grant": 7414,
      "temporary": 7415,
      "ĠPurePath": 7416,
      "OiJIU": 7417,
      "Aborter": 7418,
      "Boy": 7419,
      "ĠAbstract": 7420,
      "ĠCoroutine": 7421,
      "Ġeasier": 7422,
      "Ġinstanti": 7423,
      "Ġinterpret": 7424,
      "~~~~~~~~~~~~~~": 7425,
      "Results": 7426,
      "IsInR": 7427,
      "Ġamazing": 7428,
      "deepLinking": 7429,
      "ĠTypically": 7430,
      "ĠTracebackType": 7431,
      "ĠSNIMissingWarning": 7432,
      "ĠOptions": 7433,
      "RecursiveItem": 7434,
      "ERRORS": 7435,
      "placeholders": 7436,
      "ĠProjectLink": 7437,
      "METADATA": 7438,
      "XVCJ": 7439,
      "builtins": 7440,
      "micro": 7441,
      "wberry": 7442,
      "Ġfully": 7443,
      "Ġmatched": 7444,
      "ĠASCII": 7445,
      "Ġevaluate": 7446,
      "Ġ3600": 7447,
      "STUFF": 7448,
      "Ġplayin": 7449,
      "CREATED": 7450,
      "EMAIL": 7451,
      "Island": 7452,
      "ITEMS": 7453,
      "IkpXVCJ": 7454,
      "NiIsInR": 7455,
      "SQLModel": 7456,
      "VIOLATION": 7457,
      "bGciOiJIU": 7458,
      "pocoo": 7459,
      "tmlLinkInfo": 7460,
      "ustry": 7461,
      "Ġkept": 7462,
      "reusable": 7463,
      "Ġrecogn": 7464,
      "Ġaeroplane": 7465,
      "Ġwindow": 7466,
      "Ġmiddlewares": 7467,
      "ErrorHandlerCallable": 7468,
      "ĠOwnerError": 7469,
      "thirty": 7470,
      "preventDefault": 7471,
      "ĠeyJhbGciOiJIU": 7472,
      "ĠPydanticSchemaGenerationError": 7473,
      "INCLUDE": 7474,
      "POLICY": 7475,
      "ĠGetJsonSchemaHandler": 7476,
      "TemplateFilterCallable": 7477,
      "TemplateGlobalCallable": 7478,
      "straÃŁe": 7479,
      "ĠeyJhbGciOiJIUzI": 7480,
      "\"%": 7481,
      "\"?": 7482,
      "\"_{": 7483,
      "'m": 7484,
      "(...,": 7485,
      ")``": 7486,
      ")}\")": 7487,
      ")(**": 7488,
      ")})\"": 7489,
      "*,": 7490,
      "**.": 7491,
      ".\"}": 7492,
      ".\"),": 7493,
      "08": 7494,
      "28": 7495,
      "33": 7496,
      "3000": 7497,
      "3117": 7498,
      "45": 7499,
      "57": 7500,
      "63": 7501,
      "67": 7502,
      "8001": 7503,
      "91": 7504,
      "93": 7505,
      "913": 7506,
      "918": 7507,
      ":{": 7508,
      ":\",": 7509,
      ">\"),": 7510,
      "?\"": 7511,
      "Access": 7512,
      "All": 7513,
      "AIT": 7514,
      "Alice": 7515,
      "Automatic": 7516,
      "BLO": 7517,
      "BID": 7518,
      "BOM": 7519,
      "Called": 7520,
      "CER": 7521,
      "Count": 7522,
      "CLI": 7523,
      "CEN": 7524,
      "Deser": 7525,
      "EV": 7526,
      "Find": 7527,
      "FIN": 7528,
      "FALL": 7529,
      "Gra": 7530,
      "GitHub": 7531,
      "Hidden": 7532,
      "Http": 7533,
      "IS": 7534,
      "Klu": 7535,
      "Lifespan": 7536,
      "MD": 7537,
      "Me": 7538,
      "MIT": 7539,
      "NON": 7540,
      "Oauth": 7541,
      "ORE": 7542,
      "OCKS": 7543,
      "PFIN": 7544,
      "Ra": 7545,
      "Root": 7546,
      "Render": 7547,
      "Retry": 7548,
      "Ser": 7549,
      "System": 7550,
      "SHA": 7551,
      "Sanchez": 7552,
      "Tom": 7553,
      "Usage": 7554,
      "Verify": 7555,
      "\\_": 7556,
      "]@": 7557,
      "_=": 7558,
      "_\",": 7559,
      "bf": 7560,
      "bos": 7561,
      "cat": 7562,
      "car": 7563,
      "cing": 7564,
      "dp": 7565,
      "dont": 7566,
      "dim": 7567,
      "dog": 7568,
      "eli": 7569,
      "eep": 7570,
      "eople": 7571,
      "eggs": 7572,
      "fac": 7573,
      "fÃ¸": 7574,
      "fakesession": 7575,
      "gi": 7576,
      "gal": 7577,
      "gate": 7578,
      "gra": 7579,
      "iers": 7580,
      "identifier": 7581,
      "just": 7582,
      "ked": 7583,
      "lags": 7584,
      "mach": 7585,
      "mutable": 7586,
      "mazing": 7587,
      "nav": 7588,
      "predict": 7589,
      "rm": 7590,
      "raph": 7591,
      "racker": 7592,
      "rpartition": 7593,
      "sv": 7594,
      "sures": 7595,
      "tP": 7596,
      "tree": 7597,
      "tended": 7598,
      "vation": 7599,
      "vis": 7600,
      "vocabulary": 7601,
      "ware": 7602,
      "webhook": 7603,
      "xab": 7604,
      "xfe": 7605,
      "you": 7606,
      "yles": 7607,
      "ymb": 7608,
      "yjob": 7609,
      "zd": 7610,
      "Ġut": 7611,
      "Ġstat": 7612,
      "Ġ80": 7613,
      "ĠXX": 7614,
      "Ġ999": 7615,
      "ħ\")": 7616,
      "ļĢ": 7617,
      "ĠĠĠĠĠĠĠĠĠĠĠĠĠĠĠĠĠ": 7618,
      "Ġ\"*": 7619,
      "Ġ\":": 7620,
      "Ġ\"?": 7621,
      "Ġ\"!\"": 7622,
      "Ġ\"ðŁ": 7623,
      "sequ": 7624,
      "aton": 7625,
      "atracker": 7626,
      "deo": 7627,
      "enctype": 7628,
      "asses": 7629,
      "report": 7630,
      "receiv": 7631,
      "incomplete": 7632,
      "Ġ{**": 7633,
      "Ġ===": 7634,
      "stan": 7635,
      "standalone": 7636,
      "Ġtd": 7637,
      "Ġtz": 7638,
      "Ġtab": 7639,
      "Ġtreat": 7640,
      "Ġtiers": 7641,
      "itali": 7642,
      "itance": 7643,
      "ently": 7644,
      "legal": 7645,
      "leyjob": 7646,
      "ars": 7647,
      "arItem": 7648,
      "arded": 7649,
      "altern": 7650,
      "ĠĠĠĠĠĠĠĠĠĠĠĠĠĠĠĠĠĠĠĠĠĠĠĠĠĠĠĠĠĠĠĠĠĠĠĠĠĠĠĠĠĠĠĠĠĠĠĠĠĠĠĠĠĠĠĠĠĠĠĠĠĠĠ": 7651,
      "Ġcal": 7652,
      "Ġcop": 7653,
      "Ġcake": 7654,
      "Ġcol": 7655,
      "ĠcStringIO": 7656,
      "Ġfg": 7657,
      "Ġflashed": 7658,
      "Ġfriends": 7659,
      "peat": 7660,
      "Ġreal": 7661,
      "Ġreally": 7662,
      "Ġreloader": 7663,
      "Ġretry": 7664,
      "Ġreviews": 7665,
      "Ġreloading": 7666,
      "Ġpush": 7667,
      "strftime": 7668,
      "(\"%": 7669,
      "(\"=": 7670,
      "(\"\")": 7671,
      "()`": 7672,
      "()),": 7673,
      "()``": 7674,
      "()])": 7675,
      "()`,": 7676,
      "()}\\": 7677,
      "()}\"}": 7678,
      "Ġbind": 7679,
      "Ġbuf": 7680,
      "Ġincorrect": 7681,
      "ĠTuple": 7682,
      "ĠTakes": 7683,
      "Ġawesome": 7684,
      "Ġdi": 7685,
      "Ġdrop": 7686,
      "Ġdangerous": 7687,
      "five": 7688,
      "fici": 7689,
      "Ġ['": 7690,
      "ellipsis": 7691,
      "Ġsw": 7692,
      "Ġsur": 7693,
      "Ġwebhook": 7694,
      "notes": 7695,
      "notblueval": 7696,
      "extended": 7697,
      "Ġmits": 7698,
      "Ġmixin": 7699,
      "Ġmemory": 7700,
      "Ġmaterial": 7701,
      "Ġmagic": 7702,
      "untag": 7703,
      "unreserved": 7704,
      "(\"/\"),": 7705,
      "ĠAc": 7706,
      "ĠAp": 7707,
      "ĠAfter": 7708,
      "ĠArg": 7709,
      "ĠAmazing": 7710,
      "agine": 7711,
      "tially": 7712,
      "isdir": 7713,
      "ishing": 7714,
      "compress": 7715,
      "combos": 7716,
      "ĠtoReturn": 7717,
      "contains": 7718,
      "pended": 7719,
      "escript": 7720,
      "quick": 7721,
      "Ġforward": 7722,
      "Ġappear": 7723,
      "acert": 7724,
      "ĠDoh": 7725,
      "Ġ`__": 7726,
      "opener": 7727,
      "httpx": 7728,
      "Ġbearer": 7729,
      "setLevel": 7730,
      "\"]],": 7731,
      "abase": 7732,
      "HTTPAuthorizationCredentials": 7733,
      "HTTPStatus": 7734,
      "[\"\\'": 7735,
      "Ġnum": 7736,
      "routers": 7737,
      "plane": 7738,
      "Ġnotabase": 7739,
      "Ġexits": 7740,
      "Ġexperts": 7741,
      "Ġexceeded": 7742,
      "ĠSup": 7743,
      "ĠSchem": 7744,
      "ĠSince": 7745,
      "ĠSOCKS": 7746,
      "row": 7747,
      "ross": 7748,
      "LENG": 7749,
      "shop": 7750,
      "Ġgot": 7751,
      "ĠCre": 7752,
      "Ġhack": 7753,
      "Ġhigh": 7754,
      "Ġ:]": 7755,
      "ĠPre": 7756,
      "ĠPage": 7757,
      "ĠPullRequest": 7758,
      "ĠPeople": 7759,
      "ĠResponseModel": 7760,
      "importerror": 7761,
      "Reg": 7762,
      "Regist": 7763,
      "ĠUses": 7764,
      "ĠUsing": 7765,
      "ĠUpload": 7766,
      "nows": 7767,
      "BaseUser": 7768,
      "Ġdelimiter": 7769,
      "iration": 7770,
      "Ġva": 7771,
      "Expected": 7772,
      "Ġorg": 7773,
      "Ġlookup": 7774,
      "Ġresol": 7775,
      "authenticate": 7776,
      "readthe": 7777,
      "Ġeager": 7778,
      "ResponseClass": 7779,
      "Ġ``--": 7780,
      "-----": 7781,
      "fileno": 7782,
      "ĠWilson": 7783,
      "sider": 7784,
      "Ġurlsplit": 7785,
      "Ġurljoin": 7786,
      "ĠThey": 7787,
      "ĠBroken": 7788,
      "ĠMer": 7789,
      "ĠMatch": 7790,
      "ĠMax": 7791,
      "ĠMIME": 7792,
      "Decorator": 7793,
      "RequestHandler": 7794,
      "anyForm": 7795,
      "Ġ38": 7796,
      "ĠHTTPS": 7797,
      "ĠHTTPBaseModel": 7798,
      "ĠHTTPServer": 7799,
      "initial": 7800,
      "submodule": 7801,
      "ĠOpenID": 7802,
      "Ġwhitespace": 7803,
      "Control": 7804,
      "province": 7805,
      "ipv": 7806,
      "cookielib": 7807,
      "ĠPathItem": 7808,
      "QueryValueEx": 7809,
      "ĠTypedDict": 7810,
      "Ġcomma": 7811,
      "Ġcomputed": 7812,
      "ĠModelV": 7813,
      "Ġtrv": 7814,
      "ĠAPIWebSocketRoute": 7815,
      "Ġ502": 7816,
      "included": 7817,
      "isclass": 7818,
      "ĠHas": 7819,
      "minor": 7820,
      "generation": 7821,
      "generic": 7822,
      "Ġfilenames": 7823,
      "staticfiles": 7824,
      "ĠGt": 7825,
      "Ġ<!--": 7826,
      "respect": 7827,
      "])\"": 7828,
      "patching": 7829,
      "Ġenc": 7830,
      "ĠNuff": 7831,
      "ĠRequestException": 7832,
      "Ġunused": 7833,
      "Ġunpick": 7834,
      "}\".": 7835,
      "Values": 7836,
      "ĠLt": 7837,
      "ĠLocation": 7838,
      "ĠLargeOut": 7839,
      "serializable": 7840,
      "prefixindex": 7841,
      "latin": 7842,
      "ĠDefaultJSONProvider": 7843,
      "secrets": 7844,
      "ĠConfigAttribute": 7845,
      "indirect": 7846,
      "SessionMixin": 7847,
      "noreply": 7848,
      "ferred": 7849,
      "FlaskGroup": 7850,
      "leanup": 7851,
      "Ġblueprintapp": 7852,
      "Ġendpoints": 7853,
      "ants": 7854,
      "Ġserializable": 7855,
      "Ġconsider": 7856,
      "gression": 7857,
      "Ġanything": 7858,
      "Note": 7859,
      "Ġgives": 7860,
      "TED": 7861,
      "ĠCallableDependency": 7862,
      "ĠCallableGenDependency": 7863,
      "swaggerUI": 7864,
      "ĠWebSockets": 7865,
      "simplejson": 7866,
      "ĠUnicornException": 7867,
      "debughelpers": 7868,
      "aking": 7869,
      "achute": 7870,
      "extracted": 7871,
      "Ġchecking": 7872,
      "ĠredirectUrl": 7873,
      "166": 7874,
      "Ġvars": 7875,
      "Ġquerystring": 7876,
      "autodoc": 7877,
      "embers": 7878,
      "ĠSessionInterface": 7879,
      "SSWORD": 7880,
      "BlueprintSetupState": 7881,
      "variables": 7882,
      "]]]": 7883,
      "Ġremoving": 7884,
      "')])": 7885,
      "')}\"": 7886,
      "avigation": 7887,
      "netmask": 7888,
      "Ġacts": 7889,
      "Ġleft": 7890,
      "Ġleading": 7891,
      "Ġpercent": 7892,
      "Ġperformance": 7893,
      "Ġbackward": 7894,
      "Ġregistering": 7895,
      "ĠAppGroup": 7896,
      "ĠopenIdConnect": 7897,
      "Creates": 7898,
      "translations": 7899,
      "loaders": 7900,
      "Ġmaybe": 7901,
      "Ġdeploy": 7902,
      "MAIN": 7903,
      "ediaType": 7904,
      "Ġwrong": 7905,
      "Ġwriting": 7906,
      "Ġyourself": 7907,
      "ilities": 7908,
      "Ġknows": 7909,
      "pydanticv": 7910,
      "ĠBaseEnvironment": 7911,
      "Ġinterdim": 7912,
      "ĠJav": 7913,
      "Ġ\"\".": 7914,
      "ProxyMixin": 7915,
      "ProxyOverride": 7916,
      "OAuthF": 7917,
      "DependencyWarning": 7918,
      "Ġdoing": 7919,
      "ĠCompat": 7920,
      "ENCOD": 7921,
      "ĠInvalidProxyURL": 7922,
      "ĠRequestsDependencyWarning": 7923,
      "Ġconfigurations": 7924,
      "\"<{": 7925,
      "compatible": 7926,
      "compatibility": 7927,
      "ensional": 7928,
      "sideend": 7929,
      "ĠVocabulary": 7930,
      "ĠAuthentic": 7931,
      "checkout": 7932,
      "Chat": 7933,
      "Produ": 7934,
      "728": 7935,
      "window": 7936,
      "Ġmanage": 7937,
      "Ġmanual": 7938,
      "ĠContributors": 7939,
      "InvalidURL": 7940,
      "RedirectOauth": 7941,
      "Second": 7942,
      "Generic": 7943,
      "Ġaround": 7944,
      "Ġnormalize": 7945,
      "ĠStarletteUploadFile": 7946,
      "ĠStarletteHTTPException": 7947,
      "authorizationUrl": 7948,
      "authorizationCode": 7949,
      "Setting": 7950,
      "monthly": 7951,
      "ĠPlain": 7952,
      "([^": 7953,
      "([]))": 7954,
      "([])\"": 7955,
      "ĠTracker": 7956,
      "ĠSubdomain": 7957,
      "ĠSetting": 7958,
      "ATTEM": 7959,
      "~~~~~~~~~~~~~~~~": 7960,
      "PROV": 7961,
      "PROPFIN": 7962,
      "Ġimplementations": 7963,
      "CustomEncode": 7964,
      "syspath": 7965,
      "chars": 7966,
      "ĠCurrently": 7967,
      "Ġnecessarily": 7968,
      "Ġconsumed": 7969,
      "Ġinputs": 7970,
      "Write": 7971,
      "datatracker": 7972,
      "Ġmarkupsafe": 7973,
      "Ġujson": 7974,
      ".*?": 7975,
      "early": 7976,
      "Ġowned": 7977,
      "johnsecret": 7978,
      "Ġtrim": 7979,
      "aneItem": 7980,
      "Ġrepresenting": 7981,
      "fsRef": 7982,
      "OpenAPI": 7983,
      "cidr": 7984,
      "irection": 7985,
      "Ġvideo": 7986,
      "PydanticModel": 7987,
      "BadRequest": 7988,
      "Ġheads": 7989,
      "12345": 7990,
      "delay": 7991,
      "themes": 7992,
      "Ġimmedi": 7993,
      "Ġimagine": 7994,
      "PTS": 7995,
      "Ġcompany": 7996,
      "latformRole": 7997,
      "Transl": 7998,
      "Ġsplit": 7999
    },
    "merges": [
      [
        "Ġ",
        "Ġ"
      ],
      [
        "ĠĠ",
        "ĠĠ"
      ],
      [
        "ĠĠĠĠ",
        "ĠĠĠĠ"
      ],
      [
        "č",
        "Ċ"
      ],
      [
        "ĠĠ",
        "Ġ"
      ],
      [
        "ĠĠĠĠĠĠĠĠ",
        "ĠĠĠĠĠĠĠĠ"
      ],
      [
        "Ġ",
        "\""
      ],
      [
        "o",
        "n"
      ],
      [
        "ĠĠĠĠ",
        "ĠĠĠ"
      ],
      [
        "e",
        "s"
      ],
      [
        "\"",
        ":"
      ],
      [
        "s",
        "e"
      ],
      [
        "a",
        "t"
      ],
      [
        "d",
        "e"
      ],
      [
        "e",
        "n"
      ],
      [
        "a",
        "s"
      ],
      [
        "r",
        "e"
      ],
      [
        "l",
        "i"
      ],
      [
        "i",
        "n"
      ],
      [
        "o",
        "r"
      ],
      [
        "e",
        "r"
      ],
      [
        "ĠĠĠĠĠĠĠĠ",
        "ĠĠĠ"
      ],
      [
        "Ġ",
        "{"
      ],
      [
        "Ġ",
        "="
      ],
      [
        "\"",
        ","
      ],
      [
        "i",
        "on"
      ],
      [
        "ĠĠĠĠĠĠĠĠ",
        "ĠĠĠĠĠĠĠ"
      ],
      [
        "s",
        "t"
      ],
      [
        "Ġ",
        "t"
      ],
      [
        "i",
        "t"
      ],
      [
        "es",
        "t"
      ],
      [
        "a",
        "p"
      ],
      [
        "p",
        "on"
      ],
      [
        "h",
        "e"
      ],
      [
        "en",
        "t"
      ],
      [
        "es",
        "pon"
      ],
      [
        "l",
        "e"
      ],
      [
        "Ġ",
        "}"
      ],
      [
        "a",
        "r"
      ],
      [
        "a",
        "l"
      ],
      [
        "Ġ",
        "r"
      ],
      [
        "espon",
        "se"
      ],
      [
        "a",
        "m"
      ],
      [
        "e",
        "t"
      ],
      [
        "ĠĠĠĠĠĠĠĠĠĠĠĠĠĠĠĠ",
        "ĠĠĠĠĠĠĠĠĠĠĠĠĠĠĠĠ"
      ],
      [
        "Ġ",
        "c"
      ],
      [
        "a",
        "n"
      ],
      [
        "u",
        "t"
      ],
      [
        "se",
        "r"
      ],
      [
        "Ġ",
        "i"
      ],
      [
        "at",
        "ion"
      ],
      [
        "o",
        "m"
      ],
      [
        "ap",
        "p"
      ],
      [
        "Ġ",
        "f"
      ],
      [
        "de",
        "f"
      ],
      [
        "o",
        "de"
      ],
      [
        "u",
        "r"
      ],
      [
        "Ġr",
        "esponse"
      ],
      [
        "a",
        "li"
      ],
      [
        "q",
        "u"
      ],
      [
        "=",
        "="
      ],
      [
        "Ġ",
        "as"
      ],
      [
        "li",
        "ent"
      ],
      [
        "e",
        "x"
      ],
      [
        "e",
        "m"
      ],
      [
        ")",
        ":"
      ],
      [
        "p",
        "e"
      ],
      [
        "Ġ}",
        ","
      ],
      [
        "Ġ",
        "re"
      ],
      [
        "c",
        "t"
      ],
      [
        "ĠĠĠĠĠĠĠĠĠĠĠĠĠĠĠĠ",
        "ĠĠĠĠĠĠĠĠĠĠĠĠĠĠĠ"
      ],
      [
        "ĠĠĠĠĠĠĠĠĠĠĠĠĠĠĠĠ",
        "ĠĠĠĠĠĠĠ"
      ],
      [
        "Ġ",
        "p"
      ],
      [
        "-",
        "-"
      ],
      [
        "g",
        "et"
      ],
      [
        "e",
        "d"
      ],
      [
        "o",
        "c"
      ],
      [
        "ĠĠĠĠĠĠĠĠĠĠĠĠĠĠĠĠ",
        "ĠĠĠĠĠĠĠĠĠĠĠ"
      ],
      [
        "o",
        "p"
      ],
      [
        "st",
        "r"
      ],
      [
        "ser",
        "t"
      ],
      [
        "(",
        "\""
      ],
      [
        "Ġas",
        "sert"
      ],
      [
        "in",
        "g"
      ],
      [
        "o",
        "t"
      ],
      [
        "on",
        "e"
      ],
      [
        "y",
        "pe"
      ],
      [
        "or",
        "t"
      ],
      [
        "m",
        "p"
      ],
      [
        "\"",
        ")"
      ],
      [
        "Ġ{",
        "\""
      ],
      [
        "s",
        "c"
      ],
      [
        "N",
        "one"
      ],
      [
        "am",
        "e"
      ],
      [
        "Ġ=",
        "="
      ],
      [
        "at",
        "h"
      ],
      [
        "Ġt",
        "he"
      ],
      [
        "(",
        ")"
      ],
      [
        "mp",
        "ort"
      ],
      [
        "Ġ",
        "b"
      ],
      [
        "r",
        "i"
      ],
      [
        "Ġ",
        "in"
      ],
      [
        "n",
        "ame"
      ],
      [
        "Ġ",
        "T"
      ],
      [
        "Ġ",
        "None"
      ],
      [
        "t",
        "ion"
      ],
      [
        "it",
        "em"
      ],
      [
        "u",
        "l"
      ],
      [
        "t",
        "ype"
      ],
      [
        "he",
        "m"
      ],
      [
        "ode",
        "l"
      ],
      [
        "\"",
        "}"
      ],
      [
        "r",
        "or"
      ],
      [
        "s",
        "on"
      ],
      [
        "sc",
        "hem"
      ],
      [
        "t",
        "est"
      ],
      [
        "Ġ",
        "a"
      ],
      [
        "as",
        "t"
      ],
      [
        "Ġ",
        "d"
      ],
      [
        "j",
        "son"
      ],
      [
        "Ġ",
        "F"
      ],
      [
        "r",
        "om"
      ],
      [
        "ali",
        "d"
      ],
      [
        "f",
        "i"
      ],
      [
        "ur",
        "n"
      ],
      [
        "ĠĠĠĠĠĠĠĠĠĠĠĠĠĠĠĠ",
        "ĠĠĠ"
      ],
      [
        "Ġ",
        "["
      ],
      [
        "e",
        "l"
      ],
      [
        "Ġ",
        "s"
      ],
      [
        "0",
        "0"
      ],
      [
        "o",
        "d"
      ],
      [
        "u",
        "e"
      ],
      [
        "Ġi",
        "mport"
      ],
      [
        "t",
        "urn"
      ],
      [
        "p",
        "ath"
      ],
      [
        "a",
        "d"
      ],
      [
        "on",
        "t"
      ],
      [
        "o",
        "o"
      ],
      [
        "ar",
        "am"
      ],
      [
        "Ġ",
        "w"
      ],
      [
        "c",
        "e"
      ],
      [
        "l",
        "o"
      ],
      [
        "n",
        "ot"
      ],
      [
        "Ġt",
        "est"
      ],
      [
        "ap",
        "i"
      ],
      [
        "ex",
        "t"
      ],
      [
        "Ġre",
        "turn"
      ],
      [
        "==",
        "=="
      ],
      [
        "p",
        "tion"
      ],
      [
        "Ġ",
        "m"
      ],
      [
        "u",
        "n"
      ],
      [
        "Ġ",
        "def"
      ],
      [
        "l",
        "as"
      ],
      [
        "qu",
        "est"
      ],
      [
        "Ġc",
        "lient"
      ],
      [
        "\"",
        "\""
      ],
      [
        "it",
        "le"
      ],
      [
        "f",
        "rom"
      ],
      [
        "alid",
        "ation"
      ],
      [
        "es",
        "s"
      ],
      [
        "p",
        "y"
      ],
      [
        "(\"",
        "/"
      ],
      [
        "Ġ",
        "A"
      ],
      [
        "u",
        "s"
      ],
      [
        "t",
        "itle"
      ],
      [
        "o",
        "ut"
      ],
      [
        "st",
        "at"
      ],
      [
        "]",
        ","
      ],
      [
        "r",
        "ror"
      ],
      [
        "E",
        "rror"
      ],
      [
        "c",
        "ode"
      ],
      [
        "i",
        "l"
      ],
      [
        "P",
        "I"
      ],
      [
        "ali",
        "as"
      ],
      [
        "re",
        "d"
      ],
      [
        "a",
        "g"
      ],
      [
        "m",
        "odel"
      ],
      [
        "p",
        "aram"
      ],
      [
        "n",
        "c"
      ],
      [
        "_",
        "_"
      ],
      [
        "se",
        "l"
      ],
      [
        "Ġ\"",
        "\"\""
      ],
      [
        "sel",
        "f"
      ],
      [
        "Ġ",
        "str"
      ],
      [
        "t",
        "i"
      ],
      [
        "v",
        "er"
      ],
      [
        "Ġ",
        ")"
      ],
      [
        "at",
        "e"
      ],
      [
        "i",
        "d"
      ],
      [
        "i",
        "s"
      ],
      [
        "c",
        "om"
      ],
      [
        "Ġt",
        "o"
      ],
      [
        "A",
        "PI"
      ],
      [
        "\"}",
        ","
      ],
      [
        "an",
        "d"
      ],
      [
        "schem",
        "a"
      ],
      [
        "de",
        "r"
      ],
      [
        "at",
        "ed"
      ],
      [
        "Ġi",
        "s"
      ],
      [
        "stat",
        "us"
      ],
      [
        "item",
        "s"
      ],
      [
        "c",
        "ont"
      ],
      [
        "ĠĠĠĠĠĠĠĠĠĠĠĠĠĠĠĠĠĠĠĠĠĠĠĠĠĠĠĠĠĠĠĠ",
        "ĠĠĠ"
      ],
      [
        "c",
        "ri"
      ],
      [
        "p",
        "en"
      ],
      [
        "Ġ",
        "--"
      ],
      [
        "es",
        "cri"
      ],
      [
        "al",
        "l"
      ],
      [
        "escri",
        "ption"
      ],
      [
        "Ġ",
        "R"
      ],
      [
        "Ġ--",
        "-"
      ],
      [
        "h",
        "t"
      ],
      [
        "Ġ",
        "#"
      ],
      [
        "qu",
        "i"
      ],
      [
        "op",
        "er"
      ],
      [
        "ul",
        "t"
      ],
      [
        "it",
        "h"
      ],
      [
        "at",
        "a"
      ],
      [
        "qui",
        "red"
      ],
      [
        "v",
        "al"
      ],
      [
        "ast",
        "API"
      ],
      [
        "Ġi",
        "f"
      ],
      [
        "u",
        "ser"
      ],
      [
        "2",
        "00"
      ],
      [
        "or",
        "i"
      ],
      [
        "ĠĠĠĠĠĠĠĠĠĠĠĠĠĠĠĠĠĠĠĠĠĠĠĠĠĠĠĠĠĠĠĠ",
        "ĠĠĠĠĠĠĠ"
      ],
      [
        "V",
        "alidation"
      ],
      [
        "Ġ",
        "|"
      ],
      [
        "p",
        "r"
      ],
      [
        "las",
        "s"
      ],
      [
        "Ġf",
        "or"
      ],
      [
        "C",
        "lient"
      ],
      [
        "d",
        "escription"
      ],
      [
        "Ġ",
        "app"
      ],
      [
        "ĠA",
        "n"
      ],
      [
        "li",
        "c"
      ],
      [
        "o",
        "st"
      ],
      [
        "Ġ",
        "o"
      ],
      [
        "(",
        "):"
      ],
      [
        "Ġ",
        "I"
      ],
      [
        "cont",
        "ent"
      ],
      [
        "a",
        "der"
      ],
      [
        "ast",
        "api"
      ],
      [
        "u",
        "m"
      ],
      [
        "a",
        "c"
      ],
      [
        "oc",
        "s"
      ],
      [
        "Ġ",
        "D"
      ],
      [
        "ĠT",
        "est"
      ],
      [
        "e",
        "ct"
      ],
      [
        "re",
        "quired"
      ],
      [
        "el",
        "d"
      ],
      [
        "li",
        "st"
      ],
      [
        "Ġ\"",
        "/"
      ],
      [
        "Ġ",
        "`"
      ],
      [
        "ĠTest",
        "Client"
      ],
      [
        "op",
        "en"
      ],
      [
        "u",
        "p"
      ],
      [
        "ur",
        "l"
      ],
      [
        "Ġt",
        "h"
      ],
      [
        "====",
        "===="
      ],
      [
        "y",
        "nc"
      ],
      [
        "t",
        "p"
      ],
      [
        "ht",
        "tp"
      ],
      [
        "a",
        "ult"
      ],
      [
        "t",
        "em"
      ],
      [
        "c",
        "lient"
      ],
      [
        "r",
        "a"
      ],
      [
        "in",
        "t"
      ],
      [
        "H",
        "T"
      ],
      [
        "Ġb",
        "e"
      ],
      [
        "se",
        "t"
      ],
      [
        "k",
        "e"
      ],
      [
        "=",
        "\""
      ],
      [
        "od",
        "y"
      ],
      [
        "ut",
        "h"
      ],
      [
        "er",
        "y"
      ],
      [
        "\"",
        "]"
      ],
      [
        "r",
        "ue"
      ],
      [
        "r",
        "esponse"
      ],
      [
        "lic",
        "ation"
      ],
      [
        "c",
        "lass"
      ],
      [
        "a",
        "b"
      ],
      [
        "ĠĠĠĠĠĠĠĠĠĠĠĠĠĠĠĠĠĠĠĠĠĠĠĠĠĠĠĠĠĠĠĠ",
        "ĠĠĠĠĠĠĠĠĠĠĠĠĠĠĠ"
      ],
      [
        "Ġ",
        "("
      ],
      [
        "ĠĠĠĠĠĠĠĠĠĠĠĠĠĠĠĠĠĠĠĠĠĠĠĠĠĠĠĠĠĠĠĠ",
        "ĠĠĠĠĠĠĠĠĠĠĠ"
      ],
      [
        "ut",
        "ori"
      ],
      [
        "utori",
        "al"
      ],
      [
        "he",
        "ader"
      ],
      [
        "re",
        "quest"
      ],
      [
        "ent",
        "s"
      ],
      [
        "t",
        "utorial"
      ],
      [
        "T",
        "P"
      ],
      [
        "HT",
        "TP"
      ],
      [
        "Ġ",
        "self"
      ],
      [
        "[",
        "\""
      ],
      [
        "str",
        "ing"
      ],
      [
        "oper",
        "ation"
      ],
      [
        "open",
        "api"
      ],
      [
        "val",
        "ue"
      ],
      [
        "m",
        "ar"
      ],
      [
        "c",
        "h"
      ],
      [
        "Ġ",
        "-"
      ],
      [
        "t",
        "ext"
      ],
      [
        "p",
        "ut"
      ],
      [
        "Ġ",
        "n"
      ],
      [
        "Validation",
        "Error"
      ],
      [
        "c",
        "l"
      ],
      [
        "b",
        "j"
      ],
      [
        "t",
        "er"
      ],
      [
        "oo",
        "k"
      ],
      [
        "app",
        "lication"
      ],
      [
        "r",
        "out"
      ],
      [
        "ĠAn",
        "not"
      ],
      [
        "Ġ",
        "200"
      ],
      [
        "p",
        "l"
      ],
      [
        "ag",
        "e"
      ],
      [
        "l",
        "oc"
      ],
      [
        "ĠAnnot",
        "ated"
      ],
      [
        "M",
        "odel"
      ],
      [
        "a",
        "se"
      ],
      [
        "ĠF",
        "astAPI"
      ],
      [
        "i",
        "ct"
      ],
      [
        "Ġf",
        "astapi"
      ],
      [
        "cl",
        "u"
      ],
      [
        "Ġ",
        "not"
      ],
      [
        "schem",
        "as"
      ],
      [
        "las",
        "k"
      ],
      [
        "ac",
        "k"
      ],
      [
        "v",
        "alidation"
      ],
      [
        "i",
        "c"
      ],
      [
        "i",
        "e"
      ],
      [
        "Ġ",
        "ex"
      ],
      [
        "Ġ",
        "S"
      ],
      [
        "pon",
        "ents"
      ],
      [
        "p",
        "ost"
      ],
      [
        "com",
        "ponents"
      ],
      [
        "a",
        "il"
      ],
      [
        "Ġp",
        "y"
      ],
      [
        "r",
        "o"
      ],
      [
        "Ġw",
        "ith"
      ],
      [
        "{",
        "\""
      ],
      [
        "de",
        "pen"
      ],
      [
        "bj",
        "ect"
      ],
      [
        "er",
        "ror"
      ],
      [
        "clu",
        "de"
      ],
      [
        "Ġ",
        "get"
      ],
      [
        "i",
        "eld"
      ],
      [
        "v",
        "el"
      ],
      [
        "an",
        "g"
      ],
      [
        "L",
        "E"
      ],
      [
        "qu",
        "ery"
      ],
      [
        "f",
        "o"
      ],
      [
        "op",
        "tion"
      ],
      [
        "Ġ[",
        "\""
      ],
      [
        "s",
        "h"
      ],
      [
        "I",
        "LE"
      ],
      [
        "Ġ",
        "]"
      ],
      [
        "ĠF",
        "ILE"
      ],
      [
        "Ġ-",
        ">"
      ],
      [
        "Ġ",
        "g"
      ],
      [
        "Ġ",
        "it"
      ],
      [
        "ab",
        "le"
      ],
      [
        "Ġ",
        "C"
      ],
      [
        "1",
        "0"
      ],
      [
        "re",
        "f"
      ],
      [
        "z",
        "e"
      ],
      [
        "Ġ",
        "h"
      ],
      [
        "Ġre",
        "quest"
      ],
      [
        "Ġ",
        ":"
      ],
      [
        "as",
        "ync"
      ],
      [
        "param",
        "et"
      ],
      [
        "Ġ",
        "P"
      ],
      [
        "Ġ",
        "],"
      ],
      [
        "ĠT",
        "rue"
      ],
      [
        "u",
        "b"
      ],
      [
        "/",
        "/"
      ],
      [
        "ess",
        "ion"
      ],
      [
        "d",
        "ata"
      ],
      [
        "Ġ",
        "O"
      ],
      [
        "ĠR",
        "esponse"
      ],
      [
        ":",
        "//"
      ],
      [
        "Ġ\"",
        "#"
      ],
      [
        "\"",
        "],"
      ],
      [
        "Ġd",
        "ocs"
      ],
      [
        "i",
        "mport"
      ],
      [
        "s",
        "ion"
      ],
      [
        "Ġ)",
        ","
      ],
      [
        "Ġ",
        "and"
      ],
      [
        "t",
        "h"
      ],
      [
        "Ġ",
        "*"
      ],
      [
        "4",
        "2"
      ],
      [
        "Ġ\"#",
        "/"
      ],
      [
        "ke",
        "y"
      ],
      [
        "er",
        "s"
      ],
      [
        "m",
        "e"
      ],
      [
        "s",
        "es"
      ],
      [
        "u",
        "se"
      ],
      [
        "fi",
        "g"
      ],
      [
        "v",
        "e"
      ],
      [
        "le",
        "vel"
      ],
      [
        "as",
        "s"
      ],
      [
        "on",
        "fig"
      ],
      [
        "en",
        "er"
      ],
      [
        "c",
        "ur"
      ],
      [
        "p",
        "le"
      ],
      [
        "de",
        "nc"
      ],
      [
        "3",
        "10"
      ],
      [
        "}",
        "}"
      ],
      [
        "espon",
        "ses"
      ],
      [
        "li",
        "n"
      ],
      [
        "Ġo",
        "f"
      ],
      [
        "ce",
        "ption"
      ],
      [
        "a",
        "in"
      ],
      [
        "sh",
        "ot"
      ],
      [
        "ar",
        "g"
      ],
      [
        "option",
        "al"
      ],
      [
        "Ġpy",
        "test"
      ],
      [
        "n",
        "ap"
      ],
      [
        "nap",
        "shot"
      ],
      [
        "R",
        "e"
      ],
      [
        "Ġ",
        "U"
      ],
      [
        "c",
        "ess"
      ],
      [
        "o",
        "bject"
      ],
      [
        "n",
        "o"
      ],
      [
        "t",
        "o"
      ],
      [
        ")",
        "."
      ],
      [
        "B",
        "ase"
      ],
      [
        "Ġ",
        "name"
      ],
      [
        "depen",
        "denc"
      ],
      [
        "et",
        "h"
      ],
      [
        "b",
        "ack"
      ],
      [
        "Ġ",
        "@"
      ],
      [
        "k",
        "en"
      ],
      [
        "ĠR",
        "e"
      ],
      [
        "i",
        "es"
      ],
      [
        "s",
        "g"
      ],
      [
        "header",
        "s"
      ],
      [
        "w",
        "or"
      ],
      [
        "ct",
        "ion"
      ],
      [
        "Ġd",
        "ata"
      ],
      [
        ")",
        ","
      ],
      [
        "ook",
        "ie"
      ],
      [
        "oc",
        "k"
      ],
      [
        "al",
        "se"
      ],
      [
        "fi",
        "le"
      ],
      [
        "Ġ",
        "de"
      ],
      [
        "r",
        "c"
      ],
      [
        "u",
        "st"
      ],
      [
        "i",
        "r"
      ],
      [
        "en",
        "d"
      ],
      [
        "f",
        "oo"
      ],
      [
        "Ġ",
        "use"
      ],
      [
        "Ġ",
        "an"
      ],
      [
        "or",
        "m"
      ],
      [
        "HTTP",
        "ValidationError"
      ],
      [
        "Ġ\"",
        "$"
      ],
      [
        "f",
        "ul"
      ],
      [
        "r",
        "esponses"
      ],
      [
        "Ġ",
        "v"
      ],
      [
        "def",
        "ault"
      ],
      [
        "Ġ",
        "."
      ],
      [
        "mar",
        "y"
      ],
      [
        "p",
        "re"
      ],
      [
        "m",
        "sg"
      ],
      [
        "d",
        "an"
      ],
      [
        "42",
        "2"
      ],
      [
        "um",
        "mary"
      ],
      [
        "re",
        "ct"
      ],
      [
        "E",
        "x"
      ],
      [
        "Ġc",
        "ont"
      ],
      [
        "ĠD",
        "e"
      ],
      [
        "all",
        "back"
      ],
      [
        "c",
        "cess"
      ],
      [
        "t",
        "r"
      ],
      [
        "b",
        "ody"
      ],
      [
        "`",
        "`"
      ],
      [
        "i",
        "le"
      ],
      [
        "d",
        "ocs"
      ],
      [
        "ver",
        "sion"
      ],
      [
        "ĠD",
        "oc"
      ],
      [
        "Ġ",
        "or"
      ],
      [
        "py",
        "test"
      ],
      [
        "F",
        "astAPI"
      ],
      [
        "========",
        "========"
      ],
      [
        "it",
        "y"
      ],
      [
        "i",
        "se"
      ],
      [
        "oo",
        "l"
      ],
      [
        "}",
        ","
      ],
      [
        "o",
        "w"
      ],
      [
        "d",
        "s"
      ],
      [
        "I",
        "d"
      ],
      [
        "il",
        "l"
      ],
      [
        "Ġ",
        "value"
      ],
      [
        "am",
        "ple"
      ],
      [
        "ess",
        "age"
      ],
      [
        "s",
        "rc"
      ],
      [
        "t",
        "ail"
      ],
      [
        "u",
        "ccess"
      ],
      [
        "Ġth",
        "at"
      ],
      [
        "g",
        "er"
      ],
      [
        "Ġf",
        "rom"
      ],
      [
        "u",
        "re"
      ],
      [
        "in",
        "fo"
      ],
      [
        "s",
        "ummary"
      ],
      [
        "rout",
        "er"
      ],
      [
        "Ġ",
        "l"
      ],
      [
        "I",
        "n"
      ],
      [
        "wor",
        "d"
      ],
      [
        "fi",
        "x"
      ],
      [
        "uccess",
        "ful"
      ],
      [
        "Ġ",
        "list"
      ],
      [
        "i",
        "st"
      ],
      [
        "at",
        "ch"
      ],
      [
        "ĠĠĠĠĠĠĠĠĠĠĠĠĠĠĠĠĠĠĠĠĠĠĠĠĠĠĠĠĠĠĠĠ",
        "ĠĠĠĠĠĠĠĠĠĠĠĠĠĠĠĠĠĠĠ"
      ],
      [
        "http",
        "s"
      ],
      [
        "un",
        "ction"
      ],
      [
        "Ġw",
        "ill"
      ],
      [
        "pr",
        "oper"
      ],
      [
        "p",
        "ar"
      ],
      [
        "S",
        "uccessful"
      ],
      [
        "Ġ",
        "error"
      ],
      [
        "Base",
        "Model"
      ],
      [
        "o",
        "ul"
      ],
      [
        "oul",
        "d"
      ],
      [
        "l",
        "y"
      ],
      [
        "Ġr",
        "es"
      ],
      [
        "a",
        "uth"
      ],
      [
        "m",
        "od"
      ],
      [
        "operation",
        "Id"
      ],
      [
        "cur",
        "ity"
      ],
      [
        "i",
        "rect"
      ],
      [
        "Ġp",
        "ath"
      ],
      [
[...]
