{
  "version": "1.0",
  "truncation": null,
  "padding": null,
  "added_tokens": [
    {
      "id": 0,
      "content": "<pad>",
      "single_word": false,
      "lstrip": false,
      "rstrip": false,
      "normalized": false,
      "special": true
    },
    {
      "id": 1,
      "content": "<unk>",
      "single_word": false,
      "lstrip": false,
      "rstrip": false,
      "normalized": false,
      "special": true
    },
    {
      "id": 2,
      "content": "<bos>",
      "single_word": false,
      "lstrip": false,
      "rstrip": false,
      "normalized": false,
      "special": true
    },
    {
      "id": 3,
      "content": "<eos>",
      "single_word": false,
      "lstrip": false,
      "rstrip": false,
      "normalized": false,
      "special": true
    }
  ],
  "normalizer": {
    "type": "NFKC"
  },
  "pre_tokenizer": {
    "type": "ByteLevel",
    "add_prefix_space": false,
    "trim_offsets": true,
    "use_regex": true
  },
  "post_processor": null,
  "decoder": {
    "type": "ByteLevel",
    "add_prefix_space": true,
    "trim_offsets": true,
    "use_regex": true
  },
  "model": {
    "type": "BPE",
    "dropout": null,
    "unk_token": "<unk>",
    "continuing_subword_prefix": null,
    "end_of_word_suffix": null,
    "fuse_unk": false,
    "byte_fallback": false,
    "ignore_merges": false,
    "vocab": {
      "<pad>": 0,
      "<unk>": 1,
      "<bos>": 2,
      "<eos>": 3,
      "!": 4,
      "\"": 5,
      "#": 6,
      "$": 7,
      "%": 8,
      "&": 9,
      "'": 10,
      "(": 11,
      ")": 12,
      "*": 13,
      "+": 14,
      ",": 15,
      "-": 16,
      ".": 17,
      "/": 18,
      "0": 19,
      "1": 20,
      "2": 21,
      "3": 22,
      "4": 23,
      "5": 24,
      "6": 25,
      "7": 26,
      "8": 27,
      "9": 28,
      ":": 29,
      ";": 30,
      "<": 31,
      "=": 32,
      ">": 33,
      "?": 34,
      "@": 35,
      "A": 36,
      "B": 37,
      "C": 38,
      "D": 39,
      "E": 40,
      "F": 41,
      "G": 42,
      "H": 43,
      "I": 44,
      "J": 45,
      "K": 46,
      "L": 47,
      "M": 48,
      "N": 49,
      "O": 50,
      "P": 51,
      "Q": 52,
      "R": 53,
      "S": 54,
      "T": 55,
      "U": 56,
      "V": 57,
      "W": 58,
      "X": 59,
      "Y": 60,
      "Z": 61,
      "[": 62,
      "\\": 63,
      "]": 64,
      "^": 65,
      "_": 66,
      "`": 67,
      "a": 68,
      "b": 69,
      "c": 70,
      "d": 71,
      "e": 72,
      "f": 73,
      "g": 74,
      "h": 75,
      "i": 76,
      "j": 77,
      "k": 78,
      "l": 79,
      "m": 80,
      "n": 81,
      "o": 82,
      "p": 83,
      "q": 84,
      "r": 85,
      "s": 86,
      "t": 87,
      "u": 88,
      "v": 89,
      "w": 90,
      "x": 91,
      "y": 92,
      "z": 93,
      "{": 94,
      "|": 95,
      "}": 96,
      "~": 97,
      "¡": 98,
      "¢": 99,
      "£": 100,
      "¤": 101,
      "¥": 102,
      "¦": 103,
      "§": 104,
      "¨": 105,
      "©": 106,
      "ª": 107,
      "«": 108,
      "¬": 109,
      "®": 110,
      "¯": 111,
      "°": 112,
      "±": 113,
      "²": 114,
      "³": 115,
      "´": 116,
      "µ": 117,
      "¶": 118,
      "¸": 119,
      "¹": 120,
      "º": 121,
      "»": 122,
      "¼": 123,
      "½": 124,
      "¾": 125,
      "¿": 126,
      "Â": 127,
      "Ã": 128,
      "Ä": 129,
      "Å": 130,
      "Ì": 131,
      "Î": 132,
      "Ï": 133,
      "Ð": 134,
      "â": 135,
      "ã": 136,
      "ä": 137,
      "å": 138,
      "ç": 139,
      "è": 140,
      "ï": 141,
      "ð": 142,
      "ĉ": 143,
      "Ċ": 144,
      "č": 145,
      "Ġ": 146,
      "Ģ": 147,
      "ģ": 148,
      "Ĥ": 149,
      "ĥ": 150,
      "Ħ": 151,
      "ħ": 152,
      "Ĩ": 153,
      "ĩ": 154,
      "Ī": 155,
      "ī": 156,
      "Ĭ": 157,
      "ĭ": 158,
      "Į": 159,
      "į": 160,
      "İ": 161,
      "ı": 162,
      "Ĳ": 163,
      "ĳ": 164,
      "Ĵ": 165,
      "ĵ": 166,
      "Ķ": 167,
      "ķ": 168,
      "ĸ": 169,
      "Ĺ": 170,
      "ĺ": 171,
      "Ļ": 172,
      "ļ": 173,
      "Ľ": 174,
      "ľ": 175,
      "Ŀ": 176,
      "ŀ": 177,
      "Ł": 178,
      "ł": 179,
      "Ń": 180,
      "ĠĠ": 181,
      "ĠĠĠĠ": 182,
      "čĊ": 183,
      "ĠĠĠ": 184,
      "ĠĠĠĠĠĠĠ": 185,
      "in": 186,
      "se": 187,
      "re": 188,
      "ĠĠĠĠĠĠĠĠĠĠĠ": 189,
      "or": 190,
      "Ġ=": 191,
      "on": 192,
      "st": 193,
      "de": 194,
      "le": 195,
      "Ġi": 196,
      "Ġt": 197,
      "er": 198,
      "at": 199,
      "Ġa": 200,
      "\"\"": 201,
      "Ġc": 202,
      "lf": 203,
      "Ġf": 204,
      "self": 205,
      "en": 206,
      "Ġre": 207,
      "al": 208,
      "Ġin": 209,
      "ĠĠĠĠĠĠĠĠ": 210,
      "Ġn": 211,
      "he": 212,
      "Ġ0": 213,
      "ar": 214,
      "Ġ#": 215,
      "ur": 216,
      "):": 217,
      "me": 218,
      "it": 219,
      "Ġp": 220,
      "ion": 221,
      "ct": 222,
      "ra": 223,
      "Ġ-": 224,
      "Ġs": 225,
      "Ġ'": 226,
      "ĠĠĠĠĠĠĠĠĠĠĠĠĠĠĠ": 227,
      "ce": 228,
      "Ġself": 229,
      "Ġif": 230,
      "ro": 231,
      "Ġb": 232,
      "Ġm": 233,
      "ge": 234,
      "urn": 235,
      "turn": 236,
      "um": 237,
      "def": 238,
      "ot": 239,
      "ĠL": 240,
      "\"\"\"": 241,
      "Ġthe": 242,
      "Ġe": 243,
      "ut": 244,
      "pe": 245,
      "Ġreturn": 246,
      "__": 247,
      "ing": 248,
      "Ġo": 249,
      "ue": 250,
      "ĠS": 251,
      "Ġw": 252,
      "Ġl": 253,
      "mp": 254,
      "Ġfor": 255,
      "Ġ1": 256,
      "nd": 257,
      "ode": 258,
      "00": 259,
      "Ġd": 260,
      "ri": 261,
      "ss": 262,
      "Ġ\"\"\"": 263,
      ">>": 264,
      "ĠT": 265,
      "ul": 266,
      "ol": 267,
      "Ġ->": 268,
      "nt": 269,
      "Ġ(": 270,
      "ist": 271,
      "Ġdef": 272,
      "te": 273,
      "la": 274,
      "Ġ\"": 275,
      "len": 276,
      "Ġst": 277,
      "ype": 278,
      "Ġis": 279,
      "()": 280,
      "ame": 281,
      "lo": 282,
      "one": 283,
      "ER": 284,
      "ult": 285,
      "ck": 286,
      "ent": 287,
      "Ġ+": 288,
      "ĠN": 289,
      "IN": 290,
      "Ġ[": 291,
      "ĠC": 292,
      "ĠO": 293,
      "Ġ:": 294,
      "an": 295,
      "type": 296,
      "ed": 297,
      "ort": 298,
      "ap": 299,
      "fi": 300,
      "AL": 301,
      "int": 302,
      "Ġv": 303,
      "Ġto": 304,
      "hi": 305,
      "ĠĠĠĠĠĠĠĠĠĠĠĠĠĠĠĠĠĠĠ": 306,
      "Ġof": 307,
      "ht": 308,
      "th": 309,
      "Ġint": 310,
      "ET": 311,
      "up": 312,
      "Ġ_": 313,
      "ĠA": 314,
      "ch": 315,
      "TER": 316,
      "ate": 317,
      "))": 318,
      "co": 319,
      "ad": 320,
      "Ġand": 321,
      "un": 322,
      "xt": 323,
      "sult": 324,
      "Ġx": 325,
      "ve": 326,
      "Ġnot": 327,
      "id": 328,
      "Ġ>>": 329,
      "ran": 330,
      "Ġ==": 331,
      "ĠNone": 332,
      "alue": 333,
      "Ġnum": 334,
      "Ġ>>>": 335,
      "get": 336,
      "AT": 337,
      "ime": 338,
      "ETTER": 339,
      "Ġ'\\": 340,
      "ĠLETTER": 341,
      "IT": 342,
      "._": 343,
      "ror": 344,
      "\",": 345,
      "lass": 346,
      "di": 347,
      "ght": 348,
      "Ġ*": 349,
      "pa": 350,
      "mport": 351,
      "Ġ2": 352,
      "Ġel": 353,
      "end": 354,
      "ke": 355,
      "ma": 356,
      "ft": 357,
      "ect": 358,
      "ĠD": 359,
      "Ġresult": 360,
      "--": 361,
      "ab": 362,
      "Ġco": 363,
      "ver": 364,
      "il": 365,
      "set": 366,
      "pt": 367,
      "ction": 368,
      "',": 369,
      "range": 370,
      "class": 371,
      "ation": 372,
      "Ġma": 373,
      "ter": 374,
      "bj": 375,
      "name": 376,
      "ine": 377,
      "od": 378,
      "rom": 379,
      "Ġg": 380,
      "Ġlen": 381,
      "Ġstr": 382,
      "],": 383,
      "])": 384,
      "code": 385,
      "Ġ<": 386,
      "Ġbe": 387,
      "left": 388,
      "ĠĠĠĠĠĠĠĠĠĠĠĠĠĠĠĠ": 389,
      "ath": 390,
      "ĠF": 391,
      "as": 392,
      "Ġcon": 393,
      "ATIN": 394,
      "ĠLATIN": 395,
      "right": 396,
      "rror": 397,
      "(\"": 398,
      "Error": 399,
      "iz": 400,
      "op": 401,
      "\")": 402,
      "ith": 403,
      "bject": 404,
      "ser": 405,
      "app": 406,
      "num": 407,
      "Ġex": 408,
      "Ġelse": 409,
      "Ġor": 410,
      "is": 411,
      "Ġh": 412,
      "qu": 413,
      "Ġlo": 414,
      "der": 415,
      "Ġde": 416,
      "ĠR": 417,
      "unt": 418,
      "ack": 419,
      "ĠI": 420,
      "art": 421,
      "Ġne": 422,
      "str": 423,
      "##": 424,
      "key": 425,
      "Ġfi": 426,
      "..": 427,
      "li": 428,
      "Ġ__": 429,
      "),": 430,
      "Ġu": 431,
      "all": 432,
      "gs": 433,
      "][": 434,
      "if": 435,
      "es": 436,
      "ber": 437,
      "ution": 438,
      "Ġth": 439,
      "Ġ+=": 440,
      "pace": 441,
      "ĠP": 442,
      "Ġas": 443,
      "ise": 444,
      "mple": 445,
      "ok": 446,
      "ata": 447,
      "ind": 448,
      "con": 449,
      "Ġk": 450,
      "rue": 451,
      "Ġ{": 452,
      "ON": 453,
      "ord": 454,
      "ment": 455,
      "ĠW": 456,
      "Ġse": 457,
      "Ġra": 458,
      "able": 459,
      "ĠB": 460,
      "Ġar": 461,
      "olution": 462,
      "Ġimport": 463,
      "append": 464,
      "ALL": 465,
      ".__": 466,
      "ase": 467,
      "**": 468,
      "ow": 469,
      "Ġan": 470,
      "Ġlist": 471,
      "put": 472,
      "os": 473,
      "ĠE": 474,
      "AP": 475,
      "ĠSM": 476,
      "Ġmax": 477,
      "object": 478,
      "ĠM": 479,
      "Ġ3": 480,
      "Ġal": 481,
      "ize": 482,
      "am": 483,
      "ĠSMALL": 484,
      "Ġwhi": 485,
      "IG": 486,
      "Ġdi": 487,
      "Ġnums": 488,
      "ree": 489,
      "ĠTime": 490,
      "Ġj": 491,
      "el": 492,
      "Ġvalue": 493,
      "ext": 494,
      "RA": 495,
      "('": 496,
      "rent": 497,
      "Ġxrange": 498,
      "ff": 499,
      "ĠSpace": 500,
      "Ġy": 501,
      "alse": 502,
      "ĠCAP": 503,
      "ITAL": 504,
      "ĠCAPITAL": 505,
      "Ġcur": 506,
      "ite": 507,
      "RE": 508,
      "ĠList": 509,
      "ted": 510,
      "ub": 511,
      "Ġpre": 512,
      "Ġ>": 513,
      "ic": 514,
      "Ġcol": 515,
      "LE": 516,
      "ly": 517,
      "cept": 518,
      "dex": 519,
      "IC": 520,
      "ry": 521,
      "rtype": 522,
      "mat": 523,
      "to": 524,
      "and": 525,
      "pre": 526,
      "root": 527,
      "et": 528,
      "Ġhe": 529,
      "ĠV": 530,
      "ance": 531,
      "Ġraise": 532,
      "Ġr": 533,
      "Ġwith": 534,
      "from": 535,
      "')": 536,
      "ĠSolution": 537,
      "Ġpro": 538,
      "\":": 539,
      "ive": 540,
      "Ġnode": 541,
      "ig": 542,
      "ĠĠĠĠĠĠĠĠĠĠĠĠĠĠĠĠĠĠĠĠĠĠĠ": 543,
      "Ġen": 544,
      "//": 545,
      "im": 546,
      "his": 547,
      "fix": 548,
      "pro": 549,
      "Ġwhile": 550,
      "Ġright": 551,
      "mo": 552,
      "Ġme": 553,
      "import": 554,
      "ĠTrue": 555,
      "----": 556,
      "__(": 557,
      "que": 558,
      "ys": 559,
      "par": 560,
      "ex": 561,
      "sed": 562,
      "Ġleft": 563,
      "per": 564,
      "us": 565,
      "path": 566,
      "age": 567,
      "Ġby": 568,
      "]:": 569,
      "Ġfrom": 570,
      "ule": 571,
      "text": 572,
      "ip": 573,
      "val": 574,
      "ĠU": 575,
      "ms": 576,
      "Ġch": 577,
      "nums": 578,
      "ray": 579,
      "Ġname": 580,
      "Ġnumber": 581,
      "ure": 582,
      "est": 583,
      "rint": 584,
      "ac": 585,
      "ING": 586,
      "OR": 587,
      "list": 588,
      "cur": 589,
      "rap": 590,
      "Ġ%": 591,
      "node": 592,
      "cl": 593,
      "for": 594,
      "file": 595,
      "line": 596,
      "ITH": 597,
      "Ġcont": 598,
      "ary": 599,
      "ĠWITH": 600,
      "ĠThe": 601,
      "ader": 602,
      "okup": 603,
      "Ġmin": 604,
      "act": 605,
      "Ġit": 606,
      "ĠH": 607,
      "Ġline": 608,
      "ers": 609,
      "Ġso": 610,
      "ĠG": 611,
      "Ġad": 612,
      "out": 613,
      "25": 614,
      "sp": 615,
      "ĠFalse": 616,
      "iter": 617,
      "ctions": 618,
      "om": 619,
      "ND": 620,
      "Ġ4": 621,
      "Re": 622,
      "Ġdo": 623,
      "AR": 624,
      "ault": 625,
      "col": 626,
      "Ġget": 627,
      "Ġdp": 628,
      "Ġ|": 629,
      "fo": 630,
      "ast": 631,
      "Ġthat": 632,
      "Ġon": 633,
      "so": 634,
      "value": 635,
      "]]": 636,
      "Ġfile": 637,
      "Ġnew": 638,
      "py": 639,
      "Ġ)": 640,
      "Ġkey": 641,
      "odule": 642,
      "Ġpa": 643,
      "her": 644,
      "init": 645,
      "read": 646,
      "Ġprint": 647,
      "low": 648,
      "ding": 649,
      "loat": 650,
      "([": 651,
      "error": 652,
      "Ġ[]": 653,
      "...": 654,
      "args": 655,
      "ci": 656,
      "ator": 657,
      "Ġrange": 658,
      "data": 659,
      "Ġ!": 660,
      "Ġ5": 661,
      "':": 662,
      "Ġexcept": 663,
      "ity": 664,
      "IL": 665,
      "sert": 666,
      "Ġ!=": 667,
      "vi": 668,
      "add": 669,
      "Ġare": 670,
      "ĠRe": 671,
      "und": 672,
      "####": 673,
      "None": 674,
      "back": 675,
      "==": 676,
      "row": 677,
      "Ġlookup": 678,
      "gth": 679,
      "red": 680,
      "iv": 681,
      "Ġset": 682,
      "arget": 683,
      "bu": 684,
      "Ġun": 685,
      "ble": 686,
      "cess": 687,
      "size": 688,
      "orted": 689,
      "Ġelif": 690,
      "main": 691,
      "fe": 692,
      "Ġpar": 693,
      "ĠValue": 694,
      "lename": 695,
      "ition": 696,
      "oint": 697,
      "Ġcount": 698,
      "Ġdata": 699,
      "count": 700,
      "Ġbo": 701,
      "heck": 702,
      "Ġfun": 703,
      "ces": 704,
      "Ġ<=": 705,
      "10": 706,
      "mb": 707,
      "ps": 708,
      "Ġstring": 709,
      "thod": 710,
      "ĠValueError": 711,
      "Ġsh": 712,
      "Ġcode": 713,
      "Ġwe": 714,
      "Ġpath": 715,
      "ial": 716,
      "Ġ...": 717,
      "Ġcolle": 718,
      "ust": 719,
      "rix": 720,
      "Ġmat": 721,
      "rid": 722,
      "OU": 723,
      "bo": 724,
      "time": 725,
      ")):": 726,
      ").": 727,
      "ight": 728,
      "ations": 729,
      "thon": 730,
      "other": 731,
      ")]": 732,
      "Ġtry": 733,
      "ren": 734,
      "Ġthis": 735,
      "index": 736,
      "ak": 737,
      "urce": 738,
      "att": 739,
      "cre": 740,
      "``": 741,
      "max": 742,
      "ES": 743,
      "ne": 744,
      "sh": 745,
      "Ġcurr": 746,
      "coding": 747,
      "((": 748,
      "ger": 749,
      "]*": 750,
      "raph": 751,
      "ld": 752,
      "Ġroot": 753,
      "Ġcnt": 754,
      "ile": 755,
      "Ġout": 756,
      "otal": 757,
      "min": 758,
      "ption": 759,
      "rst": 760,
      "Ġtime": 761,
      "log": 762,
      "Ġtype": 763,
      "ill": 764,
      "():": 765,
      "ample": 766,
      "Ġchar": 767,
      "HT": 768,
      "Ġfloat": 769,
      "Ġ/": 770,
      "Ġle": 771,
      "ded": 772,
      "stance": 773,
      "string": 774,
      "ard": 775,
      "Ġhas": 776,
      "ty": 777,
      "Ġcall": 778,
      "arch": 779,
      "race": 780,
      "Ġall": 781,
      "ION": 782,
      "start": 783,
      "ED": 784,
      "Ġstart": 785,
      "Ġcan": 786,
      "04": 787,
      "ream": 788,
      "htt": 789,
      "Ġlast": 790,
      "word": 791,
      "In": 792,
      "cs": 793,
      "sion": 794,
      "Ġval": 795,
      "Ġcollections": 796,
      "dict": 797,
      "ain": 798,
      "rame": 799,
      "IS": 800,
      "Ġcontin": 801,
      "andle": 802,
      "inary": 803,
      "ument": 804,
      "array": 805,
      "****": 806,
      "ies": 807,
      "Ġsum": 808,
      "EN": 809,
      "its": 810,
      "result": 811,
      "IGHT": 812,
      "Ġos": 813,
      "test": 814,
      "Ġcomp": 815,
      "List": 816,
      "map": 817,
      "lock": 818,
      "ener": 819,
      "Ġcontinue": 820,
      "Ġobject": 821,
      "Ġ10": 822,
      "OL": 823,
      "Co": 824,
      "ory": 825,
      "rect": 826,
      "St": 827,
      "Ġword": 828,
      "pos": 829,
      "ir": 830,
      "Ġpos": 831,
      "ĠĠĠĠĠ": 832,
      "are": 833,
      "tes": 834,
      "Ġmo": 835,
      "ca": 836,
      "ĠBO": 837,
      "Ġbu": 838,
      "INGS": 839,
      "Ġindex": 840,
      "ssage": 841,
      "EF": 842,
      "dir": 843,
      "ĠReturn": 844,
      "eld": 845,
      "://": 846,
      "HA": 847,
      "not": 848,
      "Ġtext": 849,
      "Ġiter": 850,
      "ated": 851,
      "lib": 852,
      "01": 853,
      "pla": 854,
      "vent": 855,
      "Ġtarget": 856,
      "OD": 857,
      "].": 858,
      "ses": 859,
      "Ġsub": 860,
      "tern": 861,
      "RAW": 862,
      "oin": 863,
      "Ġ>=": 864,
      "ĠDRAW": 865,
      "Node": 866,
      "IGN": 867,
      "ll": 868,
      "ĠBOX": 869,
      "ĠDRAWINGS": 870,
      "com": 871,
      "ILL": 872,
      "ink": 873,
      "Ġsys": 874,
      "reak": 875,
      "Ġend": 876,
      "pop": 877,
      "[-": 878,
      "ST": 879,
      "Ġother": 880,
      "ors": 881,
      "uple": 882,
      "ĠAND": 883,
      "hild": 884,
      "da": 885,
      "rite": 886,
      "ONT": 887,
      "ĠĠĠĠĠĠ": 888,
      "number": 889,
      "ache": 890,
      ")-": 891,
      "char": 892,
      "Ġq": 893,
      "Ġprefix": 894,
      "Ġarg": 895,
      "Ġ6": 896,
      "rime": 897,
      "input": 898,
      "ĠIn": 899,
      "ign": 900,
      "Ġqu": 901,
      "uct": 902,
      "Ġinput": 903,
      "fun": 904,
      "ki": 905,
      "BLE": 906,
      "date": 907,
      "000": 908,
      "vel": 909,
      "next": 910,
      "Ġcurrent": 911,
      "raceback": 912,
      "https": 913,
      "Ġ@": 914,
      "--------": 915,
      "ĠSIGN": 916,
      "wi": 917,
      "ative": 918,
      "ĠIf": 919,
      "ence": 920,
      "lement": 921,
      ".\"\"\"": 922,
      "comp": 923,
      "ress": 924,
      "Ġup": 925,
      "instance": 926,
      "Ġmust": 927,
      "sing": 928,
      "attern": 929,
      "fs": 930,
      "YR": 931,
      "Ġite": 932,
      "alle": 933,
      "uld": 934,
      "idx": 935,
      "join": 936,
      "ĠK": 937,
      "ute": 938,
      "Ġadd": 939,
      "Ġtotal": 940,
      "Ġwh": 941,
      "ython": 942,
      "attr": 943,
      "default": 944,
      "OT": 945,
      "by": 946,
      "'s": 947,
      "Ġbool": 948,
      "UT": 949,
      "Ġwill": 950,
      "cent": 951,
      "ach": 952,
      "wiki": 953,
      "Ġ-=": 954,
      "ILLIC": 955,
      "YRILLIC": 956,
      "ĠCYRILLIC": 957,
      "dp": 958,
      "lit": 959,
      "param": 960,
      "cket": 961,
      "sort": 962,
      "Ġmodule": 963,
      "ges": 964,
      "ant": 965,
      "Ġnext": 966,
      "ning": 967,
      "Ġdefault": 968,
      "Ġisinstance": 969,
      "OUBLE": 970,
      "QU": 971,
      "ep": 972,
      "sk": 973,
      "Ġed": 974,
      "tree": 975,
      "Ġfunction": 976,
      "of": 977,
      "ĠDOUBLE": 978,
      "Ġat": 979,
      "OW": 980,
      "Ġfind": 981,
      "sum": 982,
      "Ġ7": 983,
      "='": 984,
      "Ġcheck": 985,
      "Ġ8": 986,
      "ave": 987,
      "ta": 988,
      "own": 989,
      "Ġbreak": 990,
      "quest": 991,
      "ec": 992,
      "Ġdist": 993,
      "dent": 994,
      "Ġop": 995,
      "queue": 996,
      "64": 997,
      "ĠEx": 998,
      "03": 999,
      "cal": 1000,
      "arg": 1001,
      "rib": 1002,
      "False": 1003,
      "filename": 1004,
      "Ġbase": 1005,
      "roup": 1006,
      "Ġnp": 1007,
      "Ġtest": 1008,
      "12": 1009,
      "Ġfirst": 1010,
      "base": 1011,
      "inal": 1012,
      "CK": 1013,
      "Ġerror": 1014,
      "ĠReturns": 1015,
      "Ġspe": 1016,
      "ĠThis": 1017,
      "em": 1018,
      "mod": 1019,
      "ĠĠĠĠĠĠĠĠĠĠĠĠĠĠĠĠĠĠĠĠĠĠĠĠ": 1020,
      "Ġinte": 1021,
      "idth": 1022,
      "ould": 1023,
      "iven": 1024,
      "gor": 1025,
      "Ġ[[": 1026,
      "Ġsize": 1027,
      "ost": 1028,
      "Ġone": 1029,
      "Ġpass": 1030,
      "########": 1031,
      "move": 1032,
      "emp": 1033,
      "ctest": 1034,
      "url": 1035,
      "clu": 1036,
      "Ġarray": 1037,
      "prefix": 1038,
      "11": 1039,
      "Ġstack": 1040,
      "info": 1041,
      "ffer": 1042,
      "wa": 1043,
      "cont": 1044,
      "Ġ\\": 1045,
      "Ġz": 1046,
      "fig": 1047,
      "length": 1048,
      "Ġbinary": 1049,
      "Ġpoint": 1050,
      "=\"": 1051,
      "Ġdoctest": 1052,
      "heap": 1053,
      "Ġsorted": 1054,
      "uture": 1055,
      "Ġadj": 1056,
      "True": 1057,
      "gorith": 1058,
      "====": 1059,
      "wo": 1060,
      "lic": 1061,
      "Ġlog": 1062,
      "Ġsup": 1063,
      "Ġmethod": 1064,
      "grid": 1065,
      "Ġhttps": 1066,
      "Ġassert": 1067,
      "Ġstk": 1068,
      "32": 1069,
      "we": 1070,
      "most": 1071,
      "]+": 1072,
      "coder": 1073,
      "ore": 1074,
      "Ġver": 1075,
      "yn": 1076,
      "Ġ\"__": 1077,
      "[:": 1078,
      "ally": 1079,
      "si": 1080,
      "mon": 1081,
      "Ġ.": 1082,
      "lose": 1083,
      "'t": 1084,
      "Ġac": 1085,
      "Ġargs": 1086,
      "Ġvalues": 1087,
      "form": 1088,
      "imum": 1089,
      "ĠĠĠĠĠĠĠĠĠĠĠĠĠĠĠĠĠĠĠĠĠĠĠĠĠĠĠ": 1090,
      "gest": 1091,
      "Ġcom": 1092,
      "Ġuse": 1093,
      "pr": 1094,
      "())": 1095,
      "sc": 1096,
      "amples": 1097,
      "ols": 1098,
      "Ġwhich": 1099,
      "Ġtree": 1100,
      "Ġlength": 1101,
      "item": 1102,
      "sub": 1103,
      "var": 1104,
      "Ġrever": 1105,
      "REE": 1106,
      "Ġmid": 1107,
      "Ġno": 1108,
      "quence": 1109,
      "write": 1110,
      "parent": 1111,
      "format": 1112,
      "Ġfilename": 1113,
      "Ġ**": 1114,
      "method": 1115,
      "Ġ\"\"": 1116,
      "module": 1117,
      "indow": 1118,
      "Ġ{}": 1119,
      "UL": 1120,
      "org": 1121,
      "cond": 1122,
      "ception": 1123,
      "De": 1124,
      "ork": 1125,
      "crement": 1126,
      "ĠAr": 1127,
      "99": 1128,
      "rip": 1129,
      "Ġap": 1130,
      "mand": 1131,
      "ask": 1132,
      "MA": 1133,
      "Ġrecent": 1134,
      "ield": 1135,
      "Ġ``": 1136,
      "']": 1137,
      "().": 1138,
      "SE": 1139,
      "ĠTraceback": 1140,
      "sent": 1141,
      "place": 1142,
      "Ġinter": 1143,
      "Con": 1144,
      "do": 1145,
      "__\":": 1146,
      "Ġitem": 1147,
      "Ġsu": 1148,
      "VE": 1149,
      "feren": 1150,
      "ron": 1151,
      "ters": 1152,
      "Ġsource": 1153,
      "new": 1154,
      "valid": 1155,
      "IZ": 1156,
      "Ġab": 1157,
      "items": 1158,
      "matrix": 1159,
      "Ġrow": 1160,
      "Ġtuple": 1161,
      "Ġext": 1162,
      "ĠSt": 1163,
      "Ġonly": 1164,
      "graph": 1165,
      "lect": 1166,
      "Ġenum": 1167,
      "ates": 1168,
      "Ġused": 1169,
      "Ġparent": 1170,
      "Ġany": 1171,
      "Ġclass": 1172,
      "ild": 1173,
      "men": 1174,
      "vert": 1175,
      "Ġmatrix": 1176,
      ")+": 1177,
      "UM": 1178,
      "Ġid": 1179,
      "IGIT": 1180,
      "20": 1181,
      "ound": 1182,
      "kw": 1183,
      "version": 1184,
      "Ġres": 1185,
      "cnt": 1186,
      "ĠIN": 1187,
      "find": 1188,
      "IR": 1189,
      "Ġsolution": 1190,
      "ndom": 1191,
      "with": 1192,
      "Ġusing": 1193,
      "CT": 1194,
      "ull": 1195,
      "pect": 1196,
      "Ġmessage": 1197,
      "gh": 1198,
      "ENT": 1199,
      "bit": 1200,
      "\"{": 1201,
      "res": 1202,
      "split": 1203,
      "ery": 1204,
      "CE": 1205,
      "table": 1206,
      "Ġread": 1207,
      "tex": 1208,
      "point": 1209,
      "Ġyield": 1210,
      "port": 1211,
      "Ġ9": 1212,
      "''": 1213,
      "Ġheap": 1214,
      "004": 1215,
      "source": 1216,
      "rc": 1217,
      ")))": 1218,
      "Ġdict": 1219,
      "ID": 1220,
      "ĠDIGIT": 1221,
      "22": 1222,
      "parse": 1223,
      "Ġgiven": 1224,
      "ĠRIGHT": 1225,
      "ĠLEF": 1226,
      "andler": 1227,
      "ĠLEFT": 1228,
      "use": 1229,
      "Ġbytes": 1230,
      "erate": 1231,
      "mplement": 1232,
      "part": 1233,
      "frame": 1234,
      "gra": 1235,
      "Ġper": 1236,
      "005": 1237,
      "ĠAC": 1238,
      "nect": 1239,
      "008": 1240,
      "Ġheader": 1241,
      "Ġpart": 1242,
      "rans": 1243,
      "Ġgrid": 1244,
      "func": 1245,
      "sg": 1246,
      "Ġrun": 1247,
      "ush": 1248,
      "Ġenumerate": 1249,
      "007": 1250,
      "call": 1251,
      "Ġro": 1252,
      "riter": 1253,
      "Ġbut": 1254,
      "Ġshould": 1255,
      "Ġ//": 1256,
      "Ġtwo": 1257,
      "Ġvar": 1258,
      "dia": 1259,
      "Return": 1260,
      "encode": 1261,
      "Ġoption": 1262,
      "Ġcharact": 1263,
      "Pro": 1264,
      "odec": 1265,
      "ERT": 1266,
      "********": 1267,
      "Ex": 1268,
      "Ġret": 1269,
      "lob": 1270,
      "Ġargument": 1271,
      "ĠArgs": 1272,
      "0000": 1273,
      "process": 1274,
      "logn": 1275,
      "Ġelement": 1276,
      "stat": 1277,
      "Ġgraph": 1278,
      "Ġdirect": 1279,
      "Ġwhen": 1280,
      "cremental": 1281,
      "['": 1282,
      "ference": 1283,
      "Ġarr": 1284,
      "ib": 1285,
      "IA": 1286,
      "stack": 1287,
      "ved": 1288,
      "ĠNode": 1289,
      "Ġ('": 1290,
      "Ġoutput": 1291,
      "tra": 1292,
      "ml": 1293,
      "'):": 1294,
      "isit": 1295,
      "lable": 1296,
      "\".": 1297,
      "orm": 1298,
      "001": 1299,
      "003": 1300,
      "Ġ&": 1301,
      "006": 1302,
      "ĠPython": 1303,
      "Ġwhe": 1304,
      "DE": 1305,
      "ph": 1306,
      "Ġalgorith": 1307,
      "Ġhave": 1308,
      "che": 1309,
      "cache": 1310,
      "curs": 1311,
      "Ġencoding": 1312,
      "]-": 1313,
      "ĠNot": 1314,
      "search": 1315,
      "ped": 1316,
      "009": 1317,
      "ark": 1318,
      "mit": 1319,
      "ĠCONT": 1320,
      "Ġdis": 1321,
      "UTE": 1322,
      "dist": 1323,
      "ible": 1324,
      "std": 1325,
      "level": 1326,
      "ARK": 1327,
      "ATION": 1328,
      "BIC": 1329,
      "Ġchild": 1330,
      "RABIC": 1331,
      "ĠARABIC": 1332,
      "reeNode": 1333,
      "cul": 1334,
      "Ġsy": 1335,
      "insert": 1336,
      "Ġmode": 1337,
      "Ġpattern": 1338,
      "OM": 1339,
      "no": 1340,
      "Ġoper": 1341,
      "Ġ`": 1342,
      "inter": 1343,
      "cle": 1344,
      "future": 1345,
      "ns": 1346,
      "ultip": 1347,
      "reate": 1348,
      "rol": 1349,
      "LO": 1350,
      "inen": 1351,
      "arning": 1352,
      "Ġprime": 1353,
      "Ġmsg": 1354,
      "lags": 1355,
      "Ġcontain": 1356,
      "oken": 1357,
      "Ġgener": 1358,
      "ICAL": 1359,
      "Ġprev": 1360,
      "pedia": 1361,
      "002": 1362,
      "arr": 1363,
      "Ġwa": 1364,
      "lamb": 1365,
      "lambda": 1366,
      "cy": 1367,
      "lat": 1368,
      "LA": 1369,
      "state": 1370,
      "ersion": 1371,
      "US": 1372,
      "target": 1373,
      "reg": 1374,
      "python": 1375,
      "\"]": 1376,
      "curr": 1377,
      "iss": 1378,
      "Ġframe": 1379,
      "ange": 1380,
      "ĠGREE": 1381,
      "ĠGREEK": 1382,
      "ĠCONTR": 1383,
      "Ġdif": 1384,
      "ey": 1385,
      "gits": 1386,
      "msg": 1387,
      "buffer": 1388,
      "header": 1389,
      "decode": 1390,
      "ĠType": 1391,
      "ang": 1392,
      "Ġinteger": 1393,
      "mpty": 1394,
      "ĠĠĠĠĠĠĠĠĠĠĠĠĠĠĠĠĠĠĠĠĠĠĠĠĠĠĠĠĠĠĠĠ": 1395,
      "Ġnon": 1396,
      "Ġeach": 1397,
      "pth": 1398,
      "ERTICAL": 1399,
      "Ġmatch": 1400,
      "clude": 1401,
      "ĠVERTICAL": 1402,
      "06": 1403,
      "spe": 1404,
      "ĠX": 1405,
      "Ġcodecs": 1406,
      "Ġevent": 1407,
      "[\"": 1408,
      "ineno": 1409,
      "Ġlines": 1410,
      "ivot": 1411,
      "child": 1412,
      "Ġsort": 1413,
      "order": 1414,
      "onent": 1415,
      "ract": 1416,
      "Ġedges": 1417,
      "float": 1418,
      "og": 1419,
      "values": 1420,
      "cursive": 1421,
      "win": 1422,
      "den": 1423,
      "ls": 1424,
      "off": 1425,
      "ĠZ": 1426,
      "inked": 1427,
      "md": 1428,
      "Ġencode": 1429,
      "(_": 1430,
      "ĠCONTROL": 1431,
      "inf": 1432,
      "OP": 1433,
      "Ġspeci": 1434,
      "encoding": 1435,
      "Ġbit": 1436,
      "lines": 1437,
      "Ġthan": 1438,
      "xF": 1439,
      "Ġsearch": 1440,
      "Ġtri": 1441,
      "loc": 1442,
      "width": 1443,
      "Ġformat": 1444,
      "Ġcase": 1445,
      "Ġpri": 1446,
      "Ġwords": 1447,
      "obj": 1448,
      "server": 1449,
      "Ġblock": 1450,
      "fter": 1451,
      "ual": 1452,
      "Ġstate": 1453,
      "fa": 1454,
      "ous": 1455,
      "}\")": 1456,
      "Ġ--": 1457,
      "qui": 1458,
      "xA": 1459,
      "ESIS": 1460,
      "Ġent": 1461,
      "Ġtable": 1462,
      "Ġopen": 1463,
      "ny": 1464,
      "prime": 1465,
      "be": 1466,
      "util": 1467,
      "255": 1468,
      "HE": 1469,
      "Ġtop": 1470,
      "Ġcontext": 1471,
      "ix": 1472,
      "verse": 1473,
      "Ġhi": 1474,
      "256": 1475,
      "Ġreversed": 1476,
      "ORIZ": 1477,
      "check": 1478,
      "ĠSe": 1479,
      "ONTAL": 1480,
      "ORIZONTAL": 1481,
      "PA": 1482,
      "imal": 1483,
      "Ġstat": 1484,
      "match": 1485,
      "ĠHORIZONTAL": 1486,
      "alled": 1487,
      "xB": 1488,
      "Ġstream": 1489,
      "Ġ['": 1490,
      "ĠOF": 1491,
      "Ġparser": 1492,
      "Ġlow": 1493,
      "tocol": 1494,
      "ĠDe": 1495,
      "wikipedia": 1496,
      "16": 1497,
      "ake": 1498,
      "fied": 1499,
      "Ġmain": 1500,
      "15": 1501,
      "ie": 1502,
      "(),": 1503,
      "ĠACUTE": 1504,
      "close": 1505,
      "ĠCon": 1506,
      "sy": 1507,
      "uth": 1508,
      "Ġrandom": 1509,
      "Ġtra": 1510,
      "mented": 1511,
      "ek": 1512,
      "Ġinst": 1513,
      "]))": 1514,
      "spon": 1515,
      "pack": 1516,
      "atch": 1517,
      "Ġover": 1518,
      "The": 1519,
      "ho": 1520,
      "repr": 1521,
      "Ġqueue": 1522,
      "TH": 1523,
      "Ġposition": 1524,
      "fact": 1525,
      "context": 1526,
      "ĠMARK": 1527,
      "Ġ'.": 1528,
      "offset": 1529,
      "open": 1530,
      ":`": 1531,
      "SC": 1532,
      "return": 1533,
      "02": 1534,
      "Ġlon": 1535,
      "bytes": 1536,
      "tools": 1537,
      "Ġtemp": 1538,
      "Ġback": 1539,
      "Ġtok": 1540,
      "Ġprocess": 1541,
      "Ġempty": 1542,
      "85": 1543,
      "Ġthread": 1544,
      "Ġversion": 1545,
      "Ġnumbers": 1546,
      "errors": 1547,
      "13": 1548,
      "Type": 1549,
      "rit": 1550,
      "ĠTypeError": 1551,
      "Ġinto": 1552,
      "ĠLIGHT": 1553,
      "ou": 1554,
      "git": 1555,
      "},": 1556,
      "itial": 1557,
      "xC": 1558,
      "iable": 1559,
      "ven": 1560,
      "mask": 1561,
      "po": 1562,
      "dd": 1563,
      "bug": 1564,
      "ĠY": 1565,
      "Ġvisit": 1566,
      "xD": 1567,
      "Ġgre": 1568,
      "})": 1569,
      "keys": 1570,
      "Ġexc": 1571,
      "Ġorder": 1572,
      "config": 1573,
      "stem": 1574,
      "nter": 1575,
      "(-": 1576,
      "alcul": 1577,
      "INE": 1578,
      "ORM": 1579,
      "Ġvalid": 1580,
      "gram": 1581,
      "ions": 1582,
      "Ġdfs": 1583,
      "update": 1584,
      "notations": 1585,
      "Ġurl": 1586,
      "ĠUP": 1587,
      "uff": 1588,
      "ĠExamples": 1589,
      "<<": 1590,
      "Ġmay": 1591,
      "Ġuser": 1592,
      "mplemented": 1593,
      "ĠTreeNode": 1594,
      "33": 1595,
      "ffix": 1596,
      "Ġdecode": 1597,
      "INGLE": 1598,
      "}\"": 1599,
      "ĠQU": 1600,
      "ĠSINGLE": 1601,
      "Ġdec": 1602,
      "AD": 1603,
      "FF": 1604,
      "ices": 1605,
      "Ġsp": 1606,
      "quare": 1607,
      "lobal": 1608,
      "load": 1609,
      "Ġmake": 1610,
      "cls": 1611,
      "RO": 1612,
      "Ġlevel": 1613,
      "bel": 1614,
      "Ġdoes": 1615,
      "Ġdel": 1616,
      "ME": 1617,
      "xE": 1618,
      "Ġwas": 1619,
      "26": 1620,
      "ay": 1621,
      "kwargs": 1622,
      "EV": 1623,
      "sl": 1624,
      "Ġhead": 1625,
      "Ġoff": 1626,
      "mage": 1627,
      "req": 1628,
      "Ġfunc": 1629,
      "lp": 1630,
      "run": 1631,
      "sys": 1632,
      "OWN": 1633,
      "MOD": 1634,
      "Ġannotations": 1635,
      "Count": 1636,
      "message": 1637,
      "abc": 1638,
      "fd": 1639,
      "lay": 1640,
      "wait": 1641,
      "space": 1642,
      "ther": 1643,
      "UN": 1644,
      "]*(": 1645,
      "ag": 1646,
      "gment": 1647,
      "kn": 1648,
      "igh": 1649,
      "swith": 1650,
      "color": 1651,
      "Ġimplement": 1652,
      "ized": 1653,
      "gative": 1654,
      "lookup": 1655,
      "pri": 1656,
      "words": 1657,
      "ribute": 1658,
      "Codec": 1659,
      "Ġav": 1660,
      "Stream": 1661,
      "AB": 1662,
      "ower": 1663,
      "ecut": 1664,
      "45": 1665,
      "ero": 1666,
      "mplex": 1667,
      "]])": 1668,
      "su": 1669,
      "Ġgroup": 1670,
      "Ġfol": 1671,
      "PE": 1672,
      "struct": 1673,
      "ote": 1674,
      "En": 1675,
      "ify": 1676,
      ")//": 1677,
      "pattern": 1678,
      "Ġsame": 1679,
      "Ġmath": 1680,
      "Ġwhere": 1681,
      "18": 1682,
      "Ġapp": 1683,
      "Ġ[-": 1684,
      "current": 1685,
      "pected": 1686,
      "option": 1687,
      "ĠJ": 1688,
      "remove": 1689,
      "Ġfin": 1690,
      "sorted": 1691,
      "head": 1692,
      "present": 1693,
      "fore": 1694,
      "ton": 1695,
      "mid": 1696,
      "Par": 1697,
      "Ġmore": 1698,
      "Ġheapq": 1699,
      "gn": 1700,
      "group": 1701,
      "ature": 1702,
      "duct": 1703,
      "eries": 1704,
      "apping": 1705,
      "Ġfound": 1706,
      "omial": 1707,
      "23": 1708,
      "Ġfact": 1709,
      "14": 1710,
      "RL": 1711,
      "xy": 1712,
      "itive": 1713,
      "ical": 1714,
      "xb": 1715,
      "ick": 1716,
      "ward": 1717,
      "Ġthere": 1718,
      "ormal": 1719,
      "fn": 1720,
      "the": 1721,
      "ĠDIA": 1722,
      "ash": 1723,
      "RAC": 1724,
      "adj": 1725,
      "ERESIS": 1726,
      "Ġthen": 1727,
      "ĠDIAERESIS": 1728,
      "Ġequ": 1729,
      "ĠCHA": 1730,
      "RACTER": 1731,
      "Ġbet": 1732,
      "Ġexist": 1733,
      "CUM": 1734,
      "replace": 1735,
      "Ġ(\"": 1736,
      "ĠUn": 1737,
      "lower": 1738,
      "token": 1739,
      "umn": 1740,
      "codecs": 1741,
      "Ġsecond": 1742,
      "viron": 1743,
      "ween": 1744,
      "event": 1745,
      "kip": 1746,
      "label": 1747,
      "\",\"": 1748,
      "parser": 1749,
      "========": 1750,
      "nal": 1751,
      "ĠĠĠĠĠĠĠĠĠĠ": 1752,
      "height": 1753,
      "Ġpo": 1754,
      "Ġitertools": 1755,
      "Ġtoken": 1756,
      "ARE": 1757,
      "total": 1758,
      "loop": 1759,
      "Ġcommand": 1760,
      "Ġpoints": 1761,
      "ĠĠĠĠčĊ": 1762,
      "Ġerrors": 1763,
      "du": 1764,
      "Ġsign": 1765,
      "05": 1766,
      "Ġman": 1767,
      ".\"": 1768,
      "ail": 1769,
      "mt": 1770,
      "xrange": 1771,
      "strip": 1772,
      "abs": 1773,
      "vide": 1774,
      "vertex": 1775,
      "ĠCHARACTER": 1776,
      "19": 1777,
      "ating": 1778,
      "Ġidx": 1779,
      "block": 1780,
      "################": 1781,
      "Ġcache": 1782,
      "types": 1783,
      "sha": 1784,
      "erge": 1785,
      "Ġrequest": 1786,
      "CH": 1787,
      "Ġ[(": 1788,
      "ody": 1789,
      "Ġallow": 1790,
      "xa": 1791,
      "oth": 1792,
      "ĠMOD": 1793,
      "control": 1794,
      "first": 1795,
      "Implemented": 1796,
      "Ġstep": 1797,
      "AN": 1798,
      "oid": 1799,
      "----------------": 1800,
      "ins": 1801,
      "Ġmod": 1802,
      "ript": 1803,
      "temp": 1804,
      "exc": 1805,
      "Ġalgorithm": 1806,
      "wise": 1807,
      "ilt": 1808,
      "abel": 1809,
      "Ġits": 1810,
      "EG": 1811,
      "led": 1812,
      "ameter": 1813,
      "comple": 1814,
      "Ġsi": 1815,
      "Ġsequence": 1816,
      "LEX": 1817,
      "24": 1818,
      "ww": 1819,
      "ĠSE": 1820,
      "Ġexp": 1821,
      "perty": 1822,
      "ĠNotImplemented": 1823,
      "Ġoffset": 1824,
      "FLEX": 1825,
      "[(": 1826,
      "ĠCIR": 1827,
      "CUMFLEX": 1828,
      "ĠCIRCUMFLEX": 1829,
      "Ġneed": 1830,
      "ĠST": 1831,
      "ransp": 1832,
      ")%": 1833,
      "Writer": 1834,
      "ĠQ": 1835,
      "lete": 1836,
      "ifi": 1837,
      "edge": 1838,
      "Ġopt": 1839,
      "rict": 1840,
      "iginal": 1841,
      "'),": 1842,
      "ssible": 1843,
      "KE": 1844,
      "Name": 1845,
      "Ġtask": 1846,
      "Ġfiles": 1847,
      "Ġupdate": 1848,
      "TP": 1849,
      "ination": 1850,
      "ater": 1851,
      "EL": 1852,
      "ax": 1853,
      "compile": 1854,
      "side": 1855,
      "EX": 1856,
      "Ġrepresent": 1857,
      "Incremental": 1858,
      "Ġmultip": 1859,
      "ĠTH": 1860,
      "opt": 1861,
      "ĠDOWN": 1862,
      "FT": 1863,
      "thread": 1864,
      "tri": 1865,
      "cii": 1866,
      "MP": 1867,
      "Ġweight": 1868,
      "sponse": 1869,
      "86": 1870,
      "Ġwidth": 1871,
      "ĠCo": 1872,
      "old": 1873,
      "derr": 1874,
      "ose": 1875,
      "Ġcolor": 1876,
      "defaultdict": 1877,
      "work": 1878,
      "Ġwork": 1879,
      "IX": 1880,
      "unk": 1881,
      "Tree": 1882,
      "wrap": 1883,
      "top": 1884,
      "({": 1885,
      "Reader": 1886,
      "'.": 1887,
      "gers": 1888,
      "output": 1889,
      "let": 1890,
      "Ġreg": 1891,
      "Ġinitial": 1892,
      "Ġpivot": 1893,
      "CTION": 1894,
      "rt": 1895,
      "ATOR": 1896,
      "nodes": 1897,
      "ner": 1898,
      "lection": 1899,
      "Ġobj": 1900,
      "(*": 1901,
      "OS": 1902,
      "ring": 1903,
      "Ġinstance": 1904,
      "ension": 1905,
      "Ġparse": 1906,
      "last": 1907,
      "Ġabs": 1908,
      ":]": 1909,
      "nlogn": 1910,
      "cape": 1911,
      "17": 1912,
      "element": 1913,
      "pol": 1914,
      "olve": 1915,
      "Ġbetween": 1916,
      "umber": 1917,
      "Ġ15": 1918,
      "Ġ100": 1919,
      "mark": 1920,
      "sequence": 1921,
      "Ġcor": 1922,
      "Ġsm": 1923,
      "doc": 1924,
      "utf": 1925,
      "ipe": 1926,
      "mode": 1927,
      "Ġmap": 1928,
      "testmod": 1929,
      "Ġcost": 1930,
      "Ġconfig": 1931,
      "Ġdest": 1932,
      "Ġmaximum": 1933,
      "decl": 1934,
      "Ġreturns": 1935,
      "Ġfollow": 1936,
      "Ġmask": 1937,
      "Ġbuild": 1938,
      "ync": 1939,
      ")*": 1940,
      "nection": 1941,
      "Ġ'''": 1942,
      "ref": 1943,
      "Ġcls": 1944,
      "Ġheight": 1945,
      "Ġsome": 1946,
      "55": 1947,
      "ai": 1948,
      "ping": 1949,
      "Ġcharacter": 1950,
      "err": 1951,
      "Ġlabel": 1952,
      "ister": 1953,
      "ported": 1954,
      "user": 1955,
      "core": 1956,
      "ĠWe": 1957,
      "mbol": 1958,
      "stract": 1959,
      "Ġquery": 1960,
      "cation": 1961,
      "man": 1962,
      "print": 1963,
      "sign": 1964,
      "Ar": 1965,
      "ĠGRA": 1966,
      "blem": 1967,
      "tt": 1968,
      "dec": 1969,
      "les": 1970,
      "Ġtrans": 1971,
      "Ġlar": 1972,
      "ctionary": 1973,
      "xe": 1974,
      "idget": 1975,
      "board": 1976,
      "Ġlet": 1977,
      "latform": 1978,
      "Path": 1979,
      "Ġcalled": 1980,
      "Ġsc": 1981,
      "local": 1982,
      "copy": 1983,
      "Ġhelp": 1984,
      "Ġhash": 1985,
      "Ġvisited": 1986,
      "av": 1987,
      "Ġserver": 1988,
      "Ġwrap": 1989,
      "Ġatt": 1990,
      "Ġexception": 1991,
      "GE": 1992,
      "our": 1993,
      "build": 1994,
      "66": 1995,
      "PI": 1996,
      "position": 1997,
      "Ġcharacters": 1998,
      "Ġdir": 1999,
      "cu": 2000,
      "ĠOR": 2001,
      "Ġdigits": 2002,
      "argument": 2003,
      "\"\\": 2004,
      "cp": 2005,
      "Ġnames": 2006,
      "Ġsocket": 2007,
      "points": 2008,
      "ĠGRAVE": 2009,
      "tuple": 2010,
      "Se": 2011,
      "ager": 2012,
      "\"),": 2013,
      "isect": 2014,
      "exit": 2015,
      "ulti": 2016,
      "ready": 2017,
      "alculate": 2018,
      "Ġact": 2019,
      "IO": 2020,
      "icode": 2021,
      "cla": 2022,
      "Ġsuper": 2023,
      "VER": 2024,
      "vis": 2025,
      "ĠFor": 2026,
      "Ġ[\"": 2027,
      "fil": 2028,
      "html": 2029,
      "rank": 2030,
      "Ġcopy": 2031,
      "Ġitems": 2032,
      "ew": 2033,
      "ries": 2034,
      "Ġminimum": 2035,
      "function": 2036,
      "Ġcreate": 2037,
      "ency": 2038,
      "ĠOS": 2039,
      "izer": 2040,
      "ĠPro": 2041,
      "rypt": 2042,
      "irs": 2043,
      "ike": 2044,
      "PACE": 2045,
      "Ġafter": 2046,
      "allable": 2047,
      "Ġdepth": 2048,
      "sock": 2049,
      "ĠKey": 2050,
      "mplexity": 2051,
      "down": 2052,
      "Ġkw": 2053,
      "IP": 2054,
      "Ġsing": 2055,
      "ĠMA": 2056,
      "cale": 2057,
      "request": 2058,
      ".\")": 2059,
      "case": 2060,
      "gree": 2061,
      "Ġ'__": 2062,
      "ackage": 2063,
      "Sub": 2064,
      "Ġpla": 2065,
      "Ġcomb": 2066,
      "ization": 2067,
      "http": 2068,
      "File": 2069,
      "Lo": 2070,
      "ority": 2071,
      "ancel": 2072,
      "imit": 2073,
      "task": 2074,
      "xc": 2075,
      "spec": 2076,
      "ĠFORM": 2077,
      "Ġshow": 2078,
      "____": 2079,
      "Py": 2080,
      "empty": 2081,
      "query": 2082,
      "xf": 2083,
      "lease": 2084,
      "Ġ12": 2085,
      "prev": 2086,
      "([[": 2087,
      "Time": 2088,
      "ities": 2089,
      "ueue": 2090,
      "Ġwrite": 2091,
      "indows": 2092,
      "Ġ*,": 2093,
      "]],": 2094,
      "OTATION": 2095,
      "ĠAN": 2096,
      "ending": 2097,
      "Ġhandle": 2098,
      "property": 2099,
      "issing": 2100,
      "\\\\": 2101,
      "heapp": 2102,
      "Ġsl": 2103,
      "round": 2104,
      "vious": 2105,
      "Ġparam": 2106,
      "Ġsupport": 2107,
      "Base": 2108,
      "IAL": 2109,
      "Ġremain": 2110,
      "alind": 2111,
      "ique": 2112,
      "Ġrequi": 2113,
      "Ġsrc": 2114,
      "PO": 2115,
      "ead": 2116,
      "recursive": 2117,
      "Ġskip": 2118,
      "reader": 2119,
      "lag": 2120,
      "hen": 2121,
      "stream": 2122,
      "Ġinsert": 2123,
      "))]": 2124,
      "Ġloop": 2125,
      "Ġvertex": 2126,
      "Ġreverse": 2127,
      "NE": 2128,
      "ĠĠĠĠĠĠĠĠčĊ": 2129,
      "emit": 2130,
      "\"):": 2131,
      "Set": 2132,
      "make": 2133,
      "ting": 2134,
      "Ġflags": 2135,
      "disp": 2136,
      "Ġ20": 2137,
      "Ġtimeout": 2138,
      "ascii": 2139,
      "startswith": 2140,
      "Ġpositive": 2141,
      "Ġarguments": 2142,
      "sses": 2143,
      "raw": 2144,
      "ĠĠĠĠĠĠĠĠĠĠĠĠĠĠĠĠĠĠĠĠĠĠĠĠĠĠĠĠĠĠĠ": 2145,
      "])-": 2146,
      "Ġelements": 2147,
      "ĠQUOTATION": 2148,
      "pen": 2149,
      "son": 2150,
      "ong": 2151,
      "debug": 2152,
      "Ġter": 2153,
      "Ġmem": 2154,
      "files": 2155,
      "STR": 2156,
      "Ġtypes": 2157,
      "07": 2158,
      "Di": 2159,
      "Ġfinal": 2160,
      "Ġlimit": 2161,
      "Ġbefore": 2162,
      "stru": 2163,
      "Ġqueries": 2164,
      "indent": 2165,
      ")[": 2166,
      "Value": 2167,
      "Ġalph": 2168,
      "timeout": 2169,
      "Hel": 2170,
      "binary": 2171,
      "cd": 2172,
      "handler": 2173,
      "ined": 2174,
      "exception": 2175,
      "Ġdistance": 2176,
      "****************": 2177,
      "lineno": 2178,
      "itle": 2179,
      "ular": 2180,
      "names": 2181,
      "Ġbeen": 2182,
      "tom": 2183,
      "aller": 2184,
      "ransport": 2185,
      "late": 2186,
      "losed": 2187,
      "Ġcodec": 2188,
      "Decoder": 2189,
      "Ġlongest": 2190,
      "ffi": 2191,
      "Encoder": 2192,
      "Ġcomple": 2193,
      "Ġsection": 2194,
      "Find": 2195,
      "Ġty": 2196,
      "Ġcap": 2197,
      "Ġremove": 2198,
      ")),": 2199,
      "Ġinfo": 2200,
      "bound": 2201,
      "cause": 2202,
      "Counter": 2203,
      "67": 2204,
      "Id": 2205,
      "Ġrel": 2206,
      "diff": 2207,
      "Ġselect": 2208,
      "Ġedge": 2209,
      "27": 2210,
      "host": 2211,
      "raction": 2212,
      "Ġdoc": 2213,
      "Ġintegers": 2214,
      "Sum": 2215,
      "]):": 2216,
      "Ġlineno": 2217,
      "ĠIt": 2218,
      "db": 2219,
      "ailable": 2220,
      "Un": 2221,
      "ear": 2222,
      "ameters": 2223,
      "Ġnodes": 2224,
      "Ġyou": 2225,
      "ared": 2226,
      "zy": 2227,
      "press": 2228,
      "Ġbyte": 2229,
      "Ġbuffer": 2230,
      "Ġsingle": 2231,
      "qrt": 2232,
      "Ġclose": 2233,
      "ottom": 2234,
      "Ġ<<": 2235,
      "###": 2236,
      "Ġass": 2237,
      "Ġwithout": 2238,
      "ffici": 2239,
      "?:": 2240,
      "gener": 2241,
      "Ġfil": 2242,
      "Ġbest": 2243,
      "Ġpossible": 2244,
      "ish": 2245,
      "Ġhere": 2246,
      "play": 2247,
      "Ġvariable": 2248,
      "Exception": 2249,
      "Ġwait": 2250,
      "Ġ]": 2251,
      "ĠSH": 2252,
      "ĠPar": 2253,
      "CKET": 2254,
      "Ġdirectory": 2255,
      "89": 2256,
      "erator": 2257,
      "Ġkn": 2258,
      "Ġstrings": 2259,
      "Ġhigh": 2260,
      "34": 2261,
      "uto": 2262,
      "Ġextra": 2263,
      "87": 2264,
      "Ġpop": 2265,
      "andid": 2266,
      "ecutable": 2267,
      "Ġpackage": 2268,
      "Ġindent": 2269,
      "ĠĠĠĠĠĠĠĠĠĠĠĠĠĠ": 2270,
      "Ġlib": 2271,
      "Ġimplementation": 2272,
      "sep": 2273,
      "stderr": 2274,
      "Ġpol": 2275,
      "Ġfield": 2276,
      "ULL": 2277,
      "SION": 2278,
      "bin": 2279,
      "ds": 2280,
      "handle": 2281,
      "lt": 2282,
      "enc": 2283,
      "ole": 2284,
      "Ġfreq": 2285,
      "Ġ''": 2286,
      "distance": 2287,
      "flags": 2288,
      "hed": 2289,
      "ility": 2290,
      "ipher": 2291,
      "ĠHE": 2292,
      "ĠNotImplementedError": 2293,
      "Ġ\"-": 2294,
      "ell": 2295,
      "tail": 2296,
      "link": 2297,
      "edy": 2298,
      "show": 2299,
      "section": 2300,
      "Ġlocal": 2301,
      "Ġ\"\".": 2302,
      "LOCK": 2303,
      "arnings": 2304,
      "angle": 2305,
      "*(": 2306,
      "NA": 2307,
      "net": 2308,
      "hift": 2309,
      "direct": 2310,
      "RACKET": 2311,
      "Ġgetattr": 2312,
      "Ġspec": 2313,
      "amp": 2314,
      "ging": 2315,
      "}{": 2316,
      "limit": 2317,
      "Ġbound": 2318,
      "content": 2319,
      "Python": 2320,
      "untime": 2321,
      "ways": 2322,
      "Ġmon": 2323,
      "byte": 2324,
      "rome": 2325,
      "term": 2326,
      "MAX": 2327,
      "SS": 2328,
      "Ġoriginal": 2329,
      "Comp": 2330,
      "Ġsuffix": 2331,
      "ze": 2332,
      "}'": 2333,
      "only": 2334,
      "Ġct": 2335,
      "ĠAny": 2336,
      "change": 2337,
      "address": 2338,
      "âĶ": 2339,
      "ĠAB": 2340,
      "dian": 2341,
      "Ġalso": 2342,
      "ĠOSError": 2343,
      "Ġcla": 2344,
      "Ġwindow": 2345,
      "digits": 2346,
      "lication": 2347,
      "requ": 2348,
      "cluded": 2349,
      "80": 2350,
      "MIN": 2351,
      "inator": 2352,
      "Ġpas": 2353,
      "Ġdictionary": 2354,
      "duce": 2355,
      "KEY": 2356,
      "ob": 2357,
      "ome": 2358,
      "xd": 2359,
      "utes": 2360,
      "entry": 2361,
      "vals": 2362,
      "del": 2363,
      "Ġmean": 2364,
      "35": 2365,
      "Ġns": 2366,
      "Ġ11": 2367,
      "Ġ((": 2368,
      "ĠBRACKET": 2369,
      "ĠException": 2370,
      "ighb": 2371,
      "44": 2372,
      "sup": 2373,
      "cho": 2374,
      "Ġord": 2375,
      "vided": 2376,
      "Ġprimes": 2377,
      "CENT": 2378,
      "LI": 2379,
      "PAR": 2380,
      "Ġ}": 2381,
      "strict": 2382,
      "Ġhost": 2383,
      "okie": 2384,
      "Ġcolumn": 2385,
      "common": 2386,
      "shape": 2387,
      "af": 2388,
      "Ġdiff": 2389,
      "fficient": 2390,
      "UP": 2391,
      "true": 2392,
      "ont": 2393,
      "Ġ'_": 2394,
      "Ġglobal": 2395,
      "Ġspecified": 2396,
      "face": 2397,
      "BRE": 2398,
      "au": 2399,
      "cmd": 2400,
      "trans": 2401,
      "istory": 2402,
      "mail": 2403,
      "Ġconvert": 2404,
      "Ġ'-": 2405,
      "ots": 2406,
      "ĠAPI": 2407,
      "100": 2408,
      "pl": 2409,
      "Ġ):": 2410,
      "Ġalgorithms": 2411,
      "INT": 2412,
      "Ġans": 2413,
      "create": 2414,
      "ULT": 2415,
      "Ġspace": 2416,
      "gin": 2417,
      "ndarray": 2418,
      "Ġstd": 2419,
      "Ġalready": 2420,
      "Ġhasattr": 2421,
      "children": 2422,
      "ful": 2423,
      "Ġwrit": 2424,
      "Ġchange": 2425,
      "ators": 2426,
      "Ġobjects": 2427,
      "command": 2428,
      "36": 2429,
      "RAN": 2430,
      "Ġinstead": 2431,
      "gnore": 2432,
      "alindrome": 2433,
      "my": 2434,
      "stant": 2435,
      "ĠEND": 2436,
      "known": 2437,
      "body": 2438,
      "Ġcle": 2439,
      "ĠĠĠĠĠĠĠĠĠĠĠĠ": 2440,
      "ĠĠĠĠĠĠĠĠĠĠĠĠĠĠĠĠĠĠ": 2441,
      "Ġraw": 2442,
      "Reference": 2443,
      "Ġmethods": 2444,
      "ched": 2445,
      "Ġgenerate": 2446,
      "Any": 2447,
      "cli": 2448,
      "arn": 2449,
      "mpt": 2450,
      "Info": 2451,
      "np": 2452,
      "fp": 2453,
      "hash": 2454,
      "Ġ,": 2455,
      "istic": 2456,
      "ments": 2457,
      "Ġtrie": 2458,
      "Ġgreedy": 2459,
      "Ġlike": 2460,
      "Ġmodi": 2461,
      "ice": 2462,
      "wd": 2463,
      "rou": 2464,
      "like": 2465,
      "sa": 2466,
      "used": 2467,
      "Ġtrue": 2468,
      "Ġzero": 2469,
      "Key": 2470,
      "Ġdigit": 2471,
      "Ġkeys": 2472,
      "allest": 2473,
      "can": 2474,
      "ĠĠĠĠĠĠĠĠĠ": 2475,
      "37": 2476,
      "io": 2477,
      "Ġindi": 2478,
      "Ġpower": 2479,
      "]),": 2480,
      "ICE": 2481,
      "Ġsock": 2482,
      "track": 2483,
      "Ġresponse": 2484,
      "Ġstruct": 2485,
      "Ġbecause": 2486,
      "Ġform": 2487,
      "Ġdire": 2488,
      "Ġcontent": 2489,
      "Ġcannot": 2490,
      "Ġmost": 2491,
      "Ġrot": 2492,
      "56": 2493,
      "Ġmx": 2494,
      "Ġ\"\\": 2495,
      "Ġequal": 2496,
      "Ġ{\"": 2497,
      "EST": 2498,
      "Ġoptions": 2499,
      "ject": 2500,
      "Ġreturned": 2501,
      "ĠTIL": 2502,
      "ĠCodec": 2503,
      "vers": 2504,
      "box": 2505,
      "negative": 2506,
      "charmap": 2507,
      "stdout": 2508,
      "package": 2509,
      "ufffe": 2510,
      "ĠTILDE": 2511,
      "FI": 2512,
      "Iter": 2513,
      "ĠĠĠĠĠĠĠĠĠĠĠĠĠ": 2514,
      "random": 2515,
      "Ġ[],": 2516,
      "headers": 2517,
      "DEF": 2518,
      "SET": 2519,
      "cap": 2520,
      "Ġcmd": 2521,
      "Ġgo": 2522,
      "String": 2523,
      "Ġtmp": 2524,
      "Ġmerge": 2525,
      "ression": 2526,
      "Module": 2527,
      "bab": 2528,
      "dition": 2529,
      "Ġfull": 2530,
      "sole": 2531,
      "edges": 2532,
      "ither": 2533,
      "Ġentry": 2534,
      "dfs": 2535,
      "send": 2536,
      "Ġ{'": 2537,
      "Ġsee": 2538,
      "socket": 2539,
      "HAN": 2540,
      "ttribute": 2541,
      "fin": 2542,
      "}:": 2543,
      "Ġlinked": 2544,
      "ĠONE": 2545,
      "Ġprotocol": 2546,
      "ML": 2547,
      "ily": 2548,
      "rows": 2549,
      "ynomial": 2550,
      "register": 2551,
      "84": 2552,
      "={": 2553,
      "Of": 2554,
      "ccess": 2555,
      "Ġ^": 2556,
      "ride": 2557,
      "Ġ_,": 2558,
      "ĠBLOCK": 2559,
      "ESS": 2560,
      "Ġcompile": 2561,
      "ribution": 2562,
      "kind": 2563,
      "ern": 2564,
      "Ġboard": 2565,
      "Ġotherwise": 2566,
      "97": 2567,
      "eded": 2568,
      "Ġdon": 2569,
      "Ġexit": 2570,
      "ferent": 2571,
      "Ġfollowing": 2572,
      "ered": 2573,
      "samples": 2574,
      "Ġ\".": 2575,
      "ector": 2576,
      "very": 2577,
      "Ġsepar": 2578,
      "Ġzip": 2579,
      ">'": 2580,
      "PRE": 2581,
      "Ġthey": 2582,
      "Ġdate": 2583,
      "colors": 2584,
      "ling": 2585,
      "rary": 2586,
      "ĠčĊ": 2587,
      "lem": 2588,
      "field": 2589,
      "Le": 2590,
      "Ġparameter": 2591,
      "Complexity": 2592,
      "Pre": 2593,
      "Ġke": 2594,
      "decoding": 2595,
      "ĠĠĠĠĠĠĠĠĠĠĠĠĠĠĠĠĠĠĠĠĠĠĠĠĠĠĠĠĠĠĠĠĠĠĠĠĠĠĠĠ": 2596,
      "iso": 2597,
      "view": 2598,
      "ĠSEPAR": 2599,
      "ĠSEPARATOR": 2600,
      "PY": 2601,
      "inst": 2602,
      "bose": 2603,
      "Ġbuilt": 2604,
      "Ġvert": 2605,
      "ches": 2606,
      "Ġcontains": 2607,
      "92": 2608,
      "cate": 2609,
      "FC": 2610,
      "]]:": 2611,
      "Ġerr": 2612,
      "IND": 2613,
      "digit": 2614,
      "Ġexample": 2615,
      "Ġprovided": 2616,
      "day": 2617,
      "Ġpassed": 2618,
      "rough": 2619,
      "::": 2620,
      "rec": 2621,
      "deque": 2622,
      "Ġignore": 2623,
      "Ġcharset": 2624,
      "Gener": 2625,
      "src": 2626,
      "Ġboth": 2627,
      "ĠDEV": 2628,
      "struction": 2629,
      "For": 2630,
      "ume": 2631,
      "stk": 2632,
      "mem": 2633,
      "icy": 2634,
      "Ġcompare": 2635,
      "ĠDEVICE": 2636,
      "This": 2637,
      "hook": 2638,
      "To": 2639,
      "Ġattr": 2640,
      "Ġali": 2641,
      "utton": 2642,
      "Ġ(-": 2643,
      "mportError": 2644,
      "ĠĠĠĠĠĠĠĠĠĠĠĠĠĠĠĠĠ": 2645,
      "Ġunion": 2646,
      "hell": 2647,
      "Ġstop": 2648,
      "Ġcommon": 2649,
      "Ġlower": 2650,
      "Ġfinally": 2651,
      "ttributeError": 2652,
      "'{": 2653,
      "Get": 2654,
      "global": 2655,
      "cost": 2656,
      "ĠIter": 2657,
      "ĠIndex": 2658,
      "Ġsplit": 2659,
      "21": 2660,
      "95": 2661,
      "include": 2662,
      "QUARE": 2663,
      "Ġavailable": 2664,
      "âĶĢ": 2665,
      "93": 2666,
      "Handler": 2667,
      "URL": 2668,
      "Ġold": 2669,
      "extend": 2670,
      "Ġprevious": 2671,
      "')]": 2672,
      "IZE": 2673,
      "ng": 2674,
      "ens": 2675,
      "Ġdesc": 2676,
      "Ġfunctions": 2677,
      "pp": 2678,
      "Ġsquare": 2679,
      "\",\".": 2680,
      "until": 2681,
      "Ġchunk": 2682,
      "zen": 2683,
      "))):": 2684,
      "amb": 2685,
      "formation": 2686,
      "modules": 2687,
      "ĠDef": 2688,
      "EXT": 2689,
      "Ġmemo": 2690,
      "ORD": 2691,
      "complete": 2692,
      "bits": 2693,
      "ART": 2694,
      "Ġheaders": 2695,
      "201": 2696,
      "dest": 2697,
      "Ġtake": 2698,
      "Ġ16": 2699,
      "Ġ(?:": 2700,
      "Ġresults": 2701,
      "XX": 2702,
      "square": 2703,
      "Ġim": 2704,
      "Ġthem": 2705,
      "Ġdeque": 2706,
      "eps": 2707,
      "Ġpy": 2708,
      "rozen": 2709,
      "exp": 2710,
      ")}": 2711,
      "CON": 2712,
      "cc": 2713,
      "ret": 2714,
      "static": 2715,
      "Ġfactor": 2716,
      "88": 2717,
      "rate": 2718,
      "environ": 2719,
      "Ġwant": 2720,
      "parts": 2721,
      "Ġdifferent": 2722,
      "cro": 2723,
      "image": 2724,
      "ware": 2725,
      "depth": 2726,
      "Ġimage": 2727,
      "Parser": 2728,
      "ian": 2729,
      "resh": 2730,
      "ench": 2731,
      "inic": 2732,
      "seq": 2733,
      "stamp": 2734,
      "Ġrecursive": 2735,
      "ctor": 2736,
      "ump": 2737,
      "Ġlamb": 2738,
      "Ġexpected": 2739,
      "Ġproduct": 2740,
      "ORT": 2741,
      "aise": 2742,
      "ha": 2743,
      "paths": 2744,
      "partition": 2745,
      "Ġdisplay": 2746,
      "ten": 2747,
      "ĠTHA": 2748,
      "TY": 2749,
      "Ġcre": 2750,
      "ĠLINE": 2751,
      "Ġes": 2752,
      "lap": 2753,
      "ALF": 2754,
      "ĠHALF": 2755,
      "ĠStream": 2756,
      "filter": 2757,
      "UR": 2758,
      "inv": 2759,
      "Ġreplace": 2760,
      "Ġbin": 2761,
      "ĠSQUARE": 2762,
      "Ġenviron": 2763,
      "+(": 2764,
      "90": 2765,
      "gate": 2766,
      "mut": 2767,
      "pivot": 2768,
      "zip": 2769,
      "044": 2770,
      "Ġ[[]": 2771,
      "gorithm": 2772,
      "Ġencoded": 2773,
      "ĠTHAI": 2774,
      "irect": 2775,
      "Ġfp": 2776,
      "Ġsent": 2777,
      "Ġjust": 2778,
      "ĠGet": 2779,
      "factor": 2780,
      "Ġdecl": 2781,
      "lector": 2782,
      "inte": 2783,
      "Ġeven": 2784,
      "ATA": 2785,
      "ĠEX": 2786,
      "andard": 2787,
      "collection": 2788,
      "Ġmove": 2789,
      "Ġdecimal": 2790,
      "885": 2791,
      "Test": 2792,
      "cated": 2793,
      "ince": 2794,
      "alog": 2795,
      "Ġmark": 2796,
      "pand": 2797,
      "codes": 2798,
      "Ġaddress": 2799,
      "www": 2800,
      "bar": 2801,
      "platform": 2802,
      "Ġinclude": 2803,
      "rial": 2804,
      "Ġkind": 2805,
      "Ġappro": 2806,
      "Ġletter": 2807,
      "\"],": 2808,
      "}.": 2809,
      "Ġfuture": 2810,
      "cto": 2811,
      "77": 2812,
      "Queue": 2813,
      "try": 2814,
      "Ġpython": 2815,
      "umul": 2816,
      "ĠAttributeError": 2817,
      "Ġenc": 2818,
      "compress": 2819,
      "tag": 2820,
      "Ġsuch": 2821,
      "30": 2822,
      "Inter": 2823,
      "Ġimp": 2824,
      "Ġfast": 2825,
      "env": 2826,
      "__,": 2827,
      "Ġforce": 2828,
      "fic": 2829,
      "\"))": 2830,
      "aa": 2831,
      "fer": 2832,
      "dered": 2833,
      "Ġunder": 2834,
      "numbers": 2835,
      "Ġ//=": 2836,
      "Ġlambda": 2837,
      "second": 2838,
      "atrix": 2839,
      "Ġcandid": 2840,
      "Ġ'/": 2841,
      "ĠCheck": 2842,
      "(\"\\": 2843,
      "Ġnegative": 2844,
      "Ġalways": 2845,
      "iteral": 2846,
      "IncrementalDecoder": 2847,
      "'))": 2848,
      "cor": 2849,
      "Ġtk": 2850,
      "idle": 2851,
      "Ġconstruct": 2852,
      "ĠID": 2853,
      "chars": 2854,
      "ĠNote": 2855,
      "suffix": 2856,
      "pid": 2857,
      "Ġcli": 2858,
      "unction": 2859,
      "ĠBase": 2860,
      "options": 2861,
      "Ġpaths": 2862,
      "SM": 2863,
      "auth": 2864,
      "break": 2865,
      "Ġreference": 2866,
      "Ġ'{": 2867,
      "Ġ13": 2868,
      "(\"-": 2869,
      "Ġiterable": 2870,
      "Ġaccept": 2871,
      "Ġwhether": 2872,
      "8859": 2873,
      "chi": 2874,
      "flow": 2875,
      "initial": 2876,
      "argv": 2877,
      "ĠINF": 2878,
      "stats": 2879,
      "StreamWriter": 2880,
      "StreamReader": 2881,
      "Number": 2882,
      "har": 2883,
      "ert": 2884,
      "Ġfail": 2885,
      "Ġwould": 2886,
      "ished": 2887,
      "ordin": 2888,
      "IncrementalEncoder": 2889,
      "ĠKeyError": 2890,
      "Dict": 2891,
      "abstract": 2892,
      "rowser": 2893,
      "Ġcollection": 2894,
      "iled": 2895,
      "ĠIncremental": 2896,
      "Helper": 2897,
      "ORE": 2898,
      "Ġhttp": 2899,
      "ster": 2900,
      "verter": 2901,
      "Ġ30": 2902,
      "protocol": 2903,
      "Ġlargest": 2904,
      "Bu": 2905,
      "TI": 2906,
      "WO": 2907,
      "Ġflag": 2908,
      "ĠCOM": 2909,
      "uplic": 2910,
      "ĠDo": 2911,
      "Ġthrough": 2912,
      "Request": 2913,
      "Ġupper": 2914,
      "Cont": 2915,
      "Ġkwargs": 2916,
      "NAME": 2917,
      "imp": 2918,
      "normal": 2919,
      "Ġnormal": 2920,
      "Ġwarnings": 2921,
      "ĠHT": 2922,
      "LAG": 2923,
      "erver": 2924,
      "ites": 2925,
      "termin": 2926,
      "Ġhandler": 2927,
      "exe": 2928,
      "Ġarea": 2929,
      "ĠSee": 2930,
      "Ġtyping": 2931,
      "Ġfilter": 2932,
      "full": 2933,
      "over": 2934,
      "window": 2935,
      "delete": 2936,
      "Ġio": 2937,
      "Ġemit": 2938,
      "acity": 2939,
      "ominator": 2940,
      "area": 2941,
      "vars": 2942,
      "AM": 2943,
      "CR": 2944,
      "So": 2945,
      "SON": 2946,
      "ODE": 2947,
      "ributes": 2948,
      "ĠTHREE": 2949,
      "tk": 2950,
      "ĠĠĠĠĠĠĠĠĠĠĠĠĠĠĠĠĠĠĠĠĠĠ": 2951,
      "weight": 2952,
      "clear": 2953,
      "96": 2954,
      "Ġaction": 2955,
      "Ġtimes": 2956,
      "Ġsymbol": 2957,
      "med": 2958,
      "itor": 2959,
      "Ġsend": 2960,
      "Ġparts": 2961,
      "Ġdoesn": 2962,
      "enchmark": 2963,
      "BU": 2964,
      "OVE": 2965,
      "efficient": 2966,
      "miss": 2967,
      "push": 2968,
      "tle": 2969,
      "writer": 2970,
      "Ġtraceback": 2971,
      "Ġbits": 2972,
      "Ġmissing": 2973,
      "ĠAl": 2974,
      "verage": 2975,
      "contain": 2976,
      "98": 2977,
      "Com": 2978,
      "rees": 2979,
      "stop": 2980,
      "rot": 2981,
      "Ġdown": 2982,
      "Ġ\",": 2983,
      "ĠCED": 2984,
      "Ġ32": 2985,
      "ILLA": 2986,
      "utils": 2987,
      "âĶĢâĶĢ": 2988,
      "ĠCEDILLA": 2989,
      "Ġrest": 2990,
      "Ġrepe": 2991,
      "ĠSHA": 2992,
      "escape": 2993,
      "Ġcontaining": 2994,
      "^(": 2995,
      "cancel": 2996,
      "fit": 2997,
      "ts": 2998,
      "}\",": 2999,
      "Ġbfs": 3000,
      "Ġbisect": 3001,
      "tem": 3002,
      "abet": 3003,
      "Ġus": 3004,
      "Ġadded": 3005,
      "ays": 3006,
      "wap": 3007,
      "utdown": 3008,
      "Ġconnect": 3009,
      "ĠIS": 3010,
      "THON": 3011,
      "Ġmemory": 3012,
      "CL": 3013,
      "II": 3014,
      "pted": 3015,
      "Ġrepr": 3016,
      "ĠTWO": 3017,
      "INED": 3018,
      "Ġexec": 3019,
      "NDEF": 3020,
      "Ġunit": 3021,
      ".\",": 3022,
      "FLAG": 3023,
      "tion": 3024,
      "trace": 3025,
      "ummy": 3026,
      "Ġeither": 3027,
      "().__": 3028,
      "qual": 3029,
      "iterable": 3030,
      "He": 3031,
      "gen": 3032,
      "history": 3033,
      "solution": 3034,
      "Ġcallable": 3035,
      "Ġ'<": 3036,
      "Ġour": 3037,
      "Ġdone": 3038,
      "ĠRFC": 3039,
      "ublic": 3040,
      "================": 3041,
      "NDEFINED": 3042,
      "THAN": 3043,
      "api": 3044,
      "Ġvector": 3045,
      "exist": 3046,
      "counts": 3047,
      "itespace": 3048,
      "08": 3049,
      "inations": 3050,
      "Ġ\")": 3051,
      "thing": 3052,
      "Ġlock": 3053,
      "uble": 3054,
      "Ġunique": 3055,
      "AULT": 3056,
      "SH": 3057,
      "Ġuntil": 3058,
      "Ġcy": 3059,
      "Ġ',": 3060,
      "sets": 3061,
      "Ġcondition": 3062,
      "lice": 3063,
      "ĠACCENT": 3064,
      "Ġrunning": 3065,
      "AND": 3066,
      "pi": 3067,
      "ĠPy": 3068,
      "ĠUNDEFINED": 3069,
      "OUR": 3070,
      "Ġscript": 3071,
      "Ġctx": 3072,
      "ernel": 3073,
      "lush": 3074,
      "Ġlink": 3075,
      "ĠCAR": 3076,
      "Ġcho": 3077,
      "vertices": 3078,
      "pression": 3079,
      "'],": 3080,
      "31": 3081,
      "50": 3082,
      "IM": 3083,
      "yload": 3084,
      "Ġ14": 3085,
      "Invalid": 3086,
      "params": 3087,
      "Ġexponent": 3088,
      "Class": 3089,
      "rel": 3090,
      "radi": 3091,
      "Ġmapping": 3092,
      "ĠSet": 3093,
      "ĠFI": 3094,
      "Ġbuf": 3095,
      "Ġgreater": 3096,
      "`.": 3097,
      "Ġsample": 3098,
      "ntax": 3099,
      "Ġdebug": 3100,
      "ffect": 3101,
      "ifier": 3102,
      "heappush": 3103,
      "Ġparams": 3104,
      "ctools": 3105,
      "reverse": 3106,
      "degree": 3107,
      "Ġinvalid": 3108,
      "Ġevery": 3109,
      "leno": 3110,
      "ERR": 3111,
      "Ġdiv": 3112,
      "Ġcolors": 3113,
      "Ġdirected": 3114,
      "Ġsystem": 3115,
      "versal": 3116,
      "wh": 3117,
      "Ġreduce": 3118,
      "Ġport": 3119,
      "pair": 3120,
      "Ġbeing": 3121,
      "extra": 3122,
      "Ġexists": 3123,
      "Ġalpha": 3124,
      "Var": 3125,
      "dq": 3126,
      "uid": 3127,
      "Ġident": 3128,
      "Ġthese": 3129,
      "ĠFile": 3130,
      "Ġhand": 3131,
      "cut": 3132,
      "lections": 3133,
      "ĠNOT": 3134,
      "INF": 3135,
      "asing": 3136,
      "ures": 3137,
      "buf": 3138,
      "charset": 3139,
      "Ġmultiple": 3140,
      "fg": 3141,
      "traceback": 3142,
      "Ġinformation": 3143,
      "Ġdivis": 3144,
      "iteritems": 3145,
      "creen": 3146,
      "Ġsmallest": 3147,
      "decimal": 3148,
      "40": 3149,
      "75": 3150,
      "DIR": 3151,
      "title": 3152,
      "ĠSO": 3153,
      "ĠImportError": 3154,
      "Ġfix": 3155,
      "ysis": 3156,
      "expected": 3157,
      "Ġchars": 3158,
      "Ġcallback": 3159,
      "Ġidle": 3160,
      "ĠHEBRE": 3161,
      "ĠHEBREW": 3162,
      "bind": 3163,
      "has": 3164,
      "oc": 3165,
      "rest": 3166,
      "Ġ=>": 3167,
      "Ġwidget": 3168,
      "Ġ\"--": 3169,
      "enter": 3170,
      "])):": 3171,
      "extension": 3172,
      "moved": 3173,
      "Ġpair": 3174,
      "creasing": 3175,
      "28": 3176,
      "Ġfe": 3177,
      "ssl": 3178,
      "istance": 3179,
      "iding": 3180,
      "Cost": 3181,
      "Col": 3182,
      "Event": 3183,
      "multip": 3184,
      "writ": 3185,
      "Ġcalculate": 3186,
      "ulation": 3187,
      "conversion": 3188,
      "Ġattribute": 3189,
      "94": 3190,
      "ale": 3191,
      "gy": 3192,
      "txt": 3193,
      "Ġtb": 3194,
      "uration": 3195,
      "Ġtheir": 3196,
      "ĠOption": 3197,
      "Ġdelete": 3198,
      "QUAL": 3199,
      "abstractmethod": 3200,
      "gle": 3201,
      "__':": 3202,
      "ription": 3203,
      "Ġleast": 3204,
      "month": 3205,
      "callback": 3206,
      "Ġside": 3207,
      "display": 3208,
      "ĠABOVE": 3209,
      "Ġemail": 3210,
      "ĠSo": 3211,
      "ĠTHE": 3212,
      "Ġoptional": 3213,
      "Len": 3214,
      "bisect": 3215,
      "ni": 3216,
      "Ġ..": 3217,
      "Ġsim": 3218,
      "iling": 3219,
      "Ġbegin": 3220,
      "opy": 3221,
      "LED": 3222,
      "Ġescape": 3223,
      "Ġreal": 3224,
      "Ġpe": 3225,
      "ĠNO": 3226,
      "ords": 3227,
      "ically": 3228,
      "Ġprovide": 3229,
      "uler": 3230,
      "ckets": 3231,
      "Ġextension": 3232,
      "Ġdocument": 3233,
      "65": 3234,
      "after": 3235,
      "rup": 3236,
      "Ġrec": 3237,
      "uess": 3238,
      "ĠNumber": 3239,
      "pass": 3240,
      "Ġbelow": 3241,
      "Ġconnection": 3242,
      "Ġlook": 3243,
      "curses": 3244,
      "system": 3245,
      "Ġtermin": 3246,
      "ĠIndexError": 3247,
      "Data": 3248,
      "Not": 3249,
      "ats": 3250,
      "ended": 3251,
      "rand": 3252,
      "ĠTO": 3253,
      "ĠĠĠĠĠĠĠĠĠĠĠĠĠĠĠĠĠĠĠĠĠ": 3254,
      "Ġoperation": 3255,
      "chive": 3256,
      "bb": 3257,
      "Ġ*=": 3258,
      "Ġcould": 3259,
      "Ġneeded": 3260,
      "Ġund": 3261,
      "ustom": 3262,
      "OLD": 3263,
      "variable": 3264,
      "classes": 3265,
      "Ġvertices": 3266,
      "hand": 3267,
      "imple": 3268,
      "~~": 3269,
      "Ġ'%": 3270,
      "ĠĠĠĠĠĠĠĠĠĠĠĠĠĠĠĠĠĠĠĠ": 3271,
      "ĠFE": 3272,
      "Ġneighb": 3273,
      "idxs": 3274,
      "Ġsupported": 3275,
      "speci": 3276,
      "BA": 3277,
      "Ġfa": 3278,
      "Ġpad": 3279,
      "umns": 3280,
      "Ġdefined": 3281,
      "Ġprogram": 3282,
      "ĠUN": 3283,
      "Ġless": 3284,
      "ĠInput": 3285,
      "Ġsuccess": 3286,
      "Ġround": 3287,
      "ĠUnicode": 3288,
      ":-": 3289,
      "CA": 3290,
      "Ġauth": 3291,
      "ĠAs": 3292,
      "Ġexact": 3293,
      "Ġrows": 3294,
      "60": 3295,
      "LUS": 3296,
      "fect": 3297,
      "gument": 3298,
      "Ġinv": 3299,
      "__.__": 3300,
      "ĠSy": 3301,
      "upper": 3302,
      "Ġhow": 3303,
      "Ġevents": 3304,
      "Ġkeep": 3305,
      "\",\".\",\".": 3306,
      "Ġasync": 3307,
      "requency": 3308,
      "Ġnc": 3309,
      "hel": 3310,
      "ĠLo": 3311,
      "Ġob": 3312,
      "Ġ\"_": 3313,
      "bove": 3314,
      "Ġpointers": 3315,
      "IPT": 3316,
      "-(": 3317,
      "Given": 3318,
      "Warning": 3319,
      "zero": 3320,
      "ortest": 3321,
      "Ġoc": 3322,
      "fill": 3323,
      "ands": 3324,
      "prog": 3325,
      "executable": 3326,
      "ĠURL": 3327,
      "Ġcomponent": 3328,
      "mension": 3329,
      "power": 3330,
      "sqrt": 3331,
      "Ġdst": 3332,
      "dio": 3333,
      "ilities": 3334,
      "ĠFraction": 3335,
      "mbols": 3336,
      "Ġstatus": 3337,
      "Array": 3338,
      "29": 3339,
      "TreeNode": 3340,
      "ctype": 3341,
      "Ġbody": 3342,
      "__.": 3343,
      "dis": 3344,
      "ĠPol": 3345,
      "ĠPath": 3346,
      "termine": 3347,
      ")'": 3348,
      "OF": 3349,
      "closed": 3350,
      "}')": 3351,
      "Ġutil": 3352,
      "Ġabove": 3353,
      "Ġbar": 3354,
      "ĠRaise": 3355,
      "Ġseen": 3356,
      "amily": 3357,
      "Result": 3358,
      "OUND": 3359,
      "Ġtestmod": 3360,
      "Ġchildren": 3361,
      "POINT": 3362,
      "irected": 3363,
      "*.": 3364,
      "PC": 3365,
      "bc": 3366,
      "eve": 3367,
      "ient": 3368,
      "ĠAL": 3369,
      "stra": 3370,
      "Ġbottom": 3371,
      "vector": 3372,
      "Ġuses": 3373,
      "acci": 3374,
      "``.": 3375,
      "################################": 3376,
      "91": 3377,
      "CLA": 3378,
      "math": 3379,
      "warn": 3380,
      "|)": 3381,
      "onacci": 3382,
      "met": 3383,
      "rays": 3384,
      "force": 3385,
      "collections": 3386,
      "counter": 3387,
      "location": 3388,
      "Ġpriority": 3389,
      "Ġavoid": 3390,
      "linked": 3391,
      "pear": 3392,
      "Ġodd": 3393,
      "ĠOn": 3394,
      "Ġfib": 3395,
      "Ġlists": 3396,
      "cesses": 3397,
      "Ġquot": 3398,
      "traverse": 3399,
      "Ġactual": 3400,
      "Text": 3401,
      "ural": 3402,
      "Ġ17": 3403,
      "ATED": 3404,
      "Ġnet": 3405,
      "connect": 3406,
      "ĠWindows": 3407,
      "Ġanother": 3408,
      "ĠListNode": 3409,
      "tokens": 3410,
      "heappop": 3411,
      "year": 3412,
      "ĠRuntime": 3413,
      "Ġpresent": 3414,
      "Ġraised": 3415,
      "inition": 3416,
      "Ġmodules": 3417,
      "SCII": 3418,
      "Ġbacktrack": 3419,
      "wrapper": 3420,
      "48": 3421,
      "Pa": 3422,
      "freq": 3423,
      "mar": 3424,
      "alph": 3425,
      "Ġnth": 3426,
      "Ġmn": 3427,
      "ĠLOW": 3428,
      "Ġ1000": 3429,
      "Ġdummy": 3430,
      "ITY": 3431,
      "preter": 3432,
      "ĠĠĠĠĠĠĠĠĠĠĠĠĠĠĠĠĠĠĠĠĠĠĠĠĠĠ": 3433,
      "IRE": 3434,
      "Item": 3435,
      "Server": 3436,
      "TA": 3437,
      "json": 3438,
      "Ġ}\")": 3439,
      "Ġauto": 3440,
      "ram": 3441,
      "olved": 3442,
      "quote": 3443,
      "product": 3444,
      "ĠXXX": 3445,
      "________": 3446,
      "reshold": 3447,
      "kf": 3448,
      "widget": 3449,
      "yle": 3450,
      "Ġsince": 3451,
      "ceden": 3452,
      "olute": 3453,
      "Ġ:=": 3454,
      "Ġvi": 3455,
      "endswith": 3456,
      "ational": 3457,
      "Ġgot": 3458,
      "ĠFind": 3459,
      "allback": 3460,
      "acency": 3461,
      "Ġcounts": 3462,
      "status": 3463,
      "SCR": 3464,
      "Ġthreading": 3465,
      "tric": 3466,
      "ĠANG": 3467,
      "PYTHON": 3468,
      "globals": 3469,
      "END": 3470,
      "non": 3471,
      "response": 3472,
      "ernal": 3473,
      "Ġ'*": 3474,
      "ings": 3475,
      "ĠSPACE": 3476,
      "ĠDi": 3477,
      "served": 3478,
      "cursion": 3479,
      "Ġ50": 3480,
      "Ġlong": 3481,
      "go": 3482,
      "step": 3483,
      "ionError": 3484,
      "Ġsep": 3485,
      "Ġanal": 3486,
      "active": 3487,
      "column": 3488,
      "Ġabout": 3489,
      "stdin": 3490,
      "Ġsignal": 3491,
      "cat": 3492,
      "pow": 3493,
      "istry": 3494,
      "Ġ25": 3495,
      "inel": 3496,
      "Ġdestination": 3497,
      "Ġdatetime": 3498,
      "SCRIPT": 3499,
      "'\\": 3500,
      "COM": 3501,
      "fy": 3502,
      "tip": 3503,
      "Ġla": 3504,
      "Ġ26": 3505,
      "ĠWhen": 3506,
      "clinic": 3507,
      "Stack": 3508,
      "Ġverbose": 3509,
      "Ġremaining": 3510,
      "cedence": 3511,
      "Ġ~": 3512,
      "Ġfd": 3513,
      "lack": 3514,
      "comb": 3515,
      "---": 3516,
      "results": 3517,
      "Ġsubprocess": 3518,
      "inkedList": 3519,
      "staticmethod": 3520,
      "Ġcycle": 3521,
      "=(": 3522,
      "inct": 3523,
      "Ġnumpy": 3524,
      "codeError": 3525,
      "Ġlocation": 3526,
      "ĠEQUAL": 3527,
      "Ġspecial": 3528,
      "POINTING": 3529,
      "ĠANGLE": 3530,
      "BST": 3531,
      "Enter": 3532,
      "jk": 3533,
      "wn": 3534,
      "ĠCalculate": 3535,
      "Ġprobab": 3536,
      "OLON": 3537,
      "ĠCont": 3538,
      "tz": 3539,
      "Ġsche": 3540,
      "unit": 3541,
      "ĠEN": 3542,
      "acter": 3543,
      "Ġstarting": 3544,
      "datetime": 3545,
      "Ġmonth": 3546,
      "Length": 3547,
      "PER": 3548,
      "Ġcipher": 3549,
      "here": 3550,
      "urces": 3551,
      "Ġpow": 3552,
      "ĠTh": 3553,
      "Ġgcd": 3554,
      "Ġenv": 3555,
      "Ġparameters": 3556,
      "'''": 3557,
      "ĠOptional": 3558,
      "(|": 3559,
      "MIC": 3560,
      "SIC": 3561,
      "patch": 3562,
      "ler": 3563,
      "Ġcir": 3564,
      "Ġfra": 3565,
      "Ġpipe": 3566,
      "Ġsa": 3567,
      "Ġssl": 3568,
      "Ġstandard": 3569,
      "Ġload": 3570,
      "ĠRE": 3571,
      "Ġbased": 3572,
      "tb": 3573,
      "ving": 3574,
      "reset": 3575,
      "Ġfill": 3576,
      "Ġinit": 3577,
      "Ġnow": 3578,
      "Ġpick": 3579,
      "Ġsig": 3580,
      "__)": 3581,
      "div": 3582,
      "Ġnamed": 3583,
      "strings": 3584,
      "OLID": 3585,
      "Ġtrack": 3586,
      "Ġplace": 3587,
      "Ġrequired": 3588,
      "Run": 3589,
      "Sy": 3590,
      "ually": 3591,
      "ones": 3592,
      "adata": 3593,
      "ids": 3594,
      "Ġ|=": 3595,
      "Ġappear": 3596,
      "Ġprices": 3597,
      "factory": 3598,
      "Ġspf": 3599,
      "VERSION": 3600,
      "_(": 3601,
      "lue": 3602,
      "long": 3603,
      "pipe": 3604,
      "Ġawait": 3605,
      "Ġpl": 3606,
      "Ġpost": 3607,
      "__',": 3608,
      "ĠInter": 3609,
      "ĠUse": 3610,
      "comment": 3611,
      "Ġedit": 3612,
      "sche": 3613,
      "Ġmatching": 3614,
      "Ġsimple": 3615,
      "ĠComp": 3616,
      "Ġdirections": 3617,
      "DEFAULT": 3618,
      "NTH": 3619,
      "nc": 3620,
      "wer": 3621,
      "ĠSOLID": 3622,
      "loor": 3623,
      "fileno": 3624,
      "chor": 3625,
      "][-": 3626,
      "READ": 3627,
      "ĠHe": 3628,
      "Ġpairs": 3629,
      "logr": 3630,
      "123": 3631,
      "ĠStack": 3632,
      "NTHESIS": 3633,
      "By": 3634,
      "URE": 3635,
      "Ġag": 3636,
      "Ġcaller": 3637,
      "Ġ':": 3638,
      "ĠCURL": 3639,
      "ĠPARE": 3640,
      "Ġproblem": 3641,
      "Ġdefaults": 3642,
      "1111": 3643,
      "Ġaccess": 3644,
      "ferences": 3645,
      "ront": 3646,
      "slots": 3647,
      "Ġoptim": 3648,
      "ĠMAX": 3649,
      "ĠSOLIDUS": 3650,
      "ĠCURLY": 3651,
      "ĠPARENTHESIS": 3652,
      "(\"\"": 3653,
      "SIZE": 3654,
      "Ġsur": 3655,
      "ONE": 3656,
      "rypted": 3657,
      "ĠGraph": 3658,
      "Ġkeyword": 3659,
      "ĠSOFT": 3660,
      "74": 3661,
      "less": 3662,
      "Ġiss": 3663,
      "Ġtail": 3664,
      "alance": 3665,
      "Ġplatform": 3666,
      "ilar": 3667,
      "ĠFOUR": 3668,
      "asic": 3669,
      "APE": 3670,
      "Ġprog": 3671,
      "Returns": 3672,
      "winapi": 3673,
      "atures": 3674,
      "=_": 3675,
      "Int": 3676,
      "bottom": 3677,
      "dle": 3678,
      "mote": 3679,
      "select": 3680,
      "Ġnj": 3681,
      "land": 3682,
      "ines": 3683,
      "ĠĠĠĠĠĠĠĠĠĠĠĠĠĠĠĠĠĠĠĠĠĠĠĠĠĠĠĠĠĠĠĠĠĠĠ": 3684,
      "ithub": 3685,
      "Ġseq": 3686,
      "Ġacc": 3687,
      "Ġwrapper": 3688,
      "safe": 3689,
      "ĠRuntimeError": 3690,
      "Object": 3691,
      "Ġcp": 3692,
      "Ġremoved": 3693,
      "Ġeval": 3694,
      "Ġstrict": 3695,
      "ATH": 3696,
      "ason": 3697,
      "popleft": 3698,
      "dispatch": 3699,
      ")])": 3700,
      "Me": 3701,
      "action": 3702,
      "fc": 3703,
      "sample": 3704,
      "Ġtag": 3705,
      "ceiv": 3706,
      "INAL": 3707,
      "ETH": 3708,
      "ends": 3709,
      "ĠFunction": 3710,
      "([-": 3711,
      "Ġshared": 3712,
      "Input": 3713,
      "partial": 3714,
      "ELL": 3715,
      "manager": 3716,
      "Ġattributes": 3717,
      "\"])": 3718,
      "83": 3719,
      "IFT": 3720,
      "Res": 3721,
      "Ġtrace": 3722,
      "Ġctypes": 3723,
      "hes": 3724,
      "mean": 3725,
      "Ġexecutable": 3726,
      "Ġsegment": 3727,
      "ĠMe": 3728,
      "ĠMatrix": 3729,
      "acent": 3730,
      "Ġnewline": 3731,
      "State": 3732,
      "Ġstats": 3733,
      "labels": 3734,
      "github": 3735,
      "uz": 3736,
      "xfe": 3737,
      "orage": 3738,
      "Ġ'#": 3739,
      "ĠESC": 3740,
      "forward": 3741,
      "ĠĠĠĠĠĠĠĠĠĠĠĠĠĠĠĠĠĠĠĠĠĠĠĠĠĠĠĠ": 3742,
      "Ġlogging": 3743,
      "Ġoverride": 3744,
      "09": 3745,
      "dc": 3746,
      "roll": 3747,
      "Ġuop": 3748,
      "precated": 3749,
      "built": 3750,
      "component": 3751,
      "Ġwhat": 3752,
      "Ġoperators": 3753,
      "layer": 3754,
      "Ġrelative": 3755,
      "MINUS": 3756,
      "Ġenvironment": 3757,
      "gory": 3758,
      "}/": 3759,
      "ctx": 3760,
      "Ġelem": 3761,
      "Ġwin": 3762,
      "ĠTo": 3763,
      "Ġ\"%": 3764,
      "ERS": 3765,
      "Ġthree": 3766,
      "ics": 3767,
      "pred": 3768,
      "exec": 3769,
      "ĠGener": 3770,
      "itional": 3771,
      "vari": 3772,
      "Ġvariables": 3773,
      "Ġclear": 3774,
      "ĠSHADE": 3775,
      "UID": 3776,
      "WORD": 3777,
      "original": 3778,
      "Ġtitle": 3779,
      "lazy": 3780,
      "union": 3781,
      "izip": 3782,
      "lim": 3783,
      "connection": 3784,
      "ĠBy": 3785,
      "Ġnamespace": 3786,
      "Ġpositions": 3787,
      "heights": 3788,
      "Ġtasks": 3789,
      "Ġlabels": 3790,
      "Ġalphabet": 3791,
      "ĠHTTP": 3792,
      ")\"": 3793,
      ".,": 3794,
      "AF": 3795,
      "Ġincrement": 3796,
      "Ġ-----------------": 3797,
      "Ġslow": 3798,
      "rive": 3799,
      "Ġtoo": 3800,
      "ĠAn": 3801,
      "getitem": 3802,
      "\").": 3803,
      "acy": 3804,
      "Ġlinear": 3805,
      "iterative": 3806,
      "Ġcompat": 3807,
      "Ġaccu": 3808,
      "quire": 3809,
      "ĠQueue": 3810,
      "Ġrepresenting": 3811,
      "Ġcapacity": 3812,
      "Ġscheme": 3813,
      "ĠESCAPE": 3814,
      "'re": 3815,
      "LINE": 3816,
      "ground": 3817,
      "rule": 3818,
      "sure": 3819,
      "ories": 3820,
      "tect": 3821,
      "chunk": 3822,
      "opcode": 3823,
      "Ġprompt": 3824,
      "Ġcompression": 3825,
      "OLATED": 3826,
      "Proxy": 3827,
      "mlink": 3828,
      "Ġtrain": 3829,
      "ABC": 3830,
      "Ġassign": 3831,
      "SSL": 3832,
      "integer": 3833,
      "ĠISOLATED": 3834,
      "gre": 3835,
      "merge": 3836,
      "nr": 3837,
      "pending": 3838,
      "palindrome": 3839,
      "Ġfut": 3840,
      "ĠSU": 3841,
      "ĠNo": 3842,
      "ĠCopy": 3843,
      "ĠAll": 3844,
      "addr": 3845,
      "Ġparsed": 3846,
      "ULATION": 3847,
      "calls": 3848,
      "Ġspecific": 3849,
      "ĠSTART": 3850,
      "UPER": 3851,
      "HI": 3852,
      "multi": 3853,
      "sel": 3854,
      "leg": 3855,
      "Ġtransport": 3856,
      "urtle": 3857,
      "Ġsqrt": 3858,
      "Ġsteps": 3859,
      "classmethod": 3860,
      "ĠPLUS": 3861,
      "clus": 3862,
      "bool": 3863,
      "licit": 3864,
      "Ġlogger": 3865,
      "ynci": 3866,
      "[:]": 3867,
      "Ġinterface": 3868,
      "Ġframes": 3869,
      "ĠSegment": 3870,
      "ĠJSON": 3871,
      "STRING": 3872,
      "ERROR": 3873,
      "Th": 3874,
      "mi": 3875,
      "mx": 3876,
      "ored": 3877,
      "xx": 3878,
      "orig": 3879,
      "store": 3880,
      "Ġref": 3881,
      "Ġ\"<": 3882,
      "high": 3883,
      "okies": 3884,
      "LEN": 3885,
      "Ġexceptions": 3886,
      "dirs": 3887,
      "skip": 3888,
      "script": 3889,
      "LOC": 3890,
      "Ġidxs": 3891,
      "stants": 3892,
      "Create": 3893,
      "OK": 3894,
      "]}": 3895,
      "ook": 3896,
      "shift": 3897,
      "Ġwriter": 3898,
      "olors": 3899,
      "ĠDA": 3900,
      "abled": 3901,
      "APP": 3902,
      "imer": 3903,
      "ignore": 3904,
      "[:-": 3905,
      "riplet": 3906,
      "pool": 3907,
      "Ġcomplete": 3908,
      "Ġknown": 3909,
      "Ġclasses": 3910,
      "->": 3911,
      "=-": 3912,
      "FA": 3913,
      "HEN": 3914,
      "bs": 3915,
      "bos": 3916,
      "dj": 3917,
      "final": 3918,
      "sist": 3919,
      "score": 3920,
      "uring": 3921,
      "ross": 3922,
      "ĠSUPER": 3923,
      "Ġconn": 3924,
      "Ġdegree": 3925,
      "light": 3926,
      "Ġcols": 3927,
      "ORY": 3928,
      "Process": 3929,
      "ibility": 3930,
      "Ġway": 3931,
      "Ġmeans": 3932,
      "ĠSUPERSCRIPT": 3933,
      ":])": 3934,
      "</": 3935,
      "dot": 3936,
      "gb": 3937,
      "ru": 3938,
      "uop": 3939,
      "invalid": 3940,
      "Ġreach": 3941,
      "Ġresource": 3942,
      "medi": 3943,
      "Ġshift": 3944,
      "otst": 3945,
      "ision": 3946,
      "mount": 3947,
      "rence": 3948,
      "ISSION": 3949,
      "Ġurllib": 3950,
      "Ġappend": 3951,
      "Ġseconds": 3952,
      "Ġmember": 3953,
      "Ġtakes": 3954,
      "exists": 3955,
      "ĠCARON": 3956,
      "SIColors": 3957,
      ")],": 3958,
      "39": 3959,
      "Oper": 3960,
      "ee": 3961,
      "ident": 3962,
      "Ġaverage": 3963,
      "help": 3964,
      "ĠSorted": 3965,
      "()))": 3966,
      "ĠNEG": 3967,
      "ately": 3968,
      "mass": 3969,
      "Ġdomain": 3970,
      "Ġcalls": 3971,
      "ORMAL": 3972,
      "agon": 3973,
      "memory": 3974,
      "otstrap": 3975,
      "BER": 3976,
      "fmt": 3977,
      "ud": 3978,
      "whi": 3979,
      "xml": 3980,
      "decoder": 3981,
      "Ġclosed": 3982,
      "Ġbig": 3983,
      "ĠTEXT": 3984,
      "ĠAdd": 3985,
      "ĠDOT": 3986,
      "Ġmass": 3987,
      "Ġtimestamp": 3988,
      "mplementation": 3989,
      "symbol": 3990,
      "Ġgroups": 3991,
      "ĠSHIFT": 3992,
      "ĠIDLE": 3993,
      "yncio": 3994,
      "bosity": 3995,
      "Man": 3996,
      "VAL": 3997,
      "bra": 3998,
      "done": 3999,
      "seek": 4000,
      "ences": 4001,
      "pare": 4002,
      "Ġyour": 4003,
      "FFFF": 4004,
      "generate": 4005,
      "ĠIterator": 4006,
      "Ġdivmod": 4007,
      "Ġoccur": 4008,
      "\"'": 4009,
      "PR": 4010,
      "YP": 4011,
      "eff": 4012,
      "two": 4013,
      "Ġpush": 4014,
      "Ġscore": 4015,
      "ĠSh": 4016,
      "Ġday": 4017,
      "ĠTAB": 4018,
      "ĠTRAN": 4019,
      "ĠFULL": 4020,
      "Ġhapp": 4021,
      "Ġjoin": 4022,
      "Ġonce": 4023,
      "sources": 4024,
      "``,": 4025,
      "shutdown": 4026,
      "Ġiterator": 4027,
      "Ġstdout": 4028,
      "TYPE": 4029,
      "Ġundirected": 4030,
      "ĠTABULATION": 4031,
      "=[": 4032,
      "NOT": 4033,
      "dst": 4034,
      "dden": 4035,
      "ming": 4036,
      "uage": 4037,
      "respon": 4038,
      "Ġresp": 4039,
      "Ġ'('": 4040,
      "Ġdq": 4041,
      "ATE": 4042,
      "ftware": 4043,
      "setdefault": 4044,
      "ĠFRA": 4045,
      "Ġexpression": 4046,
      "Ġhex": 4047,
      "except": 4048,
      "blems": 4049,
      "Ġsubset": 4050,
      "Ġ'.'": 4051,
      "ĠDefault": 4052,
      "umulative": 4053,
      "NOW": 4054,
      "SU": 4055,
      "flush": 4056,
      "uation": 4057,
      "ongest": 4058,
      "Ġfn": 4059,
      "Ġfmt": 4060,
      "ĠText": 4061,
      "aps": 4062,
      "const": 4063,
      "Context": 4064,
      "Ġvari": 4065,
      "Ġfactors": 4066,
      "Ġwritten": 4067,
      "recv": 4068,
      "ĠFEED": 4069,
      "ĠFRACTION": 4070,
      ";\\": 4071,
      "Binary": 4072,
      "]][": 4073,
      "`,": 4074,
      "rie": 4075,
      "Ġ\"{": 4076,
      "ĠACK": 4077,
      "Ġ'\\\\": 4078,
      "ĠPer": 4079,
      "ĠMED": 4080,
      "ffff": 4081,
      "Ġproper": 4082,
      "ialog": 4083,
      "Ġargparse": 4084,
      "ressed": 4085,
      "signal": 4086,
      "ĠTRANSM": 4087,
      "Multi": 4088,
      "NORMAL": 4089,
      "bf": 4090,
      "vas": 4091,
      "Ġâ": 4092,
      "Ġflow": 4093,
      "algorithm": 4094,
      "Ġput": 4095,
      "ula": 4096,
      "Ġ\"'": 4097,
      "Ġcookie": 4098,
      "Ġfunctools": 4099,
      "Ġsha": 4100,
      "frames": 4101,
      "eks": 4102,
      "price": 4103,
      "ĠUnion": 4104,
      "supported": 4105,
      "Ġclean": 4106,
      "LEDGE": 4107,
      "NOWLEDGE": 4108,
      "ĠACKNOWLEDGE": 4109,
      "ĠTRANSMISSION": 4110,
      ").__": 4111,
      "43": 4112,
      "Ġau": 4113,
      "alid": 4114,
      "pec": 4115,
      "come": 4116,
      "digest": 4117,
      "045": 4118,
      "Ġcompute": 4119,
      "Ġquote": 4120,
      "resolve": 4121,
      "********************************": 4122,
      "rupt": 4123,
      "ĠRaises": 4124,
      "CP": 4125,
      "Can": 4126,
      "FS": 4127,
      "Handle": 4128,
      "No": 4129,
      "button": 4130,
      "df": 4131,
      "Ġcl": 4132,
      "Ġcar": 4133,
      "Ġcert": 4134,
      "ilder": 4135,
      "operator": 4136,
      "Ġmatches": 4137,
      "Ġsubclass": 4138,
      "Ġheights": 4139,
      "Ġrequires": 4140,
      "Ġdirection": 4141,
      "Ġexactly": 4142,
      "ceived": 4143,
      "br": 4144,
      "mult": 4145,
      "transport": 4146,
      "Ġtkn": 4147,
      "Ġcalcul": 4148,
      "ĠTest": 4149,
      "anges": 4150,
      "])%": 4151,
      "numerator": 4152,
      "lists": 4153,
      "filer": 4154,
      "short": 4155,
      "subsequence": 4156,
      "Ġoperator": 4157,
      "olean": 4158,
      "Modules": 4159,
      "Ġclient": 4160,
      "kg": 4161,
      "sig": 4162,
      "tot": 4163,
      "rection": 4164,
      "Ġcell": 4165,
      "Ġplt": 4166,
      "Ġ({": 4167,
      "loader": 4168,
      "losing": 4169,
      "divis": 4170,
      "ĠHYP": 4171,
      "Ġcomment": 4172,
      "Ġgenerated": 4173,
      "ANCE": 4174,
      "istics": 4175,
      "Ġtkinter": 4176,
      "Ġbacktracking": 4177,
      "jkstra": 4178,
      "ĠHYPHEN": 4179,
      "1000": 4180,
      "We": 4181,
      "sm": 4182,
      "Ġ'?": 4183,
      "mages": 4184,
      "Ġloader": 4185,
      "ĠPER": 4186,
      "osition": 4187,
      "andom": 4188,
      "iterator": 4189,
      "Ġcounter": 4190,
      "maxsize": 4191,
      "Ġwhitespace": 4192,
      "9999": 4193,
      "Ġmany": 4194,
      "contains": 4195,
      "CODE": 4196,
      "Qu": 4197,
      "Ġrank": 4198,
      "orld": 4199,
      "Ġpi": 4200,
      "Ġstrip": 4201,
      "ITIAL": 4202,
      "ĠRed": 4203,
      "times": 4204,
      "Ġopcode": 4205,
      "EVER": 4206,
      "running": 4207,
      "Ġmanager": 4208,
      "Ġallowed": 4209,
      "ĠProcess": 4210,
      "ESTION": 4211,
      "variables": 4212,
      ".')": 4213,
      ">\"": 4214,
      "RI": 4215,
      "post": 4216,
      "site": 4217,
      "remain": 4218,
      "Ġfo": 4219,
      "Ġfrozen": 4220,
      "Ġred": 4221,
      "rag": 4222,
      "raise": 4223,
      "Ġ'<<": 4224,
      "Ġbenchmark": 4225,
      "older": 4226,
      "ERO": 4227,
      "setup": 4228,
      "Ġimportlib": 4229,
      "ĠEn": 4230,
      "amma": 4231,
      "Ġchain": 4232,
      "fork": 4233,
      "Ġshort": 4234,
      "basename": 4235,
      "cluding": 4236,
      "kwds": 4237,
      "denominator": 4238,
      "primes": 4239,
      "ĠQUESTION": 4240,
      "Ġcandidate": 4241,
      "ordinates": 4242,
      ")/": 4243,
      ")^": 4244,
      "38": 4245,
      "GAR": 4246,
      "Ġshell": 4247,
      "Ġlay": 4248,
      "Ġ23": 4249,
      "ĠVUL": 4250,
      "neighb": 4251,
      "dirname": 4252,
      "filenames": 4253,
      "Ġtests": 4254,
      "Ġpartial": 4255,
      "00000000": 4256,
      "Ġexisting": 4257,
      "Ġrepresentation": 4258,
      "Ġletters": 4259,
      "FILE": 4260,
      "Ġidlelib": 4261,
      "Ġagain": 4262,
      "ĠVULGAR": 4263,
      "CIAL": 4264,
      "dev": 4265,
      "enu": 4266,
      "Ġreader": 4267,
      "()]": 4268,
      "()):": 4269,
      "ĠName": 4270,
      "anal": 4271,
      "ITE": 4272,
      "Ġha": 4273,
      "prompt": 4274,
      "ĠInvalid": 4275,
      "Ġspeed": 4276,
      "Ġcosts": 4277,
      "encil": 4278,
      "Ġaccepts": 4279,
      "UE": 4280,
      "ea": 4281,
      "elem": 4282,
      "sequ": 4283,
      "lex": 4284,
      "eros": 4285,
      "Ġce": 4286,
      "Ġ'--": 4287,
      "ĠToken": 4288,
      "ĠOther": 4289,
      "ETA": 4290,
      "Ġwithin": 4291,
      "52": 4292,
      "69": 4293,
      "AA": 4294,
      "pct": 4295,
      "}\\": 4296,
      "Ġ._": 4297,
      "atal": 4298,
      "Ġcustom": 4299,
      "Ġincremental": 4300,
      "hex": 4301,
      "Ġbra": 4302,
      "ĠTON": 4303,
      "Ġ24": 4304,
      "Ġrule": 4305,
      "Ġproxy": 4306,
      "Ġitself": 4307,
      "soft": 4308,
      "cies": 4309,
      "tails": 4310,
      "mission": 4311,
      "Command": 4312,
      "ĠTONOS": 4313,
      "73": 4314,
      "MATION": 4315,
      "PL": 4316,
      "card": 4317,
      "visit": 4318,
      "orator": 4319,
      "Ġrelease": 4320,
      "allow": 4321,
      "ĠAT": 4322,
      "Ġthreshold": 4323,
      "conn": 4324,
      "REN": 4325,
      "eta": 4326,
      "ĠĠĠĠĠĠĠĠĠĠĠĠĠĠĠĠĠĠĠĠĠĠĠĠĠĠĠĠĠ": 4327,
      "pointer": 4328,
      "reatest": 4329,
      "ROKE": 4330,
      "prices": 4331,
      "ĠSTROKE": 4332,
      "064": 4333,
      "lar": 4334,
      "rat": 4335,
      "tions": 4336,
      "istribution": 4337,
      "Ġorig": 4338,
      "Ġden": 4339,
      "ĠPre": 4340,
      "Ġkernel": 4341,
      "ĠBA": 4342,
      "ĠEOF": 4343,
      "external": 4344,
      "Ġcontrol": 4345,
      "Ġshortest": 4346,
      "Ġcompar": 4347,
      "Exit": 4348,
      "ĠConvert": 4349,
      "itialize": 4350,
      "letter": 4351,
      "polation": 4352,
      "ĠANY": 4353,
      "Ġknow": 4354,
      "Ġfields": 4355,
      "Ġimg": 4356,
      "Ġcreated": 4357,
      "Element": 4358,
      "Found": 4359,
      "Ġturn": 4360,
      "Ġnr": 4361,
      "Ġ()": 4362,
      "edit": 4363,
      "converter": 4364,
      "Ġserial": 4365,
      "Ġjson": 4366,
      "REA": 4367,
      "actor": 4368,
      "rstrip": 4369,
      "packages": 4370,
      "CLU": 4371,
      "IFI": 4372,
      "auto": 4373,
      "orary": 4374,
      "Ġ#:": 4375,
      "chain": 4376,
      "Ġ255": 4377,
      "quot": 4378,
      "ĠExt": 4379,
      "ĠUUID": 4380,
      "ILD": 4381,
      "Ġwere": 4382,
      "Ġquick": 4383,
      "way": 4384,
      "DecodeError": 4385,
      "ĠString": 4386,
      "Ġperform": 4387,
      "Ġdelta": 4388,
      "Ġcorrespon": 4389,
      "Ġlarge": 4390,
      "ancelled": 4391,
      "changed": 4392,
      "Ġspaces": 4393,
      "Ġstructure": 4394,
      "ĠPolynomial": 4395,
      "IUM": 4396,
      "IME": 4397,
      "alen": 4398,
      "ier": 4399,
      "irst": 4400,
      "uch": 4401,
      "Ġduplic": 4402,
      "Ġstore": 4403,
      "ading": 4404,
      "getattr": 4405,
      "oper": 4406,
      "Ġexecut": 4407,
      "Ġnest": 4408,
      "ĠMon": 4409,
      "problem": 4410,
      "Ġdistinct": 4411,
      "Protocol": 4412,
      "iew": 4413,
      "Ġcorrect": 4414,
      "fields": 4415,
      "ĠMEDIUM": 4416,
      "ANCEL": 4417,
      "81": 4418,
      "Add": 4419,
      "BOLD": 4420,
      "SL": 4421,
      "mn": 4422,
      "missing": 4423,
      "Ġ'+": 4424,
      "Ġbr": 4425,
      "ĠCAT": 4426,
      "application": 4427,
      "ĠBinary": 4428,
      "ĠMapping": 4429,
      "img": 4430,
      "readline": 4431,
      "vice": 4432,
      "crease": 4433,
      "week": 4434,
      "ĠIND": 4435,
      "Ġoperations": 4436,
      "Ġ^=": 4437,
      "ĠEXCLA": 4438,
      "ĠEXCLAMATION": 4439,
      "AK": 4440,
      "Check": 4441,
      "MENT": 4442,
      "cing": 4443,
      "gno": 4444,
      "ide": 4445,
      "jp": 4446,
      "now": 4447,
      "])+": 4448,
      "izing": 4449,
      "ARG": 4450,
      "Ġinternal": 4451,
      "framework": 4452,
      "Ġdifference": 4453,
      "Ġprice": 4454,
      "fail": 4455,
      "Ġbackward": 4456,
      "Ġweights": 4457,
      "Ġ'/'": 4458,
      "82": 4459,
      "CC": 4460,
      "CY": 4461,
      "Mo": 4462,
      "Or": 4463,
      "inc": 4464,
      "Ġreset": 4465,
      "Ġscale": 4466,
      "ĠAS": 4467,
      "mac": 4468,
      "lip": 4469,
      "Ġradi": 4470,
      "('-": 4471,
      "icro": 4472,
      "Ġmedian": 4473,
      "ĠThere": 4474,
      "outine": 4475,
      "condition": 4476,
      "Ġmodel": 4477,
      "uffered": 4478,
      "Ġregister": 4479,
      "Ġplain": 4480,
      "ĠStreamReader": 4481,
      "Ġfailed": 4482,
      "61": 4483,
      "AS": 4484,
      "NUM": 4485,
      "Option": 4486,
      "real": 4487,
      "Ġsolve": 4488,
      "Ġmy": 4489,
      "geome": 4490,
      "__()": 4491,
      "Ġstderr": 4492,
      "ranch": 4493,
      "RESET": 4494,
      "bootstrap": 4495,
      "ESPACE": 4496,
      "ODO": 4497,
      "Ġdirectly": 4498,
      "Ġcases": 4499,
      "Ġlibrary": 4500,
      "Ġglobals": 4501,
      "Ġmodified": 4502,
      "Ġvia": 4503,
      "ĠUnionFind": 4504,
      "42": 4505,
      "Dis": 4506,
      "ba": 4507,
      "serial": 4508,
      "archive": 4509,
      "pet": 4510,
      "Ġoct": 4511,
      "Ġnumer": 4512,
      "Ġmaster": 4513,
      "conv": 4514,
      "itervalues": 4515,
      "cols": 4516,
      "dataclass": 4517,
      "ivale": 4518,
      "iles": 4519,
      "Ġencodings": 4520,
      "ough": 4521,
      "Ġdecoded": 4522,
      "Ġsimp": 4523,
      "Ġcombinations": 4524,
      "generator": 4525,
      "ĠParameters": 4526,
      "Ġcompiler": 4527,
      "install": 4528,
      "ĠIncrementalDecoder": 4529,
      "ĠIncrementalEncoder": 4530,
      "efficients": 4531,
      "ivalent": 4532,
      "79": 4533,
      "Group": 4534,
      "YN": 4535,
      "same": 4536,
      "release": 4537,
      "Ġtre": 4538,
      "aries": 4539,
      "Ġsamples": 4540,
      "Ġliteral": 4541,
      "olar": 4542,
      "Ġstill": 4543,
      "Ġguess": 4544,
      "asis": 4545,
      "Ġnecess": 4546,
      "etcode": 4547,
      "Ġmet": 4548,
      "span": 4549,
      "([])": 4550,
      "Ġsetup": 4551,
      "Ġbox": 4552,
      "ness": 4553,
      "Ġresolve": 4554,
      "Ġvars": 4555,
      "train": 4556,
      "anguage": 4557,
      "Ġtriangle": 4558,
      "optional": 4559,
      "trie": 4560,
      "Ġlibclinic": 4561,
      "lapped": 4562,
      "Ġdocumentation": 4563,
      "ĠCopyright": 4564,
      "010": 4565,
      "App": 4566,
      "eq": 4567,
      "mapping": 4568,
      "null": 4569,
      "{}": 4570,
      "Ġ19": 4571,
      "riv": 4572,
      "ĠNUM": 4573,
      "verted": 4574,
      "quared": 4575,
      "Ġloc": 4576,
      "lying": 4577,
      "ĠUp": 4578,
      "Ġ60": 4579,
      "Ġdistribution": 4580,
      "based": 4581,
      "ighbo": 4582,
      "Ġfinish": 4583,
      "events": 4584,
      "Ġrotate": 4585,
      "havi": 4586,
      "clusive": 4587,
      ":\\": 4588,
      "Dialog": 4589,
      "JE": 4590,
      "Min": 4591,
      "Max": 4592,
      "RON": 4593,
      "SPACE": 4594,
      "eg": 4595,
      "flag": 4596,
      "nj": 4597,
      "ufe": 4598,
      "meth": 4599,
      "Ġvis": 4600,
      "divide": 4601,
      "ptr": 4602,
      "ĠExample": 4603,
      "Ġways": 4604,
      "groups": 4605,
      "Ġrequests": 4606,
      "Argument": 4607,
      "Ġsliding": 4608,
      "ĠStreamWriter": 4609,
      "Ġconstructor": 4610,
      "normalize": 4611,
      "Ġshape": 4612,
      "gnored": 4613,
      "DATA": 4614,
      "LAR": 4615,
      "YPE": 4616,
      "included": 4617,
      "star": 4618,
      "ergy": 4619,
      "ĠĠĠĠĠĠĠĠĠĠĠĠčĊ": 4620,
      "Ġbind": 4621,
      "ĠTra": 4622,
      "izes": 4623,
      "ĠPE": 4624,
      "Ġdialog": 4625,
      "Ġdimension": 4626,
      "Ġyear": 4627,
      "proxy": 4628,
      "problems": 4629,
      "ĠThese": 4630,
      "nexts": 4631,
      "Ġreading": 4632,
      "Iterator": 4633,
      "Prefix": 4634,
      "Manager": 4635,
      "46": 4636,
      "70": 4637,
      ">\",": 4638,
      "LinkedList": 4639,
      "Point": 4640,
      "VAR": 4641,
      "WH": 4642,
      "bp": 4643,
      "cb": 4644,
      "ef": 4645,
      "eed": 4646,
      "ool": 4647,
      "pip": 4648,
      "rb": 4649,
      "rp": 4650,
      "series": 4651,
      "Ġbehavi": 4652,
      "reading": 4653,
      "redu": 4654,
      "OUT": 4655,
      "need": 4656,
      "HTTP": 4657,
      "Include": 4658,
      "Ġextract": 4659,
      "Ġpartition": 4660,
      "Ġstatement": 4661,
      "Parse": 4662,
      "diffe": 4663,
      "Ġchanged": 4664,
      "Iteration": 4665,
      "Ġrepeat": 4666,
      "Ġdivisor": 4667,
      ".)": 4668,
      "IVE": 4669,
      "Sh": 4670,
      "ever": 4671,
      "Ġignored": 4672,
      "ĠCom": 4673,
      "ĠChar": 4674,
      "pairs": 4675,
      "ĠDATA": 4676,
      "else": 4677,
      "Ġpredict": 4678,
      "foo": 4679,
      "[::-": 4680,
      "Ġuseful": 4681,
      "threads": 4682,
      "Ġwrapped": 4683,
      "Ġprovides": 4684,
      "alencoder": 4685,
      "'])": 4686,
      "lx": 4687,
      "xies": 4688,
      "secut": 4689,
      "Ġsure": 4690,
      "ĠTable": 4691,
      "ĠOUT": 4692,
      "ints": 4693,
      "ilding": 4694,
      "(\"%": 4695,
      "ĠRes": 4696,
      "ĠPRO": 4697,
      "ĠBu": 4698,
      "Ġdigest": 4699,
      "project": 4700,
      "Index": 4701,
      "Ġvals": 4702,
      "STD": 4703,
      "domain": 4704,
      "Ġabstract": 4705,
      "ĠStop": 4706,
      "optim": 4707,
      "Ġusage": 4708,
      "ighbour": 4709,
      "secutive": 4710,
      "(__": 4711,
      ")**": 4712,
      "=%": 4713,
      "ROU": 4714,
      "RPC": 4715,
      "ass": 4716,
      "bd": 4717,
      "na": 4718,
      "sv": 4719,
      "void": 4720,
      "sem": 4721,
      "Ġren": 4722,
      "ĠCur": 4723,
      "payload": 4724,
      "async": 4725,
      "keywords": 4726,
      "Ġthose": 4727,
      "convert": 4728,
      "ells": 4729,
      "').": 4730,
      "Ġ40": 4731,
      "ARCH": 4732,
      "Ġinstall": 4733,
      "factors": 4734,
      "policy": 4735,
      "Ġsmaller": 4736,
      "47": 4737,
      "VI": 4738,
      "]'": 4739,
      "mul": 4740,
      "warning": 4741,
      "leetcode": 4742,
      "Ġincluded": 4743,
      "ĠLESS": 4744,
      "ĠSkip": 4745,
      "cover": 4746,
      "],[": 4747,
      "ĠnumberOf": 4748,
      "ĠGREA": 4749,
      "ARD": 4750,
      "2022": 4751,
      "latin": 4752,
      "Ġtrailing": 4753,
      "3333": 4754,
      "Ġsmall": 4755,
      "ĠMACR": 4756,
      "Ġremainder": 4757,
      "BREAK": 4758,
      "Ġcandidates": 4759,
      "ĠGREATER": 4760,
      "ĠMACRON": 4761,
      "41": 4762,
      "63": 4763,
      "PATH": 4764,
      "fast": 4765,
      "norm": 4766,
      "pat": 4767,
      "style": 4768,
      "Ġcv": 4769,
      "Ġcate": 4770,
      "Ġreason": 4771,
      "als": 4772,
      "Ġpid": 4773,
      "Ġ')": 4774,
      "Ġmis": 4775,
      "unicode": 4776,
      "Ġ22": 4777,
      "ĠDEL": 4778,
      "codec": 4779,
      "Ġmaxsize": 4780,
      "ĠMo": 4781,
      "modi": 4782,
      "days": 4783,
      "Ġinputs": 4784,
      "defaults": 4785,
      "Ġtesting": 4786,
      "Ġwaiter": 4787,
      "Ġstreamreader": 4788,
      "Ġstreamwriter": 4789,
      "CodecInfo": 4790,
      "Ġfinished": 4791,
      "support": 4792,
      "Ġanswer": 4793,
      "URN": 4794,
      "Operations": 4795,
      "Al": 4796,
      "Tra": 4797,
      "yze": 4798,
      "Ġni": 4799,
      "Ġwell": 4800,
      "Ġdays": 4801,
      "Ġ\"/": 4802,
      "chine": 4803,
      "ather": 4804,
      "expand": 4805,
      "using": 4806,
      "043": 4807,
      "Ġintervals": 4808,
      "regentry": 4809,
      "opts": 4810,
      "Ġcombination": 4811,
      "tasks": 4812,
      "Ġ'-'": 4813,
      "INDIC": 4814,
      "rammar": 4815,
      "scheme": 4816,
      "Ġincrementalencoder": 4817,
      "ĠSortedList": 4818,
      "ĠOtherwise": 4819,
      "Ġincrementaldecoder": 4820,
      "reduce": 4821,
      "(\",": 4822,
      "78": 4823,
      "IF": 4824,
      "LL": 4825,
      "[[": 4826,
      "bad": 4827,
      "candid": 4828,
      "glob": 4829,
      "longest": 4830,
      "Ġfalse": 4831,
      "peat": 4832,
      "ĠSA": 4833,
      "ĠTODO": 4834,
      "ĠNULL": 4835,
      "INTER": 4836,
      "ĠCallable": 4837,
      "ETE": 4838,
      "unknown": 4839,
      "abase": 4840,
      "verbose": 4841,
      "Ġdetermine": 4842,
      "Ġuf": 4843,
      "Ġasc": 4844,
      "Ġpred": 4845,
      "rapper": 4846,
      "Ġgetregentry": 4847,
      "sertionError": 4848,
      "aves": 4849,
      "ĠĠĠĠĠĠĠĠĠĠĠĠĠĠĠĠĠĠĠĠĠĠĠĠĠĠĠĠĠĠ": 4850,
      "Ġpassword": 4851,
      "Def": 4852,
      "clean": 4853,
      "cycle": 4854,
      "locations": 4855,
      "uthor": 4856,
      "configure": 4857,
      "Ġindic": 4858,
      "finished": 4859,
      "ordinate": 4860,
      "ĠCOMMA": 4861,
      "72": 4862,
      "dated": 4863,
      "pon": 4864,
      "atabase": 4865,
      "uri": 4866,
      "Ġmulti": 4867,
      "namespace": 4868,
      "Ġconsist": 4869,
      "queries": 4870,
      "console": 4871,
      "('\\": 4872,
      "Ġcolumns": 4873,
      "Ġpayload": 4874,
      "([\"": 4875,
      "Ġcnts": 4876,
      "041": 4877,
      "sums": 4878,
      "Ġadjacent": 4879,
      "Ġfilenames": 4880,
      "Ġinstances": 4881,
      "Ġpolicy": 4882,
      "delta": 4883,
      "NotFound": 4884,
      "Ġneighbor": 4885,
      ");": 4886,
      "76": 4887,
      "SA": 4888,
      "Table": 4889,
      "^'": 4890,
      "ae": 4891,
      "fut": 4892,
      "frozen": 4893,
      "gon": 4894,
      "sor": 4895,
      "spa": 4896,
      "wm": 4897,
      "onic": 4898,
      "meta": 4899,
      "ĠLe": 4900,
      "Ġforward": 4901,
      "ans": 4902,
      "Ġgu": 4903,
      "keyword": 4904,
      "expect": 4905,
      "ILITY": 4906,
      "Ġapplication": 4907,
      "ĠCount": 4908,
      "Ġpolynomial": 4909,
      "Compile": 4910,
      "impl": 4911,
      "53": 4912,
      "58": 4913,
      "CHE": 4914,
      "Size": 4915,
      "Version": 4916,
      "WR": 4917,
      "ait": 4918,
      "ĠError": 4919,
      "Ġinc": 4920,
      "olog": 4921,
      "ĠCol": 4922,
      "Ġenergy": 4923,
      "circ": 4924,
      "MAG": 4925,
      "ĠĠĠĠĠĠĠĠĠĠĠĠĠĠĠĠĠĠĠĠĠĠĠĠĠĠĠĠĠĠĠĠĠĠ": 4926,
      "EGORY": 4927,
      "Ġcompletion": 4928,
      "Format": 4929,
      "Ġattrs": 4930,
      "Ġcorresponding": 4931,
      "ponse": 4932,
      "Frame": 4933,
      "Over": 4934,
      "Simple": 4935,
      "sn": 4936,
      "warnings": 4937,
      "xor": 4938,
      "Ġpr": 4939,
      "Ġpalindrome": 4940,
      "utput": 4941,
      "ank": 4942,
      "hidden": 4943,
      "vex": 4944,
      "Ġnotice": 4945,
      "master": 4946,
      "Ġgen": 4947,
      "ĠMake": 4948,
      "probab": 4949,
      "Ġadditional": 4950,
      "ynch": 4951,
      "Ġinterpreter": 4952,
      "ĠZERO": 4953,
      "priate": 4954,
      "Ġfullname": 4955,
      "Ġnested": 4956,
      "As": 4957,
      "Map": 4958,
      "iki": 4959,
      "Ġincomplete": 4960,
      "aration": 4961,
      "Ġpublic": 4962,
      "Ġ'',": 4963,
      "Ġmight": 4964,
      "Ġecho": 4965,
      "riority": 4966,
      "ĠCreate": 4967,
      "cos": 4968,
      "ĠWAR": 4969,
      "Ġangle": 4970,
      "Ġaltern": 4971,
      "ORS": 4972,
      "iterkeys": 4973,
      "Ġparsing": 4974,
      "042": 4975,
      "inputs": 4976,
      "Ġverbosity": 4977,
      "Ġpartic": 4978,
      "Ġbutton": 4979,
      "blocking": 4980,
      "Ġmodul": 4981,
      "Ġregular": 4982,
      "structions": 4983,
      "Ġchunks": 4984,
      "BUILD": 4985,
      "extensions": 4986,
      "ĠAssertionError": 4987,
      "helper": 4988,
      "Ġsafe": 4989,
      "Ġevalu": 4990,
      "Ġcompatibility": 4991,
      "Ġreachable": 4992,
      "which": 4993,
      ",)": 4994,
      ",))": 4995,
      ">\\": 4996,
      "All": 4997,
      "DA": 4998,
      "Ed": 4999,
      "FUN": 5000,
      "MARK": 5001,
      "SIL": 5002,
      "public": 5003,
      "qa": 5004,
      "alt": 5005,
      "Ġ##": 5006,
      "construct": 5007,
      "Ġprocesses": 5008,
      "Recu": 5009,
      "akref": 5010,
      "ĠĠĠĠĠĠĠĠĠĠĠĠĠĠĠĠĠĠĠĠĠĠĠĠĠ": 5011,
      "sieve": 5012,
      "menu": 5013,
      "ĠINV": 5014,
      "internal": 5015,
      "ĠSearch": 5016,
      "others": 5017,
      "elements": 5018,
      "locals": 5019,
      "positions": 5020,
      "Search": 5021,
      "Ġassume": 5022,
      "Left": 5023,
      "Ġunittest": 5024,
      "apsack": 5025,
      "Ġhalf": 5026,
      "Ġceil": 5027,
      "Ġbrute": 5028,
      "SILON": 5029,
      "59": 5030,
      "Token": 5031,
      "ias": 5032,
      "}_": 5033,
      "Ġfrequency": 5034,
      "Ġnargs": 5035,
      "defined": 5036,
      "Ġisn": 5037,
      "coins": 5038,
      "serv": 5039,
      "Ġdetails": 5040,
      "lier": 5041,
      "previous": 5042,
      "STAT": 5043,
      "Ġattemp": 5044,
      "Ġnoqa": 5045,
      "Ġentries": 5046,
      "Ġequivalent": 5047,
      "Ġpool": 5048,
      "Ġexplicit": 5049,
      "NotFoundError": 5050,
      "62": 5051,
      "cipher": 5052,
      "eof": 5053,
      "iation": 5054,
      "tab": 5055,
      "ties": 5056,
      "peek": 5057,
      "entic": 5058,
      "TERAL": 5059,
      "ads": 5060,
      "ves": 5061,
      "pared": 5062,
      "ĠModule": 5063,
      "ives": 5064,
      "Ġensure": 5065,
      "accu": 5066,
      "Ġcalling": 5067,
      "plain": 5068,
      "Ġ\"\")": 5069,
      "Console": 5070,
      "validate": 5071,
      "IDD": 5072,
      "stdlib": 5073,
      "begin": 5074,
      "4567": 5075,
      "Ġrelroot": 5076,
      "LIB": 5077,
      "Ġappropriate": 5078,
      "Ġterminal": 5079,
      "Ġascending": 5080,
      "57": 5081,
      "VIS": 5082,
      "await": 5083,
      "big": 5084,
      "cm": 5085,
      "euler": 5086,
      "roy": 5087,
      "ĠSSL": 5088,
      "ĠApp": 5089,
      "cores": 5090,
      "Ġxml": 5091,
      "Ġdetermin": 5092,
      "Ġnever": 5093,
      "lied": 5094,
      "ĠEnt": 5095,
      "forms": 5096,
      "shake": 5097,
      "Ġoutfile": 5098,
      "Ġbucket": 5099,
      "rong": 5100,
      "LACK": 5101,
      "locity": 5102,
      "posed": 5103,
      "PREF": 5104,
      "destination": 5105,
      "Ġdenominator": 5106,
      "Ġnecessary": 5107,
      "68": 5108,
      "Bar": 5109,
      "hing": 5110,
      "pick": 5111,
      "sq": 5112,
      "save": 5113,
      "swap": 5114,
      "ture": 5115,
      "windows": 5116,
      "where": 5117,
      "segment": 5118,
      "rea": 5119,
      "oriz": 5120,
      "alk": 5121,
      "ETURN": 5122,
      "unique": 5123,
      "ople": 5124,
      "ĠEIGHT": 5125,
      "Ġjob": 5126,
      "Ġhel": 5127,
      "accept": 5128,
      "mbed": 5129,
      "Ġshutil": 5130,
      "timestamp": 5131,
      "ĠInstruction": 5132,
      "000000": 5133,
      "Ġvalidate": 5134,
      "ĠABC": 5135,
      "ĠFILE": 5136,
      "Ġsurface": 5137,
      "ĠSUBST": 5138,
      "51": 5139,
      "An": 5140,
      "And": 5141,
      "Cr": 5142,
      "EH": 5143,
      "SO": 5144,
      "aw": 5145,
      "even": 5146,
      "ken": 5147,
      "this": 5148,
      "inner": 5149,
      "Ġamount": 5150,
      "Ġinorder": 5151,
      "Ġet": 5152,
      "Ġlater": 5153,
      "lan": 5154,
      "ann": 5155,
      "coeff": 5156,
      "ITUTE": 5157,
      "Ġhole": 5158,
      "Ġunicode": 5159,
      "OUS": 5160,
      "IGNORE": 5161,
      "single": 5162,
      "ynam": 5163,
      "parents": 5164,
      "cular": 5165,
      "Ġstatistics": 5166,
      "Ġabsolute": 5167,
      "Ġconfigure": 5168,
      ")*(": 5169,
      "alpha": 5170,
      "Ġlazy": 5171,
      "Ġlayer": 5172,
      "orizont": 5173,
      "ĠSUBSTITUTE": 5174,
      "$'": 5175,
      "none": 5176,
      "vance": 5177,
      "roken": 5178,
      "umps": 5179,
      "anchor": 5180,
      "gettext": 5181,
      "ATURE": 5182,
      "ĠDec": 5183,
      "Ġgra": 5184,
      "Ġ{{": 5185,
      "('<": 5186,
      "Ġcursor": 5187,
      "herit": 5188,
      "Ġsetting": 5189,
      "Ġverify": 5190,
      "Ġreadline": 5191,
      "IDTH": 5192,
      "sgi": 5193,
      "IAN": 5194,
      "symbols": 5195,
      "Ġthreads": 5196,
      "Ġdecrypt": 5197,
      "duction": 5198,
      "Lock": 5199,
      "ĠAPIs": 5200,
      "plot": 5201,
      "finish": 5202,
      "Ġmemoization": 5203,
      "Ġencrypt": 5204,
      "rotate": 5205,
      "Ġcircle": 5206,
      "ĠMonomial": 5207,
      "54": 5208,
      "HO": 5209,
      "mal": 5210,
      "separ": 5211,
      "around": 5212,
      "geeks": 5213,
      "Ġdid": 5214,
      "lash": 5215,
      "lost": 5216,
      ")).": 5217,
      "may": 5218,
      "Ġexpect": 5219,
      "Ġdetect": 5220,
      "ĠSMTP": 5221,
      "Ġdijkstra": 5222,
      "els": 5223,
      "Ġpredi": 5224,
      "linear": 5225,
      "Remove": 5226,
      "Ġcounting": 5227,
      "cessed": 5228,
      "Ġsums": 5229,
      "Comple": 5230,
      "sentinel": 5231,
      "ADING": 5232,
      "Ġtokens": 5233,
      "document": 5234,
      "Ġbytearray": 5235,
      "Ġwaiting": 5236,
      "Ġindices": 5237,
      "Ġ'*'": 5238,
      "green": 5239,
      "ikipedia": 5240,
      "bstract": 5241,
      "fb": 5242,
      "mary": 5243,
      "pan": 5244,
      "uc": 5245,
      "zstd": 5246,
      "}',": 5247,
      "orse": 5248,
      "Ġcabc": 5249,
      "cell": 5250,
      "ĠLIG": 5251,
      "Ġeffect": 5252,
      "ĠSimple": 5253,
      "Ġduring": 5254,
      "Ġstorage": 5255,
      "()[": 5256,
      "locale": 5257,
      "ĠOr": 5258,
      "ĠASCII": 5259,
      "Ġ256": 5260,
      "ithmet": 5261,
      "ison": 5262,
      "ĠIO": 5263,
      "Ġseries": 5264,
      "etch": 5265,
      "Ġheapp": 5266,
      "ĠUSE": 5267,
      "':'": 5268,
      "ĠRequest": 5269,
      "Ġsets": 5270,
      "cant": 5271,
      "compat": 5272,
      "Ġtuples": 5273,
      "encoded": 5274,
      "Ġdirectories": 5275,
      "Ġgenerator": 5276,
      "stemExit": 5277,
      "EVEN": 5278,
      "Ġsignature": 5279,
      "template": 5280,
      "Ġboundary": 5281,
      "saved": 5282,
      "seconds": 5283,
      "TIME": 5284,
      "BASE": 5285,
      "ynchron": 5286,
      "ĠLIGATURE": 5287,
      ":\")": 5288,
      "Do": 5289,
      "TION": 5290,
      "Tuple": 5291,
      "equal": 5292,
      "pend": 5293,
      "ral": 5294,
      "tmp": 5295,
      "vin": 5296,
      "water": 5297,
      "Ġfont": 5298,
      "ĠSIX": 5299,
      "ĠSEVEN": 5300,
      "Ġdot": 5301,
      "ĠNINE": 5302,
      "ITESPACE": 5303,
      "Ġlocale": 5304,
      "ĠRING": 5305,
      "lies": 5306,
      "conc": 5307,
      "Ġcurses": 5308,
      "usr": 5309,
      "processing": 5310,
      "Ġ-->": 5311,
      "Ġneeds": 5312,
      "Ġworks": 5313,
      "Ġconditions": 5314,
      "ĠFIVE": 5315,
      "ĠWARRAN": 5316,
      "ithmetic": 5317,
      "/_": 5318,
      "ABLE": 5319,
      "Ent": 5320,
      "cus": 5321,
      "ock": 5322,
      "vate": 5323,
      "desc": 5324,
      "Ġrecursion": 5325,
      "Ġswap": 5326,
      "ndar": 5327,
      "Ġdt": 5328,
      "Ġ\").": 5329,
      "Ġ>>=": 5330,
      "ĠDis": 5331,
      "Ġcomplexity": 5332,
      "Ġhook": 5333,
      "lias": 5334,
      "Ġug": 5335,
      "profit": 5336,
      "]].": 5337,
      "Ġiterative": 5338,
      "999": 5339,
      "blocks": 5340,
      "ANSIColors": 5341,
      "compiler": 5342,
      "Ġconfiguration": 5343,
      "Ġsupports": 5344,
      "Socket": 5345,
      "FLAGS": 5346,
      "radius": 5347,
      "Pairs": 5348,
      "Ġ':'": 5349,
      "ĠSegmentTree": 5350,
      "IDDLE": 5351,
      "Mapping": 5352,
      "Per": 5353,
      "XML": 5354,
      "cf": 5355,
      "gine": 5356,
      "Ġ},": 5357,
      "sec": 5358,
      "Ġca": 5359,
      "metric": 5360,
      "Ġ'')": 5361,
      "ĠLO": 5362,
      "any": 5363,
      "Ġcomplex": 5364,
      "Ġmade": 5365,
      "ĠFrame": 5366,
      "ĠFirst": 5367,
      "matic": 5368,
      "Ġrate": 5369,
      "ached": 5370,
      "character": 5371,
      "ĠInitialize": 5372,
      "ĠINITIAL": 5373,
      "Ġentity": 5374,
      "ĠSTOP": 5375,
      "henes": 5376,
      "Ġmodifi": 5377,
      "Ġcontents": 5378,
      "ĠBaseException": 5379,
      "ĠAlgorithm": 5380,
      "Ġneighbors": 5381,
      "Ġissue": 5382,
      "ROUP": 5383,
      "COL": 5384,
      "Callable": 5385,
      "Doc": 5386,
      "Ext": 5387,
      "balance": 5388,
      "cision": 5389,
      "eb": 5390,
      "Ġfallback": 5391,
      "Ġph": 5392,
      "Ġ'&": 5393,
      "Ġ'\"'": 5394,
      "Ġmenu": 5395,
      "ssion": 5396,
      "Ġcoins": 5397,
      "Ġordered": 5398,
      "Ġhistory": 5399,
      "Ġtimeit": 5400,
      "gorithms": 5401,
      "simple": 5402,
      "Ġperfect": 5403,
      "processor": 5404,
      "Ġpatterns": 5405,
      "ĠĠĠĠĠĠĠĠĠĠĠĠĠĠĠĠĠĠĠĠĠĠĠĠĠĠĠĠĠĠĠĠĠ": 5406,
      "ĠZip": 5407,
      "before": 5408,
      "Ġstatic": 5409,
      "sym": 5410,
      "Loop": 5411,
      "Ġrequire": 5412,
      "penden": 5413,
      "handlers": 5414,
      "Compute": 5415,
      "Ġgoal": 5416,
      "ĠDefinition": 5417,
      "Ġfactorial": 5418,
      "âĶĢâĶĢâĶĢâĶĢ": 5419,
      "Ġsimilar": 5420,
      "neighbor": 5421,
      "WHITESPACE": 5422,
      "ĠStopIteration": 5423,
      "orizontal": 5424,
      ">',": 5425,
      "ASCII": 5426,
      "MIS": 5427,
      "SING": 5428,
      "Window": 5429,
      "cv": 5430,
      "ration": 5431,
      "ssed": 5432,
      "spect": 5433,
      "}]": 5434,
      "Ġ),": 5435,
      "sen": 5436,
      "resp": 5437,
      "Ġaround": 5438,
      "Ġcross": 5439,
      "Ġcumulative": 5440,
      "Ġinside": 5441,
      "ital": 5442,
      "Ġscreen": 5443,
      "Ġ''.": 5444,
      "utable": 5445,
      "ĠSort": 5446,
      "ĠTrie": 5447,
      "ĠCh": 5448,
      "ĠCANCEL": 5449,
      "Ġvol": 5450,
      "Ġexpand": 5451,
      "ording": 5452,
      "extract": 5453,
      "Ġrv": 5454,
      "Ġruntime": 5455,
      "Ġmeta": 5456,
      "Ġchr": 5457,
      "collector": 5458,
      "UTF": 5459,
      "Ġdefaultdict": 5460,
      "Ġchecks": 5461,
      "Ġ\"\",": 5462,
      "Ġpermut": 5463,
      "MODE": 5464,
      "shared": 5465,
      "ĠSEMIC": 5466,
      "CTIONS": 5467,
      "auss": 5468,
      "member": 5469,
      "Ġalign": 5470,
      "Ġhandling": 5471,
      "Ġnetloc": 5472,
      "IRECT": 5473,
      "djacency": 5474,
      "Ġradius": 5475,
      "difference": 5476,
      "ological": 5477,
      "ĠSEMICOLON": 5478,
      "GONE": 5479,
      "Matrix": 5480,
      "Word": 5481,
      "XT": 5482,
      "best": 5483,
      "ire": 5484,
      "plit": 5485,
      "plat": 5486,
      "stor": 5487,
      "stit": 5488,
      "Ġft": 5489,
      "Ġfamily": 5490,
      "Ġrep": 5491,
      "median": 5492,
      "Ġtheory": 5493,
      "istered": 5494,
      "tell": 5495,
      "ĠClass": 5496,
      "ĠAE": 5497,
      "ilter": 5498,
      "Ġbecome": 5499,
      "assert": 5500,
      "isdigit": 5501,
      "Ġascii": 5502,
      "ĠEach": 5503,
      "Ġ31": 5504,
      "Ġpathlib": 5505,
      "Ġlex": 5506,
      "ISK": 5507,
      "Ġcomput": 5508,
      "osthenes": 5509,
      "CHAR": 5510,
      "Ġcombinator": 5511,
      "ĠIterable": 5512,
      "Ġdescription": 5513,
      "half": 5514,
      "authkey": 5515,
      "ĠContent": 5516,
      "Ġcombinatorics": 5517,
      "200": 5518,
      "CORD": 5519,
      "Open": 5520,
      "Transport": 5521,
      "floor": 5522,
      "front": 5523,
      "oci": 5524,
      "screen": 5525,
      "xim": 5526,
      "sect": 5527,
      "det": 5528,
      "Ġremote": 5529,
      "Ġok": 5530,
      "Ġov": 5531,
      "ĠCOP": 5532,
      "ĠAd": 5533,
      "TERISK": 5534,
      "Ġconvex": 5535,
      "ĠREVER": 5536,
      "ĠBe": 5537,
      "Ġdivide": 5538,
      "ubble": 5539,
      "ĠRemove": 5540,
      "cret": 5541,
      "Ġleading": 5542,
      "posix": 5543,
      "Ġiteration": 5544,
      "Ġsubtree": 5545,
      "------------": 5546,
      "YRIGHT": 5547,
      "centage": 5548,
      "registry": 5549,
      "ĠXML": 5550,
      "ĠContext": 5551,
      "})\"": 5552,
      "Ġdecorator": 5553,
      "directory": 5554,
      "Ġmodify": 5555,
      "Generator": 5556,
      "Content": 5557,
      "Control": 5558,
      "~~~~": 5559,
      "ĠALEF": 5560,
      "ĠDefaults": 5561,
      "ĠASTERISK": 5562,
      "ĠNUMBER": 5563,
      "ĠCOPYRIGHT": 5564,
      "ĠREVERSE": 5565,
      "!'": 5566,
      "(?": 5567,
      "Mix": 5568,
      "Sort": 5569,
      "WARE": 5570,
      "sur": 5571,
      "Ġht": 5572,
      "see": 5573,
      "deps": 5574,
      "Ġtz": 5575,
      "Ġcent": 5576,
      "Ġreport": 5577,
      "Ġreferences": 5578,
      "arations": 5579,
      "Ġ'|": 5580,
      "Ġ'='": 5581,
      "Ġdue": 5582,
      "Ġ(_": 5583,
      "Ġstates": 5584,
      "unpack": 5585,
      "ection": 5586,
      "Ġmac": 5587,
      "Ġrand": 5588,
      "ĠMy": 5589,
      "matically": 5590,
      "predict": 5591,
      "ĠUT": 5592,
      "itertools": 5593,
      "focus": 5594,
      "Ġunknown": 5595,
      "Ġaddr": 5596,
      "Ġ{})": 5597,
      "ĠĠĠĠĠĠĠĠĠĠĠĠĠĠĠĠĠĠĠĠĠĠĠĠĠĠĠĠĠĠĠĠĠĠĠĠ": 5598,
      "Ġactually": 5599,
      "Ġcopyright": 5600,
      "Loader": 5601,
      "Ġtyp": 5602,
      "exponent": 5603,
      "compressor": 5604,
      "writing": 5605,
      "randint": 5606,
      "Ġanalysis": 5607,
      "agonal": 5608,
      "CLUD": 5609,
      "Ġbehavior": 5610,
      "Ġrender": 5611,
      "Ġcategory": 5612,
      "Dif": 5613,
      "Right": 5614,
      "free": 5615,
      "gt": 5616,
      "ws": 5617,
      "selection": 5618,
      "Ġfree": 5619,
      "Ġnt": 5620,
      "Ġpur": 5621,
      "Ġsite": 5622,
      "Ġslice": 5623,
      "Ġnumerator": 5624,
      "dialog": 5625,
      "maze": 5626,
      "isx": 5627,
      "columns": 5628,
      "Ġ64": 5629,
      "Ġcurrently": 5630,
      "fspath": 5631,
      "ribut": 5632,
      "subprocess": 5633,
      "versions": 5634,
      "splitlines": 5635,
      "Ġmsgid": 5636,
      "ĠUnix": 5637,
      "Ġcached": 5638,
      "filters": 5639,
      "Ġstdin": 5640,
      "Ġformula": 5641,
      "ĠPERCENT": 5642,
      "IFIER": 5643,
      "projecteuler": 5644,
      "ynamic": 5645,
      "Down": 5646,
      "EM": 5647,
      "SI": 5648,
      "SER": 5649,
      "USE": 5650,
      "[{": 5651,
      "font": 5652,
      "family": 5653,
      "nlogr": 5654,
      "pad": 5655,
      "sim": 5656,
      "inder": 5657,
      "memo": 5658,
      "ĠSYN": 5659,
      "ssib": 5660,
      "tep": 5661,
      "Ġ[])": 5662,
      "ĠOGONE": 5663,
      "imed": 5664,
      "disc": 5665,
      "odd": 5666,
      "(\"<": 5667,
      "artite": 5668,
      "ĠWH": 5669,
      "icen": 5670,
      "ipartite": 5671,
      "(['": 5672,
      "Ġdataclasses": 5673,
      "Str": 5674,
      "tesIO": 5675,
      "ĠDecoding": 5676,
      "fds": 5677,
      "Ġrepresents": 5678,
      "signed": 5679,
      "Ġterm": 5680,
      "exceptions": 5681,
      "Ġmoves": 5682,
      "totype": 5683,
      "Ġ'?'": 5684,
      "ĠBACK": 5685,
      "ĠOGONEK": 5686,
      "125": 5687,
      "49": 5688,
      ";'": 5689,
      "Kind": 5690,
      "uses": 5691,
      "rep": 5692,
      "Ġfl": 5693,
      "Ġbrowser": 5694,
      "Ġreturning": 5695,
      "0001": 5696,
      "ris": 5697,
      "ĠTk": 5698,
      "Ġstar": 5699,
      "ĠCON": 5700,
      "ĠCOLON": 5701,
      "ĠAMP": 5702,
      "ĠAPO": 5703,
      "Ġ21": 5704,
      "ĠDE": 5705,
      "ĠDOL": 5706,
      "esc": 5707,
      "ĠMax": 5708,
      "example": 5709,
      "Ġmessages": 5710,
      "Ġsymbols": 5711,
      "interval": 5712,
      "nsitive": 5713,
      "OPHE": 5714,
      "Ġhig": 5715,
      "triangle": 5716,
      "letters": 5717,
      "STROPHE": 5718,
      "ĠParameter": 5719,
      "Interrupt": 5720,
      "Ġcomponents": 5721,
      "ĠEQUALS": 5722,
      "builtin": 5723,
      "ERSAND": 5724,
      "Ġ'\\\\'": 5725,
      "Multibyte": 5726,
      "ĠAMPERSAND": 5727,
      "ĠAPOSTROPHE": 5728,
      "ĠDOLLAR": 5729,
      "=\"\"": 5730,
      "FIG": 5731,
      "NS": 5732,
      "TE": 5733,
      "Trans": 5734,
      "XY": 5735,
      "got": 5736,
      "kernel": 5737,
      "ux": 5738,
      "repeat": 5739,
      "arrays": 5740,
      "Ġ'~": 5741,
      "rop": 5742,
      "roid": 5743,
      "Ġtheme": 5744,
      "ĠSIG": 5745,
      "Ġwarning": 5746,
      "ĠTree": 5747,
      "Ġselection": 5748,
      "Ġ36": 5749,
      "Ġyet": 5750,
      "ĠHash": 5751,
      "Ġboolean": 5752,
      "Ġpathname": 5753,
      "tests": 5754,
      "017": 5755,
      "subclass": 5756,
      "Ġdispatch": 5757,
      "masks": 5758,
      "decmap": 5759,
      "boundary": 5760,
      "Ġ'<'": 5761,
      "Ġfeatures": 5762,
      "ĠOnly": 5763,
      "combinations": 5764,
      "Ġ'#'": 5765,
      "ABCDEF": 5766,
      "icrosoft": 5767,
      "Compiler": 5768,
      "Cut": 5769,
      "Lib": 5770,
      "]%": 5771,
      "job": 5772,
      "mk": 5773,
      "rever": 5774,
      "decls": 5775,
      "Ġtriplet": 5776,
      "Ġax": 5777,
      "Ġinline": 5778,
      "ĠLIA": 5779,
      "INK": 5780,
      "ATIVE": 5781,
      "ĠDEG": 5782,
      "Ġcover": 5783,
      "Ġdele": 5784,
      "Ġdependen": 5785,
      "Ġarchive": 5786,
      "Ġarrays": 5787,
      "LEFT": 5788,
      "excluded": 5789,
      "Ġchanges": 5790,
      "Problem": 5791,
      "ERTED": 5792,
      "home": 5793,
      "Ġtokenize": 5794,
      "Ġexpan": 5795,
      "ĠTHIS": 5796,
      "PIPE": 5797,
      "Ġassoci": 5798,
      "Ġseparated": 5799,
      "TIES": 5800,
      "fullname": 5801,
      "Header": 5802,
      "Ġpickle": 5803,
      "Inte": 5804,
      "uzz": 5805,
      "editwin": 5806,
      "ĠINVERTED": 5807,
      "Ġetc": 5808,
      "ĠWARRANTIES": 5809,
      "CLUDING": 5810,
      "ĠDEGREE": 5811,
      "Enum": 5812,
      "KL": 5813,
      "Pipe": 5814,
      "Valid": 5815,
      "cast": 5816,
      "dump": 5817,
      "hren": 5818,
      "squared": 5819,
      "tage": 5820,
      "tkn": 5821,
      "uint": 5822,
      "vol": 5823,
      "inverse": 5824,
      "Ġant": 5825,
      "Ġinverse": 5826,
      "heit": 5827,
      "Ġlno": 5828,
      "upported": 5829,
      "Ġnothing": 5830,
      "romic": 5831,
      "Ġbeta": 5832,
      "ĠEd": 5833,
      "precation": 5834,
      "omic": 5835,
      "ARTER": 5836,
      "atten": 5837,
      "caped": 5838,
      "Ġiterations": 5839,
      "START": 5840,
      "calcul": 5841,
      "waiter": 5842,
      "sius": 5843,
      "Conf": 5844,
      "ĠINT": 5845,
      "Ġready": 5846,
      "Ġ90": 5847,
      "Ġruns": 5848,
      "0213": 5849,
      "Ġtemplate": 5850,
      "ĠQUARTER": 5851,
      "FFIX": 5852,
      "Ġfuncname": 5853,
      "Ġbetter": 5854,
      "Ġopts": 5855,
      "boardInterrupt": 5856,
      "alindromic": 5857,
      "Ġspecify": 5858,
      "Ġ'_'": 5859,
      "ĠCOMM": 5860,
      "Ġchoices": 5861,
      "chunks": 5862,
      "Ġaudio": 5863,
      "Ġ'+'": 5864,
      "entication": 5865,
      "hrenheit": 5866,
      "If": 5867,
      "KN": 5868,
      "PLA": 5869,
      "Up": 5870,
      "Windows": 5871,
      "implementation": 5872,
      "scal": 5873,
      "uuid": 5874,
      "steps": 5875,
      "Ġinner": 5876,
      "Ġincluding": 5877,
      "Ġinspect": 5878,
      "Ġ'@": 5879,
      "Ġ')'": 5880,
      "Ġbranch": 5881,
      "Ġwt": 5882,
      "ERCIAL": 5883,
      "Ġvoid": 5884,
      "adap": 5885,
      "direction": 5886,
      "macro": 5887,
      "Ġgap": 5888,
      "serve": 5889,
      "Ġhm": 5890,
      "lices": 5891,
      "ĠMIC": 5892,
      "Ġprofiler": 5893,
      "igen": 5894,
      "Ġdouble": 5895,
      "Ġdataset": 5896,
      "Ġstarts": 5897,
      "irt": 5898,
      "Ġ\\\\": 5899,
      "Ġcomments": 5900,
      "methods": 5901,
      "Ġextended": 5902,
      ")+(": 5903,
      "Ġresolved": 5904,
      "Ġsymlink": 5905,
      "Ġoperand": 5906,
      "Ġblocks": 5907,
      "Ġlonger": 5908,
      "Ġversions": 5909,
      "Ġmanip": 5910,
      "Ġlarger": 5911,
      "Ġselected": 5912,
      "Ġseparator": 5913,
      "Ġsentence": 5914,
      "Ġconnected": 5915,
      "ĠDict": 5916,
      "Message": 5917,
      "Ġhappen": 5918,
      "SUFFIX": 5919,
      "Ġmetadata": 5920,
      "ĠCOMMERCIAL": 5921,
      "-{": 5922,
      "BO": 5923,
      "CD": 5924,
      "Char": 5925,
      "Log": 5926,
      "agram": 5927,
      "blue": 5928,
      "yp": 5929,
      "deprecated": 5930,
      "Ġtab": 5931,
      "Ġclo": 5932,
      "Ġ(?": 5933,
      "tered": 5934,
      "ĠCWriter": 5935,
      "unded": 5936,
      "Ġcoordinates": 5937,
      "Ġmachine": 5938,
      "ĠFINAL": 5939,
      "Ġconstants": 5940,
      "quit": 5941,
      "ĠRETURN": 5942,
      "API": 5943,
      "ĠMIDDLE": 5944,
      "ĠGROUP": 5945,
      "Read": 5946,
      "logger": 5947,
      "Ġ/,": 5948,
      "Ġsubstring": 5949,
      "ĠArgument": 5950,
      "Ġreadable": 5951,
      "IDENT": 5952,
      "Ġoperands": 5953,
      "completions": 5954,
      "aving": 5955,
      "Sequence": 5956,
      "metadata": 5957,
      "ĠUpdate": 5958,
      "PREFIX": 5959,
      "Ġhelper": 5960,
      "Cur": 5961,
      "Distance": 5962,
      "On": 5963,
      "Pool": 5964,
      "TXT": 5965,
      "WIDTH": 5966,
      "indi": 5967,
      "recur": 5968,
      "resource": 5969,
      "leaf": 5970,
      "Ġcenter": 5971,
      "Ġcells": 5972,
      "Ġpure": 5973,
      "Ġsave": 5974,
      "Ġlanguage": 5975,
      "hir": 5976,
      "cookies": 5977,
      "unch": 5978,
      "Ġgray": 5979,
      "izz": 5980,
      "ĠPrint": 5981,
      "ĠBE": 5982,
      "ubclass": 5983,
      "etween": 5984,
      "formed": 5985,
      "Ġsoftware": 5986,
      "Reg": 5987,
      "ĠReg": 5988,
      "Ġshutdown": 5989,
      "Ġ...,": 5990,
      "IST": 5991,
      "Ġnextchar": 5992,
      "SEQU": 5993,
      "Config": 5994,
      "Ġanything": 5995,
      "matching": 5996,
      "Hello": 5997,
      "Ġrawdata": 5998,
      "capi": 5999,
      "Ġincludes": 6000,
      "ĠSOFTWARE": 6001,
      "Response": 6002,
      "LOCAL": 6003,
      "ĠEncoding": 6004,
      "Ġpredicted": 6005,
      ")\\": 6006,
      "Fa": 6007,
      "NT": 6008,
      "Pol": 6009,
      "Same": 6010,
      "Score": 6011,
      "_{": 6012,
      "bed": 6013,
      "hore": 6014,
      "tain": 6015,
      "encoder": 6016,
      "Ġnorm": 6017,
      "Ġ'$'": 6018,
      "Ġep": 6019,
      "nth": 6020,
      "Ġview": 6021,
      "dimension": 6022,
      "paren": 6023,
      "ĠDI": 6024,
      "ĠDEF": 6025,
      "Ġhour": 6026,
      "ĠPoint": 6027,
      "Ġasyncio": 6028,
      "('--": 6029,
      "imize": 6030,
      "acquire": 6031,
      "background": 6032,
      "maphore": 6033,
      "funcs": 6034,
      "functools": 6035,
      "Ġstacklevel": 6036,
      "Ġmiddle": 6037,
      "Ġsorting": 6038,
      "Ġspecifi": 6039,
      "Ġapply": 6040,
      "outputs": 6041,
      "Ġcoro": 6042,
      "6666": 6043,
      "Ġdirname": 6044,
      "canvas": 6045,
      "Ġdescript": 6046,
      "correct": 6047,
      "Ġhttpx": 6048,
      "Source": 6049,
      "================================": 6050,
      "Ġfragment": 6051,
      "Ġaccording": 6052,
      "NORMALIZE": 6053,
      "MISSING": 6054,
      "irtual": 6055,
      "#\"": 6056,
      ")\")": 6057,
      "71": 6058,
      "Call": 6059,
      "DO": 6060,
      "It": 6061,
      "Line": 6062,
      "PRO": 6063,
      "SK": 6064,
      "lated": 6065,
      "tre": 6066,
      "wit": 6067,
      "}}": 6068,
      "Ġcancelled": 6069,
      "Ġ'['": 6070,
      "Ġmuch": 6071,
      "Ġown": 6072,
      "rier": 6073,
      "hide": 6074,
      "three": 6075,
      "chr": 6076,
      "Ġglob": 6077,
      "Ġconversion": 6078,
      "ders": 6079,
      "Ġdecomp": 6080,
      "Ġdeprecated": 6081,
      "ĠWikipedia": 6082,
      "ĠEuler": 6083,
      "Ġpreorder": 6084,
      "ĠVar": 6085,
      "Ġraises": 6086,
      "parsed": 6087,
      "Ġmatched": 6088,
      "Ġ1024": 6089,
      "library": 6090,
      "Ġwhose": 6091,
      "122": 6092,
      "heapify": 6093,
      "MAC": 6094,
      "possible": 6095,
      "CHRON": 6096,
      "Ġregistry": 6097,
      "Ġlocals": 6098,
      "Ġctor": 6099,
      "URREN": 6100,
      "}.{": 6101,
      "ferred": 6102,
      "special": 6103,
      "ĠUNIT": 6104,
      "Ġfibonacci": 6105,
      "TAG": 6106,
      "Ġautomatically": 6107,
      "ĠRECORD": 6108,
      "(\"\".": 6109,
      "components": 6110,
      "Ġfrozenset": 6111,
      "ĠExtra": 6112,
      "Multip": 6113,
      "SG": 6114,
      "With": 6115,
      "cmp": 6116,
      "cwd": 6117,
      "mime": 6118,
      "recursion": 6119,
      "ste": 6120,
      "arant": 6121,
      "Ġ'>'": 6122,
      "ceed": 6123,
      "Ġwor": 6124,
      "dient": 6125,
      "Ġ201": 6126,
      "Ġkth": 6127,
      "ĠBLACK": 6128,
      "([(": 6129,
      "Ġcollect": 6130,
      "ENCE": 6131,
      "Ġupdated": 6132,
      "attrs": 6133,
      "center": 6134,
      "Ġacce": 6135,
      "riple": 6136,
      "ĠStart": 6137,
      "ecutor": 6138,
      "ĠORD": 6139,
      "Ġactive": 6140,
      "ĠProblem": 6141,
      "rawdata": 6142,
      "ValueError": 6143,
      "Ġfilters": 6144,
      "Ġpopcount": 6145,
      "Ġpoly": 6146,
      "Ġbuiltin": 6147,
      "Ġimmedi": 6148,
      "ĠHTML": 6149,
      "ntaxError": 6150,
      "Ġfixed": 6151,
      "Ġprogress": 6152,
      "uzzy": 6153,
      "Cannot": 6154,
      "Ġplaintext": 6155,
      "rivative": 6156,
      "probabilities": 6157,
      "Ġassociated": 6158,
      "KNOWN": 6159,
      "CHRONOUS": 6160,
      "'<": 6161,
      ")\",": 6162,
      "Button": 6163,
      "MAPP": 6164,
      "Pattern": 6165,
      "gcd": 6166,
      "ience": 6167,
      "ified": 6168,
      "jor": 6169,
      "udo": 6170,
      "wt": 6171,
      "Ġdrive": 6172,
      "ĠOver": 6173,
      "Ġconverted": 6174,
      "opcodes": 6175,
      "ĠIMP": 6176,
      "ifest": 6177,
      "ĠPI": 6178,
      "ĠWA": 6179,
      "('.": 6180,
      "RED": 6181,
      "ICATOR": 6182,
      "parameters": 6183,
      "actual": 6184,
      "250": 6185,
      "readable": 6186,
      "ĠRead": 6187,
      "Ġcodes": 6188,
      "ListNode": 6189,
      "Ġpointer": 6190,
      "Ġlogn": 6191,
      "Ġcomma": 6192,
      "Ġinterval": 6193,
      "Ġdisable": 6194,
      "symlink": 6195,
      "Ġtraversal": 6196,
      "Parameter": 6197,
      "wrapped": 6198,
      "Ġsrcinfo": 6199,
      "Ġbuiltins": 6200,
      "Generate": 6201,
      "CONFIG": 6202,
      "lapsed": 6203,
      "coro": 6204,
      "Ġpadding": 6205,
      "________________": 6206,
      "Ġ\"'\"": 6207,
      "ĠINDICATOR": 6208,
      "ĠDELETE": 6209,
      "ĠORDINAL": 6210,
      "COD": 6211,
      "CORE": 6212,
      "LS": 6213,
      "Match": 6214,
      "NO": 6215,
      "Pos": 6216,
      "RIA": 6217,
      "bi": 6218,
      "cub": 6219,
      "closing": 6220,
      "joint": 6221,
      "ug": 6222,
      "zone": 6223,
      "instructions": 6224,
      "seudo": 6225,
      "Ġimplemented": 6226,
      "Ġfraction": 6227,
      "Ġfrequ": 6228,
      "Ġfront": 6229,
      "Ġ'}'": 6230,
      "Ġ']'": 6231,
      "Ġbp": 6232,
      "Ġstmt": 6233,
      "entries": 6234,
      "kew": 6235,
      "Ġresulting": 6236,
      "ops": 6237,
      "Ġarch": 6238,
      "ĠMIME": 6239,
      "Ġjump": 6240,
      "cial": 6241,
      "render": 6242,
      "notify": 6243,
      "scroll": 6244,
      "newline": 6245,
      "EVENT": 6246,
      "colorize": 6247,
      "MPLE": 6248,
      "Values": 6249,
      "encmap": 6250,
      "Ġmono": 6251,
      "bytecode": 6252,
      "audio": 6253,
      "Ġgood": 6254,
      "ensure": 6255,
      "Ġ'{'": 6256,
      "Builder": 6257,
      "cancelled": 6258,
      "password": 6259,
      "Ġquoted": 6260,
      "ĠCounter": 6261,
      "VISION": 6262,
      "&(": 6263,
      ":.": 6264,
      ">')": 6265,
      "Ch": 6266,
      "DOT": 6267,
      "FOR": 6268,
      "Function": 6269,
      "NEXT": 6270,
      "QR": 6271,
      "VW": 6272,
      "cpython": 6273,
      "guess": 6274,
      "images": 6275,
      "kill": 6276,
      "lite": 6277,
      "lvin": 6278,
      "ource": 6279,
      "rm": 6280,
      "rear": 6281,
      "dean": 6282,
      "arm": 6283,
      "ĠLINK": 6284,
      "olver": 6285,
      "Ġstored": 6286,
      "ĠCode": 6287,
      "ĠDP": 6288,
      "Ġcookies": 6289,
      "verters": 6290,
      "named": 6291,
      "Ġgamma": 6292,
      "more": 6293,
      "...\")": 6294,
      "Ġuni": 6295,
      "Ġsupp": 6296,
      "Ġvery": 6297,
      "Ġparents": 6298,
      "intervals": 6299,
      "theme": 6300,
      "Ġallows": 6301,
      "ificant": 6302,
      "Ġinsertion": 6303,
      "ĠSHORT": 6304,
      "commands": 6305,
      "Ġimported": 6306,
      "ĠCARRIA": 6307,
      "Ġfeature": 6308,
      "Ġ'%'": 6309,
      "Ġcomparison": 6310,
      "ĠCharacter": 6311,
      "Ġ'|'": 6312,
      "ĠBACKSPACE": 6313,
      "Ġ'~'": 6314,
      "reversed": 6315,
      "ĠCARRIAGE": 6316,
      "!\")": 6317,
      ",-": 6318,
      ":\",": 6319,
      "Buffered": 6320,
      "Future": 6321,
      "FORM": 6322,
      "GB": 6323,
      "MAP": 6324,
      "Sign": 6325,
      "cert": 6326,
      "fra": 6327,
      "grees": 6328,
      "jar": 6329,
      "tr": 6330,
      "ucli": 6331,
      "zeros": 6332,
      "Ġ$": 6333,
      "decess": 6334,
      "Ġte": 6335,
      "Ġfloor": 6336,
      "enum": 6337,
      "Ġreceived": 6338,
      "Ġ';'": 6339,
      "__}": 6340,
      "ĠTemp": 6341,
      "))%": 6342,
      "added": 6343,
      "vect": 6344,
      "ĠFinal": 6345,
      "Ġconv": 6346,
      "Ġconst": 6347,
      "Ġdelim": 6348,
      "ĠBELL": 6349,
      "('/": 6350,
      "Ġprofit": 6351,
      "Ġcollector": 6352,
      "Cookie": 6353,
      "Stats": 6354,
      "QUIR": 6355,
      "sentence": 6356,
      "futures": 6357,
      "infos": 6358,
      "Ġpositional": 6359,
      "Ġsomething": 6360,
      "Ġclosest": 6361,
      "ĠParse": 6362,
      "ĠHEADING": 6363,
      "Ġconnections": 6364,
      "INFO": 6365,
      "EventLoop": 6366,
      "ĠENQUIR": 6367,
      "ĠMessage": 6368,
      "ĠNEGATIVE": 6369,
      "bracket": 6370,
      "Ġbracket": 6371,
      "Ġorigin": 6372,
      "incip": 6373,
      "geometry": 6374,
      "Ġugly": 6375,
      "Ġ'&'": 6376,
      "ĠSYNCHRONOUS": 6377,
      "uclidean": 6378,
      "ĠENQUIRY": 6379,
      "Alias": 6380,
      "ImportError": 6381,
      "LY": 6382,
      "[^": 6383,
      "cer": 6384,
      "hull": 6385,
      "pkg": 6386,
      "sensitive": 6387,
      "ormp": 6388,
      "Ġta": 6389,
      "Ġtrees": 6390,
      "erat": 6391,
      "Ġreq": 6392,
      "Ġpat": 6393,
      "Ġplat": 6394,
      "ceil": 6395,
      "Ġblue": 6396,
      "__:": 6397,
      "Ġdb": 6398,
      "ulate": 6399,
      "Ġ\"*": 6400,
      "entity": 6401,
      "ane": 6402,
      "page": 6403,
      "ĠData": 6404,
      "ĠDIS": 6405,
      "Ġconsu": 6406,
      "Ġconstant": 6407,
      "Ġneighbour": 6408,
      "REG": 6409,
      "tool": 6410,
      "usion": 6411,
      "bucket": 6412,
      "Ġunsorted": 6413,
      "aken": 6414,
      "Ġleg": 6415,
      "ĠInsert": 6416,
      "Ġquant": 6417,
      "resolved": 6418,
      "ibonacci": 6419,
      "Ġentire": 6420,
      "Ġcommands": 6421,
      "poly": 6422,
      "Ġfollowed": 6423,
      "ĠKeyboardInterrupt": 6424,
      "capacity": 6425,
      "ĠĠĠĠĠĠĠĠĠĠĠĠĠĠĠĠĠĠĠĠĠĠĠĠĠĠĠĠĠĠĠĠĠĠĠĠĠĠĠĠĠĠ": 6426,
      "Ġalias": 6427,
      "Ġsquares": 6428,
      "CONST": 6429,
      "Ġencrypted": 6430,
      "ctypes": 6431,
      "Ġanalyze": 6432,
      "Ġperformance": 6433,
      "riorityQueue": 6434,
      "Ġpurpo": 6435,
      "Ġ'@'": 6436,
      "indices": 6437,
      "ĠDIVISION": 6438,
      "eratosthenes": 6439,
      "(?:": 6440,
      "Black": 6441,
      "CONT": 6442,
      "Cache": 6443,
      "Meta": 6444,
      "Su": 6445,
      "car": 6446,
      "dr": 6447,
      "gic": 6448,
      "nir": 6449,
      "oy": 6450,
      "oct": 6451,
      "td": 6452,
      "tic": 6453,
      "redirect": 6454,
      "stencil": 6455,
      "Ġcwd": 6456,
      "Ġnull": 6457,
      "Ġ'^'": 6458,
      "define": 6459,
      "__\",": 6460,
      "Ġwarn": 6461,
      "Ġdefine": 6462,
      "upport": 6463,
      "cope": 6464,
      "uni": 6465,
      "Ġ28": 6466,
      "ĠFOR": 6467,
      "Ġconsole": 6468,
      "apply": 6469,
      "constant": 6470,
      "Ġ45": 6471,
      "Start": 6472,
      "Ġ80": 6473,
      "tags": 6474,
      "030": 6475,
      "039": 6476,
      "Ġinterpre": 6477,
      "gradient": 6478,
      "Ġsym": 6479,
      "Ġsyntax": 6480,
      "Ġenter": 6481,
      "Ġopened": 6482,
      "hostname": 6483,
      "encrypt": 6484,
      "Ġvertical": 6485,
      "Ġunderlying": 6486,
      "Ġ','": 6487,
      "multiply": 6488,
      "Ġbeginning": 6489,
      "Ġsuccessful": 6490,
      "hello": 6491,
      "Ġplus": 6492,
      "Ġvariant": 6493,
      "sequent": 6494,
      "CHECK": 6495,
      "discard": 6496,
      "ABCDEFG": 6497,
      "vectors": 6498,
      "Browser": 6499,
      "Code": 6500,
      "MD": 6501,
      "UI": 6502,
      "`'": 6503,
      "between": 6504,
      "caller": 6505,
      "fl": 6506,
      "slash": 6507,
      "ude": 6508,
      "vc": 6509,
      "Ġnb": 6510,
      "ĠnCr": 6511,
      "arsh": 6512,
      "arwin": 6513,
      "Ġ-----": 6514,
      "Ġbasis": 6515,
      "peak": 6516,
      "Ġ18": 6517,
      "0010": 6518,
      "ĠOne": 6519,
      "Ġtool": 6520,
      "ĠAt": 6521,
      "Ġ27": 6522,
      "\")]": 6523,
      "quences": 6524,
      "ĠIP": 6525,
      "ĠInt": 6526,
      "Ġfig": 6527,
      "ĠPY": 6528,
      "ryption": 6529,
      "precedence": 6530,
      "prepare": 6531,
      "moid": 6532,
      "ĠHA": 6533,
      "Ġadding": 6534,
      "found": 6535,
      "Ġparity": 6536,
      "book": 6537,
      "Ġsysconfig": 6538,
      "0002": 6539,
      "urllib": 6540,
      "sider": 6541,
      "MAN": 6542,
      "221": 6543,
      "runcated": 6544,
      "completion": 6545,
      "Ġoptimal": 6546,
      "Ġkwds": 6547,
      "Ġrotor": 6548,
      "squares": 6549,
      "factorial": 6550,
      "Ġexecution": 6551,
      "handshake": 6552,
      "Ġmembers": 6553,
      "analysis": 6554,
      "Ġguarant": 6555,
      "lank": 6556,
      "precationWarning": 6557,
      ".*": 6558,
      "BOUND": 6559,
      "Filter": 6560,
      "GA": 6561,
      "JKL": 6562,
      "KEN": 6563,
      "PORT": 6564,
      "bfs": 6565,
      "dll": 6566,
      "fraction": 6567,
      "ponent": 6568,
      "sin": 6569,
      "tok": 6570,
      "uous": 6571,
      "ĠALL": 6572,
      "inery": 6573,
      "stmt": 6574,
      "dend": 6575,
      "Ġcut": 6576,
      "Ġ'!'": 6577,
      "Ġmult": 6578,
      "loss": 6579,
      "chinery": 6580,
      "cookie": 6581,
      "ATT": 6582,
      "opname": 6583,
      "ĠPOS": 6584,
      "Ġanchor": 6585,
      "ĠEV": 6586,
      "Ġalt": 6587,
      "prototype": 6588,
      "buckets": 6589,
      "logk": 6590,
      "Ġsuit": 6591,
      "nsity": 6592,
      "speed": 6593,
      "Ġtopological": 6594,
      "spaces": 6595,
      "tokenizer": 6596,
      "Ġselector": 6597,
      "Ġsentinel": 6598,
      "radient": 6599,
      "IRECTIONS": 6600,
      "PROT": 6601,
      "Ġcarry": 6602,
      "Ġparticular": 6603,
      "Ġevaluate": 6604,
      "ĠUTF": 6605,
      "Integer": 6606,
      "ĠMICRO": 6607,
      ":],": 6608,
      "BE": 6609,
      "BY": 6610,
      "BUT": 6611,
      "Dec": 6612,
      "Graph": 6613,
      "MB": 6614,
      "TO": 6615,
      "Two": 6616,
      "`_": 6617,
      "ired": 6618,
      "ially": 6619,
      "ov": 6620,
      "inux": 6621,
      "resources": 6622,
      "atus": 6623,
      "atural": 6624,
      "Ġspa": 6625,
      "ĠLinked": 6626,
      "Ġdc": 6627,
      "ential": 6628,
      "apter": 6629,
      "ITS": 6630,
      "Ġexclude": 6631,
      "Ġhorizontal": 6632,
      "][\"": 6633,
      "matched": 6634,
      "Ġproperty": 6635,
      "Ġproxies": 6636,
      "acters": 6637,
      "Ġ)?": 6638,
      "maximum": 6639,
      "Ġbuilding": 6640,
      "ĠKIND": 6641,
      "UTH": 6642,
      "Convert": 6643,
      "CEP": 6644,
      "caches": 6645,
      "mitted": 6646,
      "Ġprevs": 6647,
      "ĠĠĠĠĠĠĠĠĠĠĠĠĠĠĠĠĠĠĠĠĠĠĠĠĠĠĠĠĠĠĠĠĠĠĠĠĠĠ": 6648,
      "ieve": 6649,
      "offsets": 6650,
      "openssl": 6651,
      "Ġtemporary": 6652,
      "Ġimplementations": 6653,
      "priority": 6654,
      "MPTY": 6655,
      "Ġwriting": 6656,
      "PREV": 6657,
      "idlelib": 6658,
      "ĠDouble": 6659,
      "alphabet": 6660,
      "Ġprobability": 6661,
      "Ġeditwin": 6662,
      "VALUE": 6663,
      "divisor": 6664,
      "Ġrules": 6665,
      "ĠCATEGORY": 6666,
      "Edge": 6667,
      "awaited": 6668,
      "maybe": 6669,
      "aussian": 6670,
      "ĠVariable": 6671,
      "'ll": 6672,
      "*,": 6673,
      ":%": 6674,
      "BILITY": 6675,
      "OFF": 6676,
      "Print": 6677,
      "Send": 6678,
      "WA": 6679,
      "Write": 6680,
      "actions": 6681,
      "called": 6682,
      "sage": 6683,
      "tty": 6684,
      "wsgi": 6685,
      "oring": 6686,
      "dele": 6687,
      "Ġcard": 6688,
      "Ġinstruction": 6689,
      "Ġincrease": 6690,
      "hest": 6691,
      "heses": 6692,
      "Ġpix": 6693,
      "Ġ---------": 6694,
      "Ġear": 6695,
      "Ġembed": 6696,
      "ĠSome": 6697,
      "Ġiso": 6698,
      "ĠCURREN": 6699,
      "Ġvirtual": 6700,
      "setitem": 6701,
      "Ġhold": 6702,
      "iful": 6703,
      "ĠButton": 6704,
      "ĠMin": 6705,
      "Ġprepare": 6706,
      "ĠResult": 6707,
      "OUSE": 6708,
      "planet": 6709,
      "coming": 6710,
      ")-(": 6711,
      "subarray": 6712,
      "Ġ///": 6713,
      "Ġ&=": 6714,
      "Ġlowest": 6715,
      "Ġimplements": 6716,
      "abspath": 6717,
      "Ġallowance": 6718,
      "Ġknapsack": 6719,
      "choices": 6720,
      "Ġmarkers": 6721,
      "Ġapproxim": 6722,
      "Ġnormalized": 6723,
      "containers": 6724,
      "Ġrepeated": 6725,
      "Ġchoose": 6726,
      "whitespace": 6727,
      "ĠSource": 6728,
      "Ġextensions": 6729,
      "legator": 6730,
      "Thread": 6731,
      "visited": 6732,
      "weekday": 6733,
      "separator": 6734,
      "Ġimmediately": 6735,
      "Close": 6736,
      "Called": 6737,
      "From": 6738,
      "Ind": 6739,
      "METH": 6740,
      "cript": 6741,
      "echo": 6742,
      "king": 6743,
      "vm": 6744,
      "xff": 6745,
      "received": 6746,
      "dequeue": 6747,
      "Ġclock": 6748,
      "Ġsin": 6749,
      "Ġbasic": 6750,
      "\"\"\"#\"": 6751,
      "utiful": 6752,
      "rices": 6753,
      "rived": 6754,
      "loy": 6755,
      "ĠCall": 6756,
      "idual": 6757,
      "ĠDIRECTIONS": 6758,
      "ĠFuture": 6759,
      "serted": 6760,
      "ĠRO": 6761,
      "ĠIE": 6762,
      "prey": 6763,
      "ippet": 6764,
      "fileobj": 6765,
      "popen": 6766,
      "Converter": 6767,
      "Ġrespect": 6768,
      "Ġsolutions": 6769,
      "quired": 6770,
      "ĠQu": 6771,
      "Ġrepresented": 6772,
      "available": 6773,
      "IPS": 6774,
      "Ġemitter": 6775,
      "Ġclone": 6776,
      "ĠCommand": 6777,
      "Ġalternative": 6778,
      "Ġexplicitly": 6779,
      "XYZ": 6780,
      "Ġworst": 6781,
      "(\\": 6782,
      "CAT": 6783,
      "Go": 6784,
      "SV": 6785,
      "Temp": 6786,
      "clo": 6787,
      "fallback": 6788,
      "hot": 6789,
      "slice": 6790,
      "erature": 6791,
      "algorithms": 6792,
      "Ġmbc": 6793,
      "Ġelect": 6794,
      "Ġefficient": 6795,
      "ĠNe": 6796,
      "ĠOpen": 6797,
      "into": 6798,
      "ĠAnal": 6799,
      "chn": 6800,
      "unlink": 6801,
      "Ġ200": 6802,
      "roman": 6803,
      "Ġdesi": 6804,
      "ĠPO": 6805,
      "ĠBad": 6806,
      "ĠBAR": 6807,
      "ĠEP": 6808,
      "ICT": 6809,
      "ested": 6810,
      "Ġgets": 6811,
      "locked": 6812,
      "0008": 6813,
      "Ġones": 6814,
      "grade": 6815,
      "Project": 6816,
      "Expected": 6817,
      "Ġframework": 6818,
      "Ġprior": 6819,
      "UNSET": 6820,
      "success": 6821,
      "--------------------------------": 6822,
      "Ġworking": 6823,
      "decrypt": 6824,
      "requests": 6825,
      "LITERAL": 6826,
      "category": 6827,
      "Ġbinascii": 6828,
      "Heap": 6829,
      "Ġissubclass": 6830,
      "rules": 6831,
      "HIJKL": 6832,
      "ĠRedistribution": 6833,
      "ragma": 6834,
      "456789": 6835,
      "calculate": 6836,
      "HIJKLM": 6837,
      "!)": 6838,
      ".\\": 6839,
      "/*.": 6840,
      "10000": 6841,
      ":{": 6842,
      "Block": 6843,
      "ZA": 6844,
      "[\\": 6845,
      "browser": 6846,
      "frequency": 6847,
      "how": 6848,
      "holder": 6849,
      "imat": 6850,
      "rfc": 6851,
      "sections": 6852,
      "remote": 6853,
      "Ġimages": 6854,
      "Ġtransp": 6855,
      "hether": 6856,
      "Ġpending": 6857,
      "Ġ'`'": 6858,
      "Ġbad": 6859,
      "ĠLinkedList": 6860,
      "Ġda": 6861,
      "ĠTA": 6862,
      "ulator": 6863,
      "ansi": 6864,
      "orth": 6865,
      "ĠAR": 6866,
      "))))": 6867,
      "coefficients": 6868,
      "unsupported": 6869,
      "rance": 6870,
      "paused": 6871,
      "asyncio": 6872,
      "Ġconsecutive": 6873,
      "quer": 6874,
      "ĠREG": 6875,
      "Ġnei": 6876,
      "ĠPR": 6877,
      "ĠPOUND": 6878,
      "Ġask": 6879,
      "Ġ{_": 6880,
      "Ġprevent": 6881,
      "Ġ%=": 6882,
      "ĠHow": 6883,
      "ĠHAM": 6884,
      "2514": 6885,
      "Ġ48": 6886,
      "Ġleaf": 6887,
      "compute": 6888,
      "Ġeditor": 6889,
      "Ġfinding": 6890,
      "Ġinteg": 6891,
      "contin": 6892,
      "=\"{": 6893,
      "structures": 6894,
      "docstring": 6895,
      "filing": 6896,
      "Ġdebugger": 6897,
      "what": 6898,
      "alendar": 6899,
      "Ġpeak": 6900,
      "connected": 6901,
      "snippet": 6902,
      "ssibly": 6903,
      "hird": 6904,
      "ormpath": 6905,
      "ĠHAMZA": 6906,
      "(%": 6907,
      ")][": 6908,
      ",),": 6909,
      "Adjacency": 6910,
      "Case": 6911,
      "DIGIT": 6912,
      "FIL": 6913,
      "GR": 6914,
      "Like": 6915,
      "Section": 6916,
      "agraph": 6917,
      "duplic": 6918,
      "given": 6919,
      "pprint": 6920,
      "ui": 6921,
      "Ġothers": 6922,
      "Ġturtle": 6923,
      "erial": 6924,
      "robo": 6925,
      "Ġms": 6926,
      "Ġol": 6927,
      "0004": 6928,
      "0011": 6929,
      "0022": 6930,
      "ĠTry": 6931,
      "unbound": 6932,
      "\",),": 6933,
      "Ġcopi": 6934,
      "Ġmaze": 6935,
      "Ġgas": 6936,
      "Ġgencode": 6937,
      "isdir": 6938,
      "oku": 6939,
      "Ġsequences": 6940,
      "ĠBY": 6941,
      "ĠBIT": 6942,
      "Ġarbit": 6943,
      "ĠMap": 6944,
      "ffset": 6945,
      "ffers": 6946,
      "expression": 6947,
      "ĠminOperations": 6948,
      "erson": 6949,
      "253": 6950,
      "Ġcompress": 6951,
      "Ġsortedcontainers": 6952,
      "Ġperm": 6953,
      "issue": 6954,
      "Ġbitmasks": 6955,
      "Direct": 6956,
      "LIED": 6957,
      "Ġapproach": 6958,
      "Ġfaster": 6959,
      "Ġfails": 6960,
      "Ġauthkey": 6961,
      "Runner": 6962,
      "ĠHeader": 6963,
      "ĠGenerator": 6964,
      "variate": 6965,
      "ArgumentParser": 6966,
      "ĠPEP": 6967,
      "ĠCurrent": 6968,
      "MAGES": 6969,
      "Ġdependencies": 6970,
      "uzzle": 6971,
      "ĠIMPLIED": 6972,
      "Ġtags": 6973,
      "stencils": 6974,
      "Ġsuitable": 6975,
      "robogram": 6976,
      "\"%": 6977,
      ")}\")": 6978,
      "Abstract": 6979,
      "BS": 6980,
      "CRE": 6981,
      "NOP": 6982,
      "PHA": 6983,
      "blob": 6984,
      "effect": 6985,
      "gil": 6986,
      "lst": 6987,
      "oms": 6988,
      "yz": 6989,
      "Ġcc": 6990,
      "Ġcte": 6991,
      "Ġcau": 6992,
      "Ġpragma": 6993,
      "rogate": 6994,
      ">>'),": 6995,
      "Ġ\"+": 6996,
      "()}": 6997,
      "ĠCli": 6998,
      "fib": 6999,
      "unct": 7000,
      "iline": 7001,
      "])]": 7002,
      "ĠFibonacci": 7003,
      "Ġ34": 7004,
      "('.')": 7005,
      "Ġprecision": 7006,
      "ĠValid": 7007,
      "importlib": 7008,
      "perties": 7009,
      "curacy": 7010,
      "252": 7011,
      "soon": 7012,
      "]]))": 7013,
      ").\"\"\"": 7014,
      "logm": 7015,
      "illion": 7016,
      "ISTER": 7017,
      "arest": 7018,
      "0123": 7019,
      "queues": 7020,
      "prefixes": 7021,
      "Ġintersection": 7022,
      "grams": 7023,
      "0085": 7024,
      "Ġrod": 7025,
      "LOAD": 7026,
      "PAIR": 7027,
      "hour": 7028,
      "loads": 7029,
      "waiting": 7030,
      "sually": 7031,
      "Param": 7032,
      "xadecimal": 7033,
      "osen": 7034,
      "Ġregistered": 7035,
      "printable": 7036,
      "Ġactiv": 7037,
      "Ġdocstring": 7038,
      "NAM": 7039,
      "transform": 7040,
      "}:{": 7041,
      "Ġseparate": 7042,
      "Generic": 7043,
      "croll": 7044,
      "Ġchoice": 7045,
      "combination": 7046,
      "Ġprobably": 7047,
      "schema": 7048,
      "mirror": 7049,
      "sequences": 7050,
      "ratio": 7051,
      "Ġsimpli": 7052,
      "VARS": 7053,
      "candidate": 7054,
      "Ġcause": 7055,
      "ĠSIGMA": 7056,
      "Ġmanipulation": 7057,
      "robogrammatic": 7058,
      "932": 7059,
      "Palindrome": 7060,
      "Target": 7061,
      "dual": 7062,
      "gc": 7063,
      "Ġcast": 7064,
      "ender": 7065,
      "ented": 7066,
      "Ġredirect": 7067,
      "Ġinf": 7068,
      "Ġinherit": 7069,
      "Ġnd": 7070,
      "Ġndigits": 7071,
      "Ġpot": 7072,
      "Ġmix": 7073,
      "Ġdtype": 7074,
      "Ġdatabase": 7075,
      "oplevel": 7076,
      "ĠPIL": 7077,
      "ĠEvent": 7078,
      "RAIN": 7079,
      "listbox": 7080,
      "ĠGiven": 7081,
      "2524": 7082,
      "Ġgettext": 7083,
      "ĠgetPrefix": 7084,
      "ivis": 7085,
      "101": 7086,
      "Ġoutside": 7087,
      "STU": 7088,
      "Ġargv": 7089,
      "0003": 7090,
      "Ġchecked": 7091,
      "0040": 7092,
      "Ġrunner": 7093,
      "Ġcontextlib": 7094,
      "Ġ['<": 7095,
      "ĠYou": 7096,
      "ighted": 7097,
      "ĠSECTION": 7098,
      "Ġcoroutine": 7099,
      "Ġcapture": 7100,
      "links": 7101,
      "LIM": 7102,
      "Ġdisplayed": 7103,
      "Ġmarker": 7104,
      "RequestHandler": 7105,
      "Ġhandlers": 7106,
      "rupted": 7107,
      "specific": 7108,
      "caten": 7109,
      "Ġfractions": 7110,
      "hesis": 7111,
      "ĠSegmentTreeNode": 7112,
      "Ġcertain": 7113,
      "Ġvisible": 7114,
      "Ġmodulus": 7115,
      "FUNC": 7116,
      "stitution": 7117,
      "escription": 7118,
      "ĠMaximum": 7119,
      "ABCDEFGHIJKLM": 7120,
      "ĠROOT": 7121,
      "Ġgencodec": 7122,
      "!/": 7123,
      "'\\\\": 7124,
      ")')": 7125,
      "Ways": 7126,
      "benchmark": 7127,
      "eys": 7128,
      "folder": 7129,
      "greatest": 7130,
      "ossible": 7131,
      "zz": 7132,
      "infile": 7133,
      "increasing": 7134,
      "urther": 7135,
      "Ġpie": 7136,
      "Ġsink": 7137,
      "Ġsched": 7138,
      "0020": 7139,
      "Ġdr": 7140,
      ">>':": 7141,
      "ĠOutput": 7142,
      "Ġ:]": 7143,
      "velo": 7144,
      "velocity": 7145,
      "ITED": 7146,
      "(\"_": 7147,
      "isode": 7148,
      "Ġhard": 7149,
      "Ġsear": 7150,
      "Ġarithmetic": 7151,
      "**(": 7152,
      "ĠVector": 7153,
      "Ġprocessed": 7154,
      "Ġenable": 7155,
      "ĠHel": 7156,
      "2500": 7157,
      "2534": 7158,
      "backward": 7159,
      "Ġunits": 7160,
      "Ġdataclass": 7161,
      "Ġweek": 7162,
      "Ġsubtype": 7163,
      "Nodes": 7164,
      "Ġending": 7165,
      "ignored": 7166,
      "0006": 7167,
      "scan": 7168,
      "0042": 7169,
      "0069": 7170,
      "0023": 7171,
      "0024": 7172,
      "0027": 7173,
      "Ġformatter": 7174,
      "HEAD": 7175,
      "2560": 7176,
      "Ġtempfile": 7177,
      "waiters": 7178,
      "Ġequation": 7179,
      "errno": 7180,
      "arguments": 7181,
      "Ġ<<=": 7182,
      "limited": 7183,
      "translate": 7184,
      "Ġindicate": 7185,
      ">'],": 7186,
      "Ġdescrib": 7187,
      "Ġnormalize": 7188,
      "BUG": 7189,
      "ĠSyntaxError": 7190,
      "builtins": 7191,
      "variance": 7192,
      "ĠDAMAGES": 7193,
      "forkserver": 7194,
      "Ġduplicate": 7195,
      "Ġdimensions": 7196,
      "Ġdescriptor": 7197,
      "CODES": 7198,
      "ĠCURRENCY": 7199,
      "IPSIS": 7200,
      "Ġdesired": 7201,
      ")?": 7202,
      "BL": 7203,
      "Cfg": 7204,
      "DOM": 7205,
      "One": 7206,
      "RAL": 7207,
      "Random": 7208,
      "SY": 7209,
      "SIG": 7210,
      "just": 7211,
      "when": 7212,
      "decomp": 7213,
      "Ġsn": 7214,
      "cel": 7215,
      "ĠLAM": 7216,
      "ĠSRE": 7217,
      "0025": 7218,
      "Ġdefect": 7219,
      "entities": 7220,
      "ĠCan": 7221,
      "ability": 7222,
      "Ġcoefficients": 7223,
      "Ġgreatest": 7224,
      "ĠĠĠĠĠĠĠĠĠĠĠĠĠĠĠĠĠĠĠĠĠĠĠĠĠĠĠĠĠĠĠĠĠĠĠĠĠĠĠ": 7225,
      "Ġho": 7226,
      "('%": 7227,
      "proto": 7228,
      "251": 7229,
      "2510": 7230,
      "2518": 7231,
      "2584": 7232,
      "2592": 7233,
      "undo": 7234,
      "Ġunless": 7235,
      "features": 7236,
      "Ġtypedecl": 7237,
      "energy": 7238,
      "0005": 7239,
      "0009": 7240,
      "bases": 7241,
      "Ġadjacency": 7242,
      "]+(": 7243,
      "Defect": 7244,
      "asks": 7245,
      "0045": 7246,
      "0048": 7247,
      "Ġpermission": 7248,
      "Product": 7249,
      "0030": 7250,
      "mitive": 7251,
      "OML": 7252,
      "Ġgeneric": 7253,
      "ĠTypeVar": 7254,
      "Ġformatted": 7255,
      "ĠDeprecationWarning": 7256,
      "gramming": 7257,
      "completer": 7258,
      "poll": 7259,
      "Subarray": 7260,
      "ĠANSIColors": 7261,
      "click": 7262,
      "SMTP": 7263,
      "weights": 7264,
      "Ġsigmoid": 7265,
      "Ġaccumul": 7266,
      "origin": 7267,
      "Ġnumeric": 7268,
      "rpc": 7269,
      "STATUS": 7270,
      "vanced": 7271,
      "BOSE": 7272,
      "Failed": 7273,
      ".'": 7274,
      "/{": 7275,
      "Cipher": 7276,
      "Empty": 7277,
      "Jar": 7278,
      "MO": 7279,
      "PUT": 7280,
      "POW": 7281,
      "hint": 7282,
      "literal": 7283,
      "wb": 7284,
      "winfo": 7285,
      "Ġ99": 7286,
      "inorder": 7287,
      "stable": 7288,
      "enwi": 7289,
      "Ġrect": 7290,
      "Ġreached": 7291,
      "helf": 7292,
      "rase": 7293,
      "Ġblack": 7294,
      "Ġeas": 7295,
      "utc": 7296,
      "ĠSub": 7297,
      "Ġlat": 7298,
      "Ġlive": 7299,
      "0012": 7300,
      "Ġdll": 7301,
      "Ġstick": 7302,
      "ĠAuthor": 7303,
      "unsorted": 7304,
      "keep": 7305,
      "ĠDon": 7306,
      "Ġgb": 7307,
      "Ġgives": 7308,
      "Ġstrong": 7309,
      "\")]*": 7310,
      "Ġderived": 7311,
      "Ġthrow": 7312,
      "('_": 7313,
      "Ġprecedence": 7314,
      "ICATION": 7315,
      "ancestor": 7316,
      "properties": 7317,
      "parameter": 7318,
      "2502": 7319,
      "indexed": 7320,
      "Ġroots": 7321,
      "Ġbuckets": 7322,
      "Ġtextwrap": 7323,
      "lling": 7324,
      "Ġends": 7325,
      "0007": 7326,
      "epcopy": 7327,
      "subset": 7328,
      "Ġ{},": 7329,
      "docs": 7330,
      "0050": 7331,
      "0052": 7332,
      "0053": 7333,
      "0070": 7334,
      "0013": 7335,
      "0037": 7336,
      "0062": 7337,
      "0066": 7338,
      "0067": 7339,
      "LOB": 7340,
      "0021": 7341,
      "0026": 7342,
      "0028": 7343,
      "0029": 7344,
      "LAND": 7345,
      "angles": 7346,
      "widths": 7347,
      "syntax": 7348,
      "Ġinstalled": 7349,
      "]))]": 7350,
      "Ġversionchanged": 7351,
      "venv": 7352,
      "Ġgreen": 7353,
      "ROKEN": 7354,
      "polynomial": 7355,
      "cross": 7356,
      "Ġimpro": 7357,
      "Ġfailure": 7358,
      "Colors": 7359,
      "ĠThat": 7360,
      "lands": 7361,
      "ĠMethod": 7362,
      "}/{": 7363,
      "modified": 7364,
      "ĠOrdered": 7365,
      "description": 7366,
      "Mixin": 7367,
      "Ġlegacy": 7368,
      "enwick": 7369,
      "\"}": 7370,
      "(**": 7371,
      ":]:": 7372,
      "CHA": 7373,
      "Finder": 7374,
      "LIN": 7375,
      "MT": 7376,
      "User": 7377,
      "Wrapper": 7378,
      "[_": 7379,
      "basic": 7380,
      "far": 7381,
      "hs": 7382,
      "jority": 7383,
      "pc": 7384,
      "transp": 7385,
      "Ġge": 7386,
      "delay": 7387,
      "leep": 7388,
      "Ġreserved": 7389,
      "Ġincreasing": 7390,
      "gex": 7391,
      "pecial": 7392,
      "ĠSince": 7393,
      "0032": 7394,
      "Ġdynamic": 7395,
      "ĠTcl": 7396,
      "Ġstuff": 7397,
      "cogn": 7398,
      "Ġcome": 7399,
      "Ġstrs": 7400,
      "coded": 7401,
      "numer": 7402,
      "Ġdelay": 7403,
      "artition": 7404,
      "ĠPHI": 7405,
      "constants": 7406,
      "ĠWhether": 7407,
      "ĠEM": 7408,
      "Ġdiagonal": 7409,
      "Ġyi": 7410,
      "ĠVER": 7411,
      "Ġproduce": 7412,
      "expr": 7413,
      "Ġminimal": 7414,
      "ĠHO": 7415,
      "ĠHandle": 7416,
      "Ref": 7417,
      "ARP": 7418,
      "ARY": 7419,
      "pyc": 7420,
      "inity": 7421,
      "Ġweakref": 7422,
      "Ġsubsets": 7423,
      "Ġquad": 7424,
      "Ġadds": 7425,
      "Ġwhy": 7426,
      "[:,": 7427,
      "subtype": 7428,
      "MAGE": 7429,
      "Ġinterpolation": 7430,
      "0041": 7431,
      "0043": 7432,
      "0044": 7433,
      "0046": 7434,
      "0047": 7435,
      "0049": 7436,
      "0051": 7437,
      "0054": 7438,
      "0055": 7439,
      "0056": 7440,
      "0057": 7441,
      "0058": 7442,
      "0059": 7443,
      "0080": 7444,
      "0071": 7445,
      "0077": 7446,
      "0078": 7447,
      "0014": 7448,
      "0019": 7449,
      "0031": 7450,
      "0033": 7451,
      "0035": 7452,
      "0036": 7453,
      "0038": 7454,
      "0039": 7455,
      "0060": 7456,
      "0061": 7457,
      "0063": 7458,
      "0065": 7459,
      "0068": 7460,
      "0091": 7461,
      "0092": 7462,
      "0096": 7463,
      "Ġblocksize": 7464,
      "ĠSequence": 7465,
      "Ġprocessing": 7466,
      "ification": 7467,
      "Named": 7468,
      "Ġmultiply": 7469,
      "ĠTHREAD": 7470,
      "Ġinitializer": 7471,
      "Ġtransform": 7472,
      "visible": 7473,
      "Ġterms": 7474,
      "ĠSHARP": 7475,
      "Ġpopulation": 7476,
      "Ġpackages": 7477,
      "plus": 7478,
      "Level": 7479,
      "Precedence": 7480,
      "Numbers": 7481,
      "ĠAlso": 7482,
      "Ġidentifier": 7483,
      "progress": 7484,
      "Ġnetwork": 7485,
      "Ġhappens": 7486,
      "raises": 7487,
      "ProtocolState": 7488,
      "Ġboxes": 7489,
      "500": 7490,
      "AARCH": 7491,
      "Cli": 7492,
      "CALL": 7493,
      "DIS": 7494,
      "EC": 7495,
      "Import": 7496,
      "KRAIN": 7497,
      "LD": 7498,
      "RU": 7499,
      "Spec": 7500,
      "Words": 7501,
      "bg": 7502,
      "darwin": 7503,
      "gamma": 7504,
      "hits": 7505,
      "icon": 7506,
      "xab": 7507,
      "yes": 7508,
      "ĠERROR": 7509,
      "standard": 7510,
      "dedent": 7511,
      "Ġflist": 7512,
      "Ġrefer": 7513,
      "alive": 7514,
      "ality": 7515,
      "Ġpkg": 7516,
      "Ġss": 7517,
      "ceive": 7518,
      "Ġtheta": 7519,
      "Ġwon": 7520,
      "0064": 7521,
      "0099": 7522,
      "ollow": 7523,
      "ĠCl": 7524,
      "ĠOME": 7525,
      "Ġdecoding": 7526,
      "REEN": 7527,
      "Ġrather": 7528,
      "')+": 7529,
      "Ġprofiling": 7530,
      "Ġminor": 7531,
      "2593": 7532,
      "typ": 7533,
      "Instruction": 7534,
      "HAND": 7535,
      "Ġsubsequent": 7536,
      "weet": 7537,
      "monic": 7538,
      "0086": 7539,
      "0088": 7540,
      "0089": 7541,
      "0072": 7542,
      "0073": 7543,
      "0074": 7544,
      "0075": 7545,
      "0076": 7546,
      "0079": 7547,
      "Ġoutputs": 7548,
      "0015": 7549,
      "0016": 7550,
      "0017": 7551,
      "0018": 7552,
      "0034": 7553,
      "0090": 7554,
      "0093": 7555,
      "0094": 7556,
      "0095": 7557,
      "0097": 7558,
      "0098": 7559,
      "[\"_": 7560,
      "Ġblocking": 7561,
      "2550": 7562,
      "Ġinstant": 7563,
      "UNI": 7564,
      "ĠCookie": 7565,
      "TreeItem": 7566,
      "VERBOSE": 7567,
      "plural": 7568,
      "Ġcreating": 7569,
      "Buffer": 7570,
      "Contain": 7571,
      "Ġrestore": 7572,
      "ĠFileNotFoundError": 7573,
      "ĠidleConf": 7574,
      "Ġobtain": 7575,
      "ĠALPHA": 7576,
      "Ġ'*':": 7577,
      "Ġcircular": 7578,
      "Ġtracker": 7579,
      "Ġcallers": 7580,
      "ĠGraphAdjacency": 7581,
      "ĠRedBlack": 7582,
      "ĠBuild": 7583,
      "Async": 7584,
      "Ġattempt": 7585,
      "Ġheappush": 7586,
      "Ġvolume": 7587,
      "Ġarbitrary": 7588,
      "KRAINIAN": 7589,
      "ĠOMEGA": 7590,
      "ĠRedBlackTree": 7591,
      "-%": 7592,
      "At": 7593,
      "Author": 7594,
      "Date": 7595,
      "cum": 7596,
      "eval": 7597,
      "gent": 7598,
      "mis": 7599,
      "nan": 7600,
      "nargs": 7601,
      "oke": 7602,
      "}\".": 7603,
      "inline": 7604,
      "decompress": 7605,
      "Ġcare": 7606,
      "Ġfour": 7607,
      "Ġflush": 7608,
      "itude": 7609,
      "Ġ10000": 7610,
      "ĠTOML": 7611,
      "Ġ([": 7612,
      "Ġstyle": 7613,
      "ĠNon": 7614,
      "Ġ[[-": 7615,
      "ĠCase": 7616,
      "Ġve": 7617,
      "ĠDARK": 7618,
      "Ġmail": 7619,
      "ĠFrom": 7620,
      "Ġconside": 7621,
      "serving": 7622,
      "Ġdet": 7623,
      "Ġdecreasing": 7624,
      "ĠRun": 7625,
      "ĠIOT": 7626,
      "Ġusually": 7627,
      "Ġ37": 7628,
      "Ġprof": 7629,
      "Ġenabled": 7630,
      "2580": 7631,
      "2588": 7632,
      "2591": 7633,
      "Ġ500": 7634,
      "ĠReplace": 7635,
      "sesColors": 7636,
      "Ġzlib": 7637,
      "Ġabc": 7638,
      "ĠState": 7639,
      "cnts": 7640,
      "0081": 7641,
      "0082": 7642,
      "0083": 7643,
      "0084": 7644,
      "0087": 7645,
      "2551": 7646,
      "2554": 7647,
      "2557": 7648,
      "2563": 7649,
      "2566": 7650,
      "2569": 7651,
      "ĠConnection": 7652,
      "hole": 7653,
      "contextmanager": 7654,
      "Ġversionadded": 7655,
      "ĠUPPER": 7656,
      "ĠUPSILON": 7657,
      "PECIAL": 7658,
      "Ġbytecode": 7659,
      "ĠParser": 7660,
      "choice": 7661,
      "Ġwritable": 7662,
      "tracker": 7663,
      "PRESS": 7664,
      "Ġrecursively": 7665,
      "Ġciphertext": 7666,
      "Ġappears": 7667,
      "Objects": 7668,
      "Ġassignment": 7669,
      "ĠResource": 7670,
      "servations": 7671,
      "ĠDEFAULT": 7672,
      "MAPPINGS": 7673,
      "VWXYZ": 7674,
      "ĠDoubleLinkedList": 7675,
      "NOPQR": 7676,
      "ĠIOTA": 7677,
      "\">": 7678,
      "'}": 7679,
      "BLOCK": 7680,
      "GOT": 7681,
      "Runtime": 7682,
      "`:": 7683,
      "dt": 7684,
      "dy": 7685,
      "gray": 7686,
      "lish": 7687,
      "mtime": 7688,
      "trees": 7689,
      "Ġutf": 7690,
      "Ġuri": 7691,
      "dead": 7692,
      "demo": 7693,
      "atio": 7694,
      "Ġfname": 7695,
      "Ġnone": 7696,
      "Ġnatural": 7697,
      "arp": 7698,
      "arily": 7699,
      "ĠLicen": 7700,
      "Ġops": 7701,
      "Ġworld": 7702,
      "Ġwrong": 7703,
      "Ġlst": 7704,
      "Ġdy": 7705,
      "rival": 7706,
      "Ġdefinition": 7707,
      "tection": 7708,
      "Ġ\":": 7709,
      "Ġ\"\\\\": 7710,
      "lens": 7711,
      "ĠAuth": 7712,
      "imeter": 7713,
      "illi": 7714,
      "Ġgrammar": 7715,
      "isfile": 7716,
      "ĠRight": 7717,
      "ĠIs": 7718,
      "strong": 7719,
      "Ġsession": 7720,
      "ĠBuffered": 7721,
      "probs": 7722,
      "Ġmeas": 7723,
      "parsing": 7724,
      "ĠGHE": 7725,
      "ARM": 7726,
      "rena": 7727,
      "rength": 7728,
      "Ġ/=": 7729,
      "OTH": 7730,
      "Ġsuppress": 7731,
      "substring": 7732,
      "208": 7733,
      "Executor": 7734,
      "PAREN": 7735,
      "ritten": 7736,
      "Ġmakes": 7737,
      "omials": 7738,
      "Ġfollows": 7739,
      "Ġdirs": 7740,
      "cpu": 7741,
      "Ġ128": 7742,
      "Ġ'-':": 7743,
      "Ġrotation": 7744,
      "sendfile": 7745,
      "hooks": 7746,
      "terminal": 7747,
      "Common": 7748,
      "Collector": 7749,
      "ĠSystemExit": 7750,
      "TextIO": 7751,
      "ĠLOWER": 7752,
      "alanced": 7753,
      "Ġcleanup": 7754,
      "Ġtrend": 7755,
      "Ġlocations": 7756,
      "voltage": 7757,
      "macros": 7758,
      "witch": 7759,
      "Ġaccepted": 7760,
      "ĠTemplate": 7761,
      ")}\"": 7762,
      "+%": 7763,
      "-\",": 7764,
      "Mode": 7765,
      "Op": 7766,
      "RIGHT": 7767,
      "Sm": 7768,
      "css": 7769,
      "clic": 7770,
      "iet": 7771,
      "ks": 7772,
      "lstrip": 7773,
      "oo": 7774,
      "uf": 7775,
      "Ġhtml": 7776,
      "Ġtimer": 7777,
      "atis": 7778,
      "Ġable": 7779,
      "Ġcal": 7780,
      "Ġcmp": 7781,
      "Ġfall": 7782,
      "encies": 7783,
      "engine": 7784,
      "Ġreduction": 7785,
      "Ġpage": 7786,
      "Ġmut": 7787,
      "geon": 7788,
      "umented": 7789,
      "ĠLIM": 7790,
      "Ġlight": 7791,
      "Ġ\">": 7792,
      "()`": 7793,
      "ĠCalcul": 7794,
      "ĠOPER": 7795,
      "complex": 7796,
      "coordinate": 7797,
      "dif": 7798,
      "Ġcoords": 7799,
      "(\"#": 7800,
      "ĠRandom": 7801,
      "ĠPos": 7802,
      "Ġseek": 7803,
      "ĠBULL": 7804,
      "REL": 7805,
      "REPE": 7806,
      "Ġproject": 7807,
      "Ġchosen": 7808,
      "listener": 7809,
      "outfile": 7810,
      "Ġunsupported": 7811,
      "notation": 7812,
      "Ġlengths": 7813,
      "SECTION": 7814,
      "specs": 7815,
      "ogle": 7816,
      "ĠuserId": 7817,
      "Ġfolder": 7818,
      "absolute": 7819,
      "ĠSTD": 7820,
      "ific": 7821,
      "Ġmultiplier": 7822,
      "Ġtransition": 7823,
      "Ġplaces": 7824,
      "Ġlimited": 7825,
      "Ġstdlib": 7826,
      "RANCH": 7827,
      "Ġmerged": 7828,
      "resting": 7829,
      "connections": 7830,
      "Method": 7831,
      "identifier": 7832,
      "buttons": 7833,
      "quoted": 7834,
      "ancelledError": 7835,
      "ARGET": 7836,
      "serializer": 7837,
      "ĠSAX": 7838,
      "pickle": 7839,
      "Difference": 7840,
      "Ġhigher": 7841,
      "Ġguaranteed": 7842,
      "ĠBULLET": 7843,
      ".'''": 7844,
      "After": 7845,
      "Calculate": 7846,
      "DC": 7847,
      "GN": 7848,
      "GER": 7849,
      "Hash": 7850,
      "JSON": 7851,
      "Mon": 7852,
      "Make": 7853,
      "NULL": 7854,
      "Raise": 7855,
      "[]": 7856,
      "bipartite": 7857,
      "fwd": 7858,
      "iod": 7859,
      "normpath": 7860,
      "png": 7861,
      "rr": 7862,
      "vant": 7863,
      "rev": 7864,
      "Ġtid": 7865,
      "Ġfs": 7866,
      "Ġfew": 7867,
      "align": 7868,
      "Ġinserted": 7869,
      "Ġscores": 7870,
      "Ġeg": 7871,
      "Ġlit": 7872,
      ">>>": 7873,
      "Ġ(%": 7874,
      "ĠNormal": 7875,
      "INET": 7876,
      "ĠCENT": 7877,
      "ana": 7878,
      "unquote": 7879,
      "getvalue": 7880,
      "Ġmacro": 7881,
      "])*": 7882,
      "apple": 7883,
      "Ġuuid": 7884,
      "Ġseed": 7885,
      "ĠMac": 7886,
      "ĠMOUSE": 7887,
      "RAM": 7888,
      "Ġpropa": 7889,
      "imits": 7890,
      "(((": 7891,
      "logN": 7892,
      "Ġargrepr": 7893,
      "128": 7894,
      "emory": 7895,
      "DECL": 7896,
      "php": 7897,
      "Ġgeneral": 7898,
      "located": 7899,
      "returncode": 7900,
      "xbb": 7901,
      "adjacent": 7902,
      "duces": 7903,
      "ELS": 7904,
      "model": 7905,
      "Arg": 7906,
      "Help": 7907,
      "Ġdistances": 7908,
      "Ġcompleted": 7909,
      "Ġbounds": 7910,
      "client": 7911,
      "Ġfutures": 7912,
      "breaks": 7913,
      "multipart": 7914,
      "Ġgoto": 7915,
      "(\"\")": 7916,
      "atalan": 7917,
      "largest": 7918,
      "JECT": 7919,
      "Ġpermutations": 7920,
      "Ġrandint": 7921,
      "Ġdeleted": 7922,
      "ĠEPSILON": 7923,
      "Ġconsidered": 7924,
      "#!/": 7925,
      "2004": 7926,
      "401": 7927,
      "??": 7928,
      "Copy": 7929,
      "DLL": 7930,
      "KA": 7931,
      "Wh": 7932,
      "]^": 7933,
      "bid": 7934,
      "dom": 7935,
      "drive": 7936,
      "slow": 7937,
      "tn": 7938,
      "ordered": 7939,
      "Ġtt": 7940,
      "Ġtot": 7941,
      "Ġfit": 7942,
      "Ġflip": 7943,
      "Ġfetch": 7944,
      "endif": 7945,
      "Ġnlogn": 7946,
      "arrange": 7947,
      "itect": 7948,
      "Ġps": 7949,
      "Ġpack": 7950,
      "Ġbubble": 7951,
      "Ġest": 7952,
      "Ġduration": 7953,
      "ĠTI": 7954,
      "ĠCP": 7955,
      "ĠCre": 7956,
      "TERN": 7957,
      "vered": 7958,
      "Ġ2000": 7959,
      "machinery": 7960,
      "Ġcoordinate": 7961,
      "Ġgradient": 7962,
      "]).": 7963,
      "ĠĠĠĠĠĠĠĠĠĠĠĠĠĠĠĠčĊ": 7964,
      "Ġfileno": 7965,
      "isearch": 7966,
      "ĠBST": 7967,
      "Ġenough": 7968,
      "Ġ%(": 7969,
      "Recursive": 7970,
      "crete": 7971,
      "neg": 7972,
      "Ġposix": 7973,
      "016": 7974,
      "calc": 7975,
      "Ġaccount": 7976,
      "Decl": 7977,
      "Ġresistance": 7978,
      "USER": 7979,
      "uffle": 7980,
      "Ġdecrypted": 7981,
      "Ġspan": 7982,
      "18030": 7983,
      "Ġfactory": 7984,
      "Selector": 7985,
      "cased": 7986,
      "Ġcompletions": 7987,
      "ampling": 7988,
      "Ġmeaning": 7989,
      "versable": 7990,
      "Ġproducts": 7991,
      "Ġexponential": 7992,
      "relative": 7993,
      "Ġsimulation": 7994,
      "BACK": 7995,
      "mediate": 7996,
      "ĠShould": 7997,
      "Ġexecuted": 7998,
      "geometric": 7999
    },
    "merges": [
      [
        "Ġ",
        "Ġ"
      ],
      [
        "ĠĠ",
        "ĠĠ"
      ],
      [
        "č",
        "Ċ"
      ],
      [
        "ĠĠ",
        "Ġ"
      ],
      [
        "ĠĠĠĠ",
        "ĠĠĠ"
      ],
      [
        "i",
        "n"
      ],
      [
        "s",
        "e"
      ],
      [
        "r",
        "e"
      ],
      [
        "ĠĠĠĠ",
        "ĠĠĠĠĠĠĠ"
      ],
      [
        "o",
        "r"
      ],
      [
        "Ġ",
        "="
      ],
      [
        "o",
        "n"
      ],
      [
        "s",
        "t"
      ],
      [
        "d",
        "e"
      ],
      [
        "l",
        "e"
      ],
      [
        "Ġ",
        "i"
      ],
      [
        "Ġ",
        "t"
      ],
      [
        "e",
        "r"
      ],
      [
        "a",
        "t"
      ],
      [
        "Ġ",
        "a"
      ],
      [
        "\"",
        "\""
      ],
      [
        "Ġ",
        "c"
      ],
      [
        "l",
        "f"
      ],
      [
        "Ġ",
        "f"
      ],
      [
        "se",
        "lf"
      ],
      [
        "e",
        "n"
      ],
      [
        "Ġ",
        "re"
      ],
      [
        "a",
        "l"
      ],
      [
        "Ġ",
        "in"
      ],
      [
        "ĠĠĠĠ",
        "ĠĠĠĠ"
      ],
      [
        "Ġ",
        "n"
      ],
      [
        "h",
        "e"
      ],
      [
        "Ġ",
        "0"
      ],
      [
        "a",
        "r"
      ],
      [
        "Ġ",
        "#"
      ],
      [
        "u",
        "r"
      ],
      [
        ")",
        ":"
      ],
      [
        "m",
        "e"
      ],
      [
        "i",
        "t"
      ],
      [
        "Ġ",
        "p"
      ],
      [
        "i",
        "on"
      ],
      [
        "c",
        "t"
      ],
      [
        "r",
        "a"
      ],
      [
        "Ġ",
        "-"
      ],
      [
        "Ġ",
        "s"
      ],
      [
        "Ġ",
        "'"
      ],
      [
        "ĠĠĠĠ",
        "ĠĠĠĠĠĠĠĠĠĠĠ"
      ],
      [
        "c",
        "e"
      ],
      [
        "Ġ",
        "self"
      ],
      [
        "Ġi",
        "f"
      ],
      [
        "r",
        "o"
      ],
      [
        "Ġ",
        "b"
      ],
      [
        "Ġ",
        "m"
      ],
      [
        "g",
        "e"
      ],
      [
        "ur",
        "n"
      ],
      [
        "t",
        "urn"
      ],
      [
        "u",
        "m"
      ],
      [
        "de",
        "f"
      ],
      [
        "o",
        "t"
      ],
      [
        "Ġ",
        "L"
      ],
      [
        "\"\"",
        "\""
      ],
      [
        "Ġt",
        "he"
      ],
      [
        "Ġ",
        "e"
      ],
      [
        "u",
        "t"
      ],
      [
        "p",
        "e"
      ],
      [
        "Ġre",
        "turn"
      ],
      [
        "_",
        "_"
      ],
      [
        "in",
        "g"
      ],
      [
        "Ġ",
        "o"
      ],
      [
        "u",
        "e"
      ],
      [
        "Ġ",
        "S"
      ],
      [
        "Ġ",
        "w"
      ],
      [
        "Ġ",
        "l"
      ],
      [
        "m",
        "p"
      ],
      [
        "Ġf",
        "or"
      ],
      [
        "Ġ",
        "1"
      ],
      [
        "n",
        "d"
      ],
      [
        "o",
        "de"
      ],
      [
        "0",
        "0"
      ],
      [
        "Ġ",
        "d"
      ],
      [
        "r",
        "i"
      ],
      [
        "s",
        "s"
      ],
      [
        "Ġ",
        "\"\"\""
      ],
      [
        ">",
        ">"
      ],
      [
        "Ġ",
        "T"
      ],
      [
        "u",
        "l"
      ],
      [
        "o",
        "l"
      ],
      [
        "Ġ-",
        ">"
      ],
      [
        "n",
        "t"
      ],
      [
        "Ġ",
        "("
      ],
      [
        "i",
        "st"
      ],
      [
        "Ġ",
        "def"
      ],
      [
        "t",
        "e"
      ],
      [
        "l",
        "a"
      ],
      [
        "Ġ",
        "\""
      ],
      [
        "le",
        "n"
      ],
      [
        "Ġ",
        "st"
      ],
      [
        "y",
        "pe"
      ],
      [
        "Ġi",
        "s"
      ],
      [
        "(",
        ")"
      ],
      [
        "a",
        "me"
      ],
      [
        "l",
        "o"
      ],
      [
        "on",
        "e"
      ],
      [
        "E",
        "R"
      ],
      [
        "ul",
        "t"
      ],
      [
        "c",
        "k"
      ],
      [
        "en",
        "t"
      ],
      [
        "Ġ",
        "+"
      ],
      [
        "Ġ",
        "N"
      ],
      [
        "I",
        "N"
      ],
      [
        "Ġ",
        "["
      ],
      [
        "Ġ",
        "C"
      ],
      [
        "Ġ",
        "O"
      ],
      [
        "Ġ",
        ":"
      ],
      [
        "a",
        "n"
      ],
      [
        "t",
        "ype"
      ],
      [
        "e",
        "d"
      ],
      [
        "or",
        "t"
      ],
      [
        "a",
        "p"
      ],
      [
        "f",
        "i"
      ],
      [
        "A",
        "L"
      ],
      [
        "in",
        "t"
      ],
      [
        "Ġ",
        "v"
      ],
      [
        "Ġt",
        "o"
      ],
      [
        "h",
        "i"
      ],
      [
        "ĠĠĠĠĠĠĠĠ",
        "ĠĠĠĠĠĠĠĠĠĠĠ"
      ],
      [
        "Ġo",
        "f"
      ],
      [
        "h",
        "t"
      ],
      [
        "t",
        "h"
      ],
      [
        "Ġin",
        "t"
      ],
      [
        "E",
        "T"
      ],
      [
        "u",
        "p"
      ],
      [
        "Ġ",
        "_"
      ],
      [
        "Ġ",
        "A"
      ],
      [
        "c",
        "h"
      ],
      [
        "T",
        "ER"
      ],
      [
        "at",
        "e"
      ],
      [
        ")",
        ")"
      ],
      [
        "c",
        "o"
      ],
      [
        "a",
        "d"
      ],
      [
        "Ġa",
        "nd"
      ],
      [
        "u",
        "n"
      ],
      [
        "x",
        "t"
      ],
      [
        "s",
        "ult"
      ],
      [
        "Ġ",
        "x"
      ],
      [
        "v",
        "e"
      ],
      [
        "Ġn",
        "ot"
      ],
      [
        "i",
        "d"
      ],
      [
        "Ġ",
        ">>"
      ],
      [
        "ra",
        "n"
      ],
      [
        "Ġ=",
        "="
      ],
      [
        "ĠN",
        "one"
      ],
      [
        "al",
        "ue"
      ],
      [
        "Ġn",
        "um"
      ],
      [
        "Ġ>>",
        ">"
      ],
      [
        "ge",
        "t"
      ],
      [
        "A",
        "T"
      ],
      [
        "i",
        "me"
      ],
      [
        "ET",
        "TER"
      ],
      [
        "Ġ'",
        "\\"
      ],
      [
        "ĠL",
        "ETTER"
      ],
      [
        "I",
        "T"
      ],
      [
        ".",
        "_"
      ],
      [
        "r",
        "or"
      ],
      [
        "\"",
        ","
      ],
      [
        "la",
        "ss"
      ],
      [
        "d",
        "i"
      ],
      [
        "g",
        "ht"
      ],
      [
        "Ġ",
        "*"
      ],
      [
        "p",
        "a"
      ],
      [
        "mp",
        "ort"
      ],
      [
        "Ġ",
        "2"
      ],
      [
        "Ġe",
        "l"
      ],
      [
        "en",
        "d"
      ],
      [
        "k",
        "e"
      ],
      [
        "m",
        "a"
      ],
      [
        "f",
        "t"
      ],
      [
        "e",
        "ct"
      ],
      [
        "Ġ",
        "D"
      ],
      [
        "Ġre",
        "sult"
      ],
      [
        "-",
        "-"
      ],
      [
        "a",
        "b"
      ],
      [
        "Ġc",
        "o"
      ],
      [
        "v",
        "er"
      ],
      [
        "i",
        "l"
      ],
      [
        "se",
        "t"
      ],
      [
        "p",
        "t"
      ],
      [
        "ct",
        "ion"
      ],
      [
        "'",
        ","
      ],
      [
        "ran",
        "ge"
      ],
      [
        "c",
        "lass"
      ],
      [
        "at",
        "ion"
      ],
      [
        "Ġm",
        "a"
      ],
      [
        "t",
        "er"
      ],
      [
        "b",
        "j"
      ],
      [
        "n",
        "ame"
      ],
      [
        "in",
        "e"
      ],
      [
        "o",
        "d"
      ],
      [
        "ro",
        "m"
      ],
      [
        "Ġ",
        "g"
      ],
      [
        "Ġ",
        "len"
      ],
      [
        "Ġst",
        "r"
      ],
      [
        "]",
        ","
      ],
      [
        "]",
        ")"
      ],
      [
        "c",
        "ode"
      ],
      [
        "Ġ",
        "<"
      ],
      [
        "Ġb",
        "e"
      ],
      [
        "le",
        "ft"
      ],
      [
        "ĠĠĠĠĠĠĠĠ",
        "ĠĠĠĠĠĠĠĠ"
      ],
      [
        "at",
        "h"
      ],
      [
        "Ġ",
        "F"
      ],
      [
        "a",
        "s"
      ],
      [
        "Ġc",
        "on"
      ],
      [
        "AT",
        "IN"
      ],
      [
        "ĠL",
        "ATIN"
      ],
      [
        "ri",
        "ght"
      ],
      [
        "r",
        "ror"
      ],
      [
        "(",
        "\""
      ],
      [
        "E",
        "rror"
      ],
      [
        "i",
        "z"
      ],
      [
        "o",
        "p"
      ],
      [
        "\"",
        ")"
      ],
      [
        "it",
        "h"
      ],
      [
        "bj",
        "ect"
      ],
      [
        "se",
        "r"
      ],
      [
        "ap",
        "p"
      ],
      [
        "n",
        "um"
      ],
      [
        "Ġe",
        "x"
      ],
      [
        "Ġel",
        "se"
      ],
      [
        "Ġ",
        "or"
      ],
      [
        "i",
        "s"
      ],
      [
        "Ġ",
        "h"
      ],
      [
        "q",
        "u"
      ],
      [
        "Ġl",
        "o"
      ],
      [
        "de",
        "r"
      ],
      [
        "Ġ",
        "de"
      ],
      [
        "Ġ",
        "R"
      ],
      [
        "u",
        "nt"
      ],
      [
        "a",
        "ck"
      ],
      [
        "Ġ",
        "I"
      ],
      [
        "ar",
        "t"
      ],
      [
        "Ġn",
        "e"
      ],
      [
        "st",
        "r"
      ],
      [
        "#",
        "#"
      ],
      [
        "ke",
        "y"
      ],
      [
        "Ġf",
        "i"
      ],
      [
        ".",
        "."
      ],
      [
        "l",
        "i"
      ],
      [
        "Ġ",
        "__"
      ],
      [
        ")",
        ","
      ],
      [
        "Ġ",
        "u"
      ],
      [
        "al",
        "l"
      ],
      [
        "g",
        "s"
      ],
      [
        "]",
        "["
      ],
      [
        "i",
        "f"
      ],
      [
        "e",
        "s"
      ],
      [
        "b",
        "er"
      ],
      [
        "ut",
        "ion"
      ],
      [
        "Ġt",
        "h"
      ],
      [
        "Ġ+",
        "="
      ],
      [
        "pa",
        "ce"
      ],
      [
        "Ġ",
        "P"
      ],
      [
        "Ġa",
        "s"
      ],
      [
        "i",
        "se"
      ],
      [
        "mp",
        "le"
      ],
      [
        "o",
        "k"
      ],
      [
        "at",
        "a"
      ],
      [
        "in",
        "d"
      ],
      [
        "c",
        "on"
      ],
      [
        "Ġ",
        "k"
      ],
      [
        "r",
        "ue"
      ],
      [
        "Ġ",
        "{"
      ],
      [
        "O",
        "N"
      ],
      [
        "or",
        "d"
      ],
      [
        "m",
        "ent"
      ],
      [
        "Ġ",
        "W"
      ],
      [
        "Ġ",
        "se"
      ],
      [
        "Ġ",
        "ra"
      ],
      [
        "ab",
        "le"
      ],
      [
        "Ġ",
        "B"
      ],
      [
        "Ġa",
        "r"
      ],
      [
        "ol",
        "ution"
      ],
      [
        "Ġi",
        "mport"
      ],
      [
        "app",
        "end"
      ],
      [
        "AL",
        "L"
      ],
      [
        ".",
        "__"
      ],
      [
        "a",
        "se"
      ],
      [
        "*",
        "*"
      ],
      [
        "o",
        "w"
      ],
      [
        "Ġa",
        "n"
      ],
      [
        "Ġl",
        "ist"
      ],
      [
        "p",
        "ut"
      ],
      [
        "o",
        "s"
      ],
      [
        "Ġ",
        "E"
      ],
      [
        "A",
        "P"
      ],
      [
        "ĠS",
        "M"
      ],
      [
        "Ġma",
        "x"
      ],
      [
        "o",
        "bject"
      ],
      [
        "Ġ",
        "M"
      ],
      [
        "Ġ",
        "3"
      ],
      [
        "Ġa",
        "l"
      ],
      [
        "iz",
        "e"
      ],
      [
        "a",
        "m"
      ],
      [
        "ĠSM",
        "ALL"
      ],
      [
        "Ġw",
        "hi"
      ],
      [
        "I",
        "G"
      ],
      [
        "Ġd",
        "i"
      ],
      [
        "Ġnum",
        "s"
      ],
      [
        "re",
        "e"
      ],
      [
        "ĠT",
        "ime"
      ],
      [
        "Ġ",
        "j"
      ],
      [
        "e",
        "l"
      ],
      [
        "Ġv",
        "alue"
      ],
      [
        "e",
        "xt"
      ],
      [
        "R",
        "A"
      ],
      [
        "(",
        "'"
      ],
      [
        "re",
        "nt"
      ],
      [
        "Ġx",
        "range"
      ],
      [
        "f",
        "f"
      ],
      [
        "ĠS",
        "pace"
      ],
      [
        "Ġ",
        "y"
      ],
      [
        "al",
        "se"
      ],
      [
        "ĠC",
        "AP"
      ],
      [
        "IT",
        "AL"
      ],
      [
        "ĠCAP",
        "ITAL"
      ],
      [
        "Ġc",
        "ur"
      ],
      [
        "it",
        "e"
      ],
      [
        "R",
        "E"
      ],
      [
        "ĠL",
        "ist"
      ],
      [
        "te",
        "d"
      ],
      [
        "u",
        "b"
      ],
      [
        "Ġp",
        "re"
      ],
      [
        "Ġ",
        ">"
      ],
      [
        "i",
        "c"
      ],
      [
        "Ġc",
        "ol"
      ],
      [
        "L",
        "E"
      ],
      [
        "l",
        "y"
      ],
      [
        "ce",
        "pt"
      ],
      [
        "de",
        "x"
      ],
      [
        "I",
        "C"
      ],
      [
        "r",
        "y"
      ],
      [
        "r",
        "type"
      ],
      [
        "m",
        "at"
      ],
      [
        "t",
        "o"
      ],
      [
        "a",
        "nd"
      ],
      [
        "p",
        "re"
      ],
      [
        "ro",
        "ot"
      ],
      [
        "e",
        "t"
      ],
      [
        "Ġ",
        "he"
      ],
      [
        "Ġ",
        "V"
      ],
      [
        "an",
        "ce"
      ],
      [
        "Ġra",
        "ise"
      ],
      [
        "Ġ",
        "r"
      ],
      [
        "Ġw",
        "ith"
      ],
      [
        "f",
        "rom"
      ],
      [
        "'",
        ")"
      ],
      [
        "ĠS",
        "olution"
      ],
      [
        "Ġp",
        "ro"
      ],
      [
        "\"",
        ":"
      ],
      [
        "i",
        "ve"
      ],
      [
        "Ġn",
        "ode"
      ],
      [
        "i",
        "g"
      ],
      [
        "ĠĠĠĠĠĠĠĠ",
        "ĠĠĠĠĠĠĠĠĠĠĠĠĠĠĠ"
      ],
      [
        "Ġ",
        "en"
      ],
      [
        "/",
        "/"
      ],
      [
        "i",
        "m"
      ],
      [
        "hi",
        "s"
      ],
      [
        "fi",
        "x"
      ],
      [
        "p",
        "ro"
      ],
      [
        "Ġwhi",
        "le"
      ],
      [
        "Ġ",
        "right"
      ],
      [
        "m",
        "o"
      ],
      [
        "Ġ",
        "me"
      ],
      [
        "i",
        "mport"
      ],
      [
        "ĠT",
        "rue"
      ],
      [
        "--",
        "--"
      ],
      [
        "__",
        "("
      ],
      [
        "q",
        "ue"
      ],
      [
        "y",
        "s"
      ],
      [
        "p",
        "ar"
      ],
      [
        "e",
        "x"
      ],
      [
        "se",
        "d"
      ],
      [
        "Ġ",
        "left"
      ],
      [
        "p",
        "er"
      ],
      [
        "u",
        "s"
      ],
      [
        "p",
        "ath"
      ],
      [
        "a",
        "ge"
      ],
      [
        "Ġb",
        "y"
      ],
      [
        "]",
        ":"
      ],
      [
        "Ġf",
        "rom"
      ],
      [
        "u",
        "le"
      ],
      [
        "te",
        "xt"
      ],
      [
        "i",
        "p"
      ],
      [
        "v",
        "al"
      ],
      [
        "Ġ",
        "U"
      ],
      [
        "m",
        "s"
      ],
      [
        "Ġc",
        "h"
      ],
      [
        "num",
        "s"
      ],
      [
        "ra",
        "y"
      ],
      [
        "Ġn",
        "ame"
      ],
      [
        "Ġnum",
        "ber"
      ],
      [
        "u",
        "re"
      ],
      [
        "e",
        "st"
      ],
      [
        "r",
        "int"
      ],
      [
        "a",
        "c"
      ],
      [
        "IN",
        "G"
      ],
      [
        "O",
        "R"
      ],
      [
        "l",
        "ist"
      ],
      [
        "c",
        "ur"
      ],
      [
        "ra",
        "p"
      ],
      [
        "Ġ",
        "%"
      ],
      [
        "n",
        "ode"
      ],
      [
        "c",
        "l"
      ],
      [
        "f",
        "or"
      ],
      [
        "fi",
        "le"
      ],
      [
        "l",
        "ine"
      ],
      [
        "IT",
        "H"
      ],
      [
        "Ġcon",
        "t"
      ],
      [
        "ar",
        "y"
      ],
      [
        "ĠW",
        "ITH"
      ],
      [
        "ĠT",
        "he"
      ],
      [
        "a",
        "der"
      ],
      [
        "ok",
        "up"
      ],
      [
        "Ġm",
        "in"
      ],
      [
        "a",
        "ct"
      ],
      [
        "Ġi",
        "t"
      ],
      [
        "Ġ",
        "H"
      ],
      [
        "Ġl",
        "ine"
      ],
      [
        "er",
        "s"
      ],
      [
        "Ġs",
        "o"
      ],
      [
        "Ġ",
        "G"
      ],
      [
        "Ġa",
        "d"
      ],
      [
        "o",
        "ut"
      ],
      [
        "2",
        "5"
      ],
      [
        "s",
        "p"
      ],
      [
        "ĠF",
        "alse"
      ],
      [
        "it",
        "er"
      ],
      [
        "ction",
        "s"
      ],
      [
        "o",
        "m"
      ],
      [
        "N",
        "D"
      ],
      [
        "Ġ",
        "4"
      ],
      [
        "R",
        "e"
      ],
      [
        "Ġd",
        "o"
      ],
      [
        "A",
        "R"
      ],
      [
        "a",
        "ult"
      ],
      [
        "c",
        "ol"
      ],
      [
        "Ġ",
        "get"
      ],
      [
        "Ġd",
        "p"
      ],
      [
        "Ġ",
        "|"
      ],
      [
        "f",
        "o"
      ],
      [
        "a",
        "st"
      ],
      [
        "Ġth",
        "at"
      ],
      [
        "Ġ",
        "on"
      ],
      [
        "s",
        "o"
      ],
      [
        "v",
        "alue"
      ],
      [
        "]",
        "]"
      ],
      [
        "Ġfi",
        "le"
      ],
      [
        "Ġne",
        "w"
      ],
      [
        "p",
        "y"
      ],
      [
        "Ġ",
        ")"
      ],
      [
        "Ġ",
        "key"
      ],
      [
        "od",
        "ule"
      ],
      [
        "Ġp",
        "a"
      ],
      [
        "h",
        "er"
      ],
      [
        "in",
        "it"
      ],
      [
        "re",
        "ad"
      ],
      [
        "Ġp",
        "rint"
      ],
      [
        "lo",
        "w"
      ],
      [
        "d",
        "ing"
      ],
      [
        "lo",
        "at"
      ],
      [
        "(",
        "["
      ],
      [
        "er",
        "ror"
      ],
      [
        "Ġ[",
        "]"
      ],
      [
        "..",
        "."
      ],
      [
        "ar",
        "gs"
      ],
      [
        "c",
        "i"
      ],
      [
        "at",
        "or"
      ],
      [
        "Ġ",
        "range"
      ],
      [
        "d",
        "ata"
      ],
      [
        "Ġ",
        "!"
      ],
      [
        "Ġ",
        "5"
      ],
      [
        "'",
        ":"
      ],
      [
        "Ġex",
        "cept"
      ],
      [
        "it",
        "y"
      ],
      [
        "I",
        "L"
      ],
      [
        "ser",
        "t"
      ],
      [
        "Ġ!",
        "="
      ],
      [
        "v",
        "i"
      ],
      [
        "ad",
        "d"
      ],
      [
        "Ġa",
        "re"
      ],
      [
        "ĠR",
        "e"
      ],
      [
        "u",
        "nd"
      ],
      [
        "##",
        "##"
      ],
      [
        "N",
        "one"
      ],
      [
        "b",
        "ack"
      ],
      [
        "=",
        "="
      ],
      [
        "ro",
        "w"
      ],
      [
        "Ġlo",
        "okup"
      ],
      [
        "g",
        "th"
      ],
      [
        "re",
        "d"
      ],
      [
        "i",
        "v"
      ],
      [
        "Ġ",
        "set"
      ],
      [
        "ar",
        "get"
      ],
      [
        "b",
        "u"
      ],
      [
        "Ġ",
        "un"
      ],
      [
        "b",
        "le"
      ],
      [
        "ce",
        "ss"
      ],
      [
        "s",
        "ize"
      ],
      [
        "or",
        "ted"
      ],
      [
        "Ġel",
        "if"
      ],
      [
        "ma",
        "in"
      ],
      [
        "f",
        "e"
      ],
      [
        "Ġp",
        "ar"
      ],
      [
        "ĠV",
        "alue"
      ],
      [
        "len",
        "ame"
      ],
      [
        "it",
        "ion"
      ],
      [
        "o",
        "int"
      ],
      [
        "Ġco",
        "unt"
      ],
      [
        "Ġd",
        "ata"
      ],
      [
        "co",
        "unt"
      ],
      [
        "Ġb",
        "o"
      ],
      [
        "he",
        "ck"
      ],
      [
        "Ġf",
        "un"
      ],
      [
        "ce",
        "s"
      ],
      [
        "Ġ<",
        "="
      ],
      [
        "1",
        "0"
      ],
      [
        "m",
        "b"
      ],
      [
        "p",
        "s"
      ],
      [
        "Ġstr",
        "ing"
      ],
      [
        "th",
        "od"
      ],
      [
        "ĠValue",
        "Error"
      ],
      [
        "Ġs",
        "h"
      ],
      [
        "Ġc",
        "ode"
      ],
      [
        "Ġw",
        "e"
      ],
      [
        "Ġp",
        "ath"
      ],
      [
        "i",
        "al"
      ],
      [
        "Ġ",
        "..."
      ],
      [
        "Ġcol",
        "le"
      ],
      [
        "u",
        "st"
      ],
      [
        "ri",
        "x"
      ],
      [
        "Ġm",
        "at"
      ],
      [
        "ri",
        "d"
      ],
      [
        "O",
        "U"
      ],
      [
        "b",
        "o"
      ],
      [
        "t",
        "ime"
      ],
      [
        ")",
        "):"
      ],
      [
        ")",
        "."
      ],
      [
        "i",
        "ght"
      ],
      [
        "ation",
        "s"
      ],
      [
        "th",
        "on"
      ],
      [
        "ot",
        "her"
      ],
      [
        ")",
        "]"
      ],
      [
        "Ġt",
        "ry"
      ],
      [
        "re",
        "n"
      ],
      [
        "Ġt",
        "his"
      ],
      [
        "in",
        "dex"
      ],
      [
        "a",
        "k"
      ],
      [
        "ur",
        "ce"
      ],
      [
        "at",
        "t"
      ],
      [
        "c",
        "re"
      ],
      [
        "`",
        "`"
      ],
      [
        "ma",
        "x"
      ],
      [
        "E",
        "S"
      ],
      [
        "n",
        "e"
      ],
      [
        "s",
        "h"
      ],
      [
        "Ġcur",
        "r"
      ],
      [
        "co",
        "ding"
      ],
      [
        "(",
        "("
      ],
      [
        "g",
        "er"
      ],
      [
        "]",
        "*"
      ],
      [
        "rap",
        "h"
      ],
      [
        "l",
        "d"
      ],
      [
        "Ġ",
        "root"
      ],
      [
        "Ġc",
        "nt"
      ],
      [
        "i",
        "le"
      ],
      [
        "Ġo",
        "ut"
      ],
      [
        "ot",
        "al"
      ],
      [
        "m",
        "in"
      ],
      [
        "pt",
        "ion"
      ],
      [
        "r",
        "st"
      ],
      [
        "Ġt",
        "ime"
      ],
      [
        "lo",
        "g"
      ],
      [
        "Ġt",
        "ype"
      ],
      [
        "il",
        "l"
      ],
      [
        "(",
        "):"
      ],
      [
        "a",
        "mple"
      ],
      [
        "Ġch",
        "ar"
      ],
      [
        "H",
        "T"
      ],
      [
        "Ġf",
        "loat"
      ],
      [
        "Ġ",
        "/"
      ],
      [
        "Ġ",
        "le"
      ],
      [
        "de",
        "d"
      ],
      [
        "st",
        "ance"
      ],
      [
        "str",
        "ing"
      ],
      [
        "ar",
        "d"
      ],
      [
        "Ġh",
        "as"
      ],
      [
        "t",
        "y"
      ],
      [
        "Ġc",
        "all"
      ],
      [
        "ar",
        "ch"
      ],
      [
        "ra",
        "ce"
      ],
      [
        "Ġal",
        "l"
      ],
      [
        "I",
        "ON"
      ],
      [
        "st",
        "art"
      ],
      [
        "E",
        "D"
      ],
      [
        "Ġst",
        "art"
      ],
      [
        "Ġc",
        "an"
      ],
      [
        "0",
        "4"
      ],
      [
        "re",
        "am"
      ],
      [
        "ht",
        "t"
      ],
      [
        "Ġl",
        "ast"
      ],
      [
        "w",
        "ord"
      ],
      [
        "I",
        "n"
      ],
      [
        "c",
        "s"
      ],
      [
        "s",
        "ion"
      ],
      [
        "Ġv",
        "al"
      ],
      [
        "Ġcolle",
        "ctions"
      ],
      [
        "di",
        "ct"
      ],
      [
        "a",
        "in"
      ],
      [
        "ra",
        "me"
      ],
      [
        "I",
        "S"
      ],
      [
        "Ġcont",
        "in"
      ],
      [
        "and",
        "le"
      ],
      [
        "in",
        "ary"
      ],
      [
        "um",
        "ent"
      ],
      [
        "ar",
        "ray"
      ],
      [
        "**",
        "**"
      ],
      [
        "i",
        "es"
      ],
      [
        "Ġs",
        "um"
      ],
      [
        "E",
        "N"
      ],
      [
        "it",
        "s"
      ],
      [
        "re",
        "sult"
      ],
      [
        "IG",
        "HT"
      ],
      [
        "Ġo",
        "s"
      ],
      [
        "te",
        "st"
      ],
      [
        "Ġco",
        "mp"
      ],
      [
        "L",
        "ist"
      ],
      [
        "m",
        "ap"
      ],
      [
        "lo",
        "ck"
      ],
      [
        "en",
        "er"
      ],
      [
        "Ġcontin",
        "ue"
      ],
      [
        "Ġo",
        "bject"
      ],
      [
        "Ġ1",
        "0"
      ],
      [
        "O",
        "L"
      ],
      [
        "C",
        "o"
      ],
      [
        "or",
        "y"
      ],
      [
        "re",
        "ct"
      ],
      [
        "S",
        "t"
      ],
      [
        "Ġw",
        "ord"
      ],
      [
        "p",
        "os"
      ],
      [
        "i",
        "r"
      ],
      [
        "Ġp",
        "os"
      ],
      [
        "ĠĠĠĠ",
        "Ġ"
      ],
      [
        "a",
        "re"
      ],
      [
        "te",
        "s"
      ],
      [
        "Ġm",
        "o"
      ],
      [
        "c",
        "a"
      ],
      [
        "ĠB",
        "O"
      ],
      [
        "Ġb",
        "u"
      ],
      [
        "ING",
        "S"
      ],
      [
        "Ġin",
        "dex"
      ],
      [
        "ss",
        "age"
      ],
      [
        "E",
        "F"
      ],
      [
        "di",
        "r"
      ],
      [
        "ĠRe",
        "turn"
      ],
      [
        "el",
        "d"
      ],
      [
        ":",
        "//"
      ],
      [
        "H",
        "A"
      ],
      [
        "n",
        "ot"
      ],
      [
        "Ġt",
        "ext"
      ],
      [
        "Ġi",
        "ter"
      ],
      [
        "at",
        "ed"
      ],
      [
        "li",
        "b"
      ],
      [
        "0",
        "1"
      ],
      [
        "p",
        "la"
      ],
      [
        "v",
        "ent"
      ],
      [
        "Ġt",
        "arget"
      ],
      [
        "O",
        "D"
      ],
      [
        "]",
        "."
      ],
      [
        "se",
        "s"
      ],
      [
        "Ġs",
        "ub"
      ],
      [
        "ter",
        "n"
      ],
      [
        "RA",
        "W"
      ],
      [
        "o",
        "in"
      ],
      [
        "Ġ>",
        "="
      ],
      [
        "ĠD",
        "RAW"
      ],
      [
        "N",
        "ode"
      ],
      [
        "IG",
        "N"
      ],
      [
        "l",
        "l"
      ],
      [
        "ĠBO",
        "X"
      ],
      [
        "ĠDRAW",
        "INGS"
      ],
      [
        "co",
        "m"
      ],
      [
        "IL",
        "L"
      ],
      [
        "in",
        "k"
      ],
      [
        "Ġs",
        "ys"
      ],
      [
        "re",
        "ak"
      ],
      [
        "Ġ",
        "end"
      ],
      [
        "p",
        "op"
      ],
      [
        "[",
        "-"
      ],
      [
        "S",
        "T"
      ],
      [
        "Ġ",
        "other"
      ],
      [
        "or",
        "s"
      ],
      [
        "up",
        "le"
      ],
      [
        "ĠA",
        "ND"
      ],
      [
        "hi",
        "ld"
      ],
      [
        "d",
        "a"
      ],
      [
        "r",
        "ite"
      ],
      [
        "ON",
        "T"
      ],
      [
        "ĠĠĠĠ",
        "ĠĠ"
      ],
      [
[...]
